[PAD]
[unused0]
[unused1]
[unused2]
[unused3]
[unused4]
[unused5]
[unused6]
[unused7]
[unused8]
[unused9]
[unused10]
[unused11]
[unused12]
[unused13]
[unused14]
[unused15]
[unused16]
[unused17]
[unused18]
[unused19]
[unused20]
[unused21]
[unused22]
[unused23]
[unused24]
[unused25]
[unused26]
[unused27]
[unused28]
[unused29]
[unused30]
[unused31]
[unused32]
[unused33]
[unused34]
[unused35]
[unused36]
[unused37]
[unused38]
[unused39]
[unused40]
[unused41]
[unused42]
[unused43]
[unused44]
[unused45]
[unused46]
[unused47]
[unused48]
[unused49]
[unused50]
[unused51]
[unused52]
[unused53]
[unused54]
[unused55]
[unused56]
[unused57]
[unused58]
[unused59]
[unused60]
[unused61]
[unused62]
[unused63]
[unused64]
[unused65]
[unused66]
[unused67]
[unused68]
[unused69]
[unused70]
[unused71]
[unused72]
[unused73]
[unused74]
[unused75]
[unused76]
[unused77]
[unused78]
[unused79]
[unused80]
[unused81]
[unused82]
[unused83]
[unused84]
[unused85]
[unused86]
[unused87]
[unused88]
[unused89]
[unused90]
[unused91]
[unused92]
[unused93]
[unused94]
[unused95]
[unused96]
[unused97]
[unused98]
[UNK]
[CLS]
[SEP]
[MASK]
[unused99]
[unused100]
[unused101]
[unused102]
[unused103]
[unused104]
[unused105]
[unused106]
[unused107]
[unused108]
[unused109]
[unused110]
[unused111]
[unused112]
[unused113]
[unused114]
[unused115]
[unused116]
[unused117]
[unused118]
[unused119]
[unused120]
[unused121]
[unused122]
[unused123]
[unused124]
[unused125]
[unused126]
[unused127]
[unused128]
[unused129]
[unused130]
[unused131]
[unused132]
[unused133]
[unused134]
[unused135]
[unused136]
[unused137]
[unused138]
[unused139]
[unused140]
[unused141]
[unused142]
[unused143]
[unused144]
[unused145]
[unused146]
[unused147]
[unused148]
[unused149]
[unused150]
[unused151]
[unused152]
[unused153]
[unused154]
[unused155]
[unused156]
[unused157]
[unused158]
[unused159]
[unused160]
[unused161]
[unused162]
[unused163]
[unused164]
[unused165]
[unused166]
[unused167]
[unused168]
[unused169]
[unused170]
[unused171]
[unused172]
[unused173]
[unused174]
[unused175]
[unused176]
[unused177]
[unused178]
[unused179]
[unused180]
[unused181]
[unused182]
[unused183]
[unused184]
[unused185]
[unused186]
[unused187]
[unused188]
[unused189]
[unused190]
[unused191]
[unused192]
[unused193]
[unused194]
[unused195]
[unused196]
[unused197]
[unused198]
[unused199]
[unused200]
[unused201]
[unused202]
[unused203]
[unused204]
[unused205]
[unused206]
[unused207]
[unused208]
[unused209]
[unused210]
[unused211]
[unused212]
[unused213]
[unused214]
[unused215]
[unused216]
[unused217]
[unused218]
[unused219]
[unused220]
[unused221]
[unused222]
[unused223]
[unused224]
[unused225]
[unused226]
[unused227]
[unused228]
[unused229]
[unused230]
[unused231]
[unused232]
[unused233]
[unused234]
[unused235]
[unused236]
[unused237]
[unused238]
[unused239]
[unused240]
[unused241]
[unused242]
[unused243]
[unused244]
[unused245]
[unused246]
[unused247]
[unused248]
[unused249]
[unused250]
[unused251]
[unused252]
[unused253]
[unused254]
[unused255]
[unused256]
[unused257]
[unused258]
[unused259]
[unused260]
[unused261]
[unused262]
[unused263]
[unused264]
[unused265]
[unused266]
[unused267]
[unused268]
[unused269]
[unused270]
[unused271]
[unused272]
[unused273]
[unused274]
[unused275]
[unused276]
[unused277]
[unused278]
[unused279]
[unused280]
[unused281]
[unused282]
[unused283]
[unused284]
[unused285]
[unused286]
[unused287]
[unused288]
[unused289]
[unused290]
[unused291]
[unused292]
[unused293]
[unused294]
[unused295]
[unused296]
[unused297]
[unused298]
[unused299]
[unused300]
[unused301]
[unused302]
[unused303]
[unused304]
[unused305]
[unused306]
[unused307]
[unused308]
[unused309]
[unused310]
[unused311]
[unused312]
[unused313]
[unused314]
[unused315]
[unused316]
[unused317]
[unused318]
[unused319]
[unused320]
[unused321]
[unused322]
[unused323]
[unused324]
[unused325]
[unused326]
[unused327]
[unused328]
[unused329]
[unused330]
[unused331]
[unused332]
[unused333]
[unused334]
[unused335]
[unused336]
[unused337]
[unused338]
[unused339]
[unused340]
[unused341]
[unused342]
[unused343]
[unused344]
[unused345]
[unused346]
[unused347]
[unused348]
[unused349]
[unused350]
[unused351]
[unused352]
[unused353]
[unused354]
[unused355]
[unused356]
[unused357]
[unused358]
[unused359]
[unused360]
[unused361]
[unused362]
[unused363]
[unused364]
[unused365]
[unused366]
[unused367]
[unused368]
[unused369]
[unused370]
[unused371]
[unused372]
[unused373]
[unused374]
[unused375]
[unused376]
[unused377]
[unused378]
[unused379]
[unused380]
[unused381]
[unused382]
[unused383]
[unused384]
[unused385]
[unused386]
[unused387]
[unused388]
[unused389]
[unused390]
[unused391]
[unused392]
[unused393]
[unused394]
[unused395]
[unused396]
[unused397]
[unused398]
[unused399]
[unused400]
[unused401]
[unused402]
[unused403]
[unused404]
[unused405]
[unused406]
[unused407]
[unused408]
[unused409]
[unused410]
[unused411]
[unused412]
[unused413]
[unused414]
[unused415]
[unused416]
[unused417]
[unused418]
[unused419]
[unused420]
[unused421]
[unused422]
[unused423]
[unused424]
[unused425]
[unused426]
[unused427]
[unused428]
[unused429]
[unused430]
[unused431]
[unused432]
[unused433]
[unused434]
[unused435]
[unused436]
[unused437]
[unused438]
[unused439]
[unused440]
[unused441]
[unused442]
[unused443]
[unused444]
[unused445]
[unused446]
[unused447]
[unused448]
[unused449]
[unused450]
[unused451]
[unused452]
[unused453]
[unused454]
[unused455]
[unused456]
[unused457]
[unused458]
[unused459]
[unused460]
[unused461]
[unused462]
[unused463]
[unused464]
[unused465]
[unused466]
[unused467]
[unused468]
[unused469]
[unused470]
[unused471]
[unused472]
[unused473]
[unused474]
[unused475]
[unused476]
[unused477]
[unused478]
[unused479]
[unused480]
[unused481]
[unused482]
[unused483]
[unused484]
[unused485]
[unused486]
[unused487]
[unused488]
[unused489]
[unused490]
[unused491]
[unused492]
[unused493]
[unused494]
[unused495]
[unused496]
[unused497]
[unused498]
[unused499]
[unused500]
[unused501]
[unused502]
[unused503]
[unused504]
[unused505]
[unused506]
[unused507]
[unused508]
[unused509]
[unused510]
[unused511]
[unused512]
[unused513]
[unused514]
[unused515]
[unused516]
[unused517]
[unused518]
[unused519]
[unused520]
[unused521]
[unused522]
[unused523]
[unused524]
[unused525]
[unused526]
[unused527]
[unused528]
[unused529]
[unused530]
[unused531]
[unused532]
[unused533]
[unused534]
[unused535]
[unused536]
[unused537]
[unused538]
[unused539]
[unused540]
[unused541]
[unused542]
[unused543]
[unused544]
[unused545]
[unused546]
[unused547]
[unused548]
[unused549]
[unused550]
[unused551]
[unused552]
[unused553]
[unused554]
[unused555]
[unused556]
[unused557]
[unused558]
[unused559]
[unused560]
[unused561]
[unused562]
[unused563]
[unused564]
[unused565]
[unused566]
[unused567]
[unused568]
[unused569]
[unused570]
[unused571]
[unused572]
[unused573]
[unused574]
[unused575]
[unused576]
[unused577]
[unused578]
[unused579]
[unused580]
[unused581]
[unused582]
[unused583]
[unused584]
[unused585]
[unused586]
[unused587]
[unused588]
[unused589]
[unused590]
[unused591]
[unused592]
[unused593]
[unused594]
[unused595]
[unused596]
[unused597]
[unused598]
[unused599]
[unused600]
[unused601]
[unused602]
[unused603]
[unused604]
[unused605]
[unused606]
[unused607]
[unused608]
[unused609]
[unused610]
[unused611]
[unused612]
[unused613]
[unused614]
[unused615]
[unused616]
[unused617]
[unused618]
[unused619]
[unused620]
[unused621]
[unused622]
[unused623]
[unused624]
[unused625]
[unused626]
[unused627]
[unused628]
[unused629]
[unused630]
[unused631]
[unused632]
[unused633]
[unused634]
[unused635]
[unused636]
[unused637]
[unused638]
[unused639]
[unused640]
[unused641]
[unused642]
[unused643]
[unused644]
[unused645]
[unused646]
[unused647]
[unused648]
[unused649]
[unused650]
[unused651]
[unused652]
[unused653]
[unused654]
[unused655]
[unused656]
[unused657]
[unused658]
[unused659]
[unused660]
[unused661]
[unused662]
[unused663]
[unused664]
[unused665]
[unused666]
[unused667]
[unused668]
[unused669]
[unused670]
[unused671]
[unused672]
[unused673]
[unused674]
[unused675]
[unused676]
[unused677]
[unused678]
[unused679]
[unused680]
[unused681]
[unused682]
[unused683]
[unused684]
[unused685]
[unused686]
[unused687]
[unused688]
[unused689]
[unused690]
[unused691]
[unused692]
[unused693]
[unused694]
[unused695]
[unused696]
[unused697]
[unused698]
[unused699]
[unused700]
[unused701]
[unused702]
[unused703]
[unused704]
[unused705]
[unused706]
[unused707]
[unused708]
[unused709]
[unused710]
[unused711]
[unused712]
[unused713]
[unused714]
[unused715]
[unused716]
[unused717]
[unused718]
[unused719]
[unused720]
[unused721]
[unused722]
[unused723]
[unused724]
[unused725]
[unused726]
[unused727]
[unused728]
[unused729]
[unused730]
[unused731]
[unused732]
[unused733]
[unused734]
[unused735]
[unused736]
[unused737]
[unused738]
[unused739]
[unused740]
[unused741]
[unused742]
[unused743]
[unused744]
[unused745]
[unused746]
[unused747]
[unused748]
[unused749]
[unused750]
[unused751]
[unused752]
[unused753]
[unused754]
[unused755]
[unused756]
[unused757]
[unused758]
[unused759]
[unused760]
[unused761]
[unused762]
[unused763]
[unused764]
[unused765]
[unused766]
[unused767]
[unused768]
[unused769]
[unused770]
[unused771]
[unused772]
[unused773]
[unused774]
[unused775]
[unused776]
[unused777]
[unused778]
[unused779]
[unused780]
[unused781]
[unused782]
[unused783]
[unused784]
[unused785]
[unused786]
[unused787]
[unused788]
[unused789]
[unused790]
[unused791]
[unused792]
[unused793]
[unused794]
[unused795]
[unused796]
[unused797]
[unused798]
[unused799]
[unused800]
[unused801]
[unused802]
[unused803]
[unused804]
[unused805]
[unused806]
[unused807]
[unused808]
[unused809]
[unused810]
[unused811]
[unused812]
[unused813]
[unused814]
[unused815]
[unused816]
[unused817]
[unused818]
[unused819]
[unused820]
[unused821]
[unused822]
[unused823]
[unused824]
[unused825]
[unused826]
[unused827]
[unused828]
[unused829]
[unused830]
[unused831]
[unused832]
[unused833]
[unused834]
[unused835]
[unused836]
[unused837]
[unused838]
[unused839]
[unused840]
[unused841]
[unused842]
[unused843]
[unused844]
[unused845]
[unused846]
[unused847]
[unused848]
[unused849]
[unused850]
[unused851]
[unused852]
[unused853]
[unused854]
[unused855]
[unused856]
[unused857]
[unused858]
[unused859]
[unused860]
[unused861]
[unused862]
[unused863]
[unused864]
[unused865]
[unused866]
[unused867]
[unused868]
[unused869]
[unused870]
[unused871]
[unused872]
[unused873]
[unused874]
[unused875]
[unused876]
[unused877]
[unused878]
[unused879]
[unused880]
[unused881]
[unused882]
[unused883]
[unused884]
[unused885]
[unused886]
[unused887]
[unused888]
[unused889]
[unused890]
[unused891]
[unused892]
[unused893]
[unused894]
[unused895]
[unused896]
[unused897]
[unused898]
[unused899]
[unused900]
[unused901]
[unused902]
[unused903]
[unused904]
[unused905]
[unused906]
[unused907]
[unused908]
[unused909]
[unused910]
[unused911]
[unused912]
[unused913]
[unused914]
[unused915]
[unused916]
[unused917]
[unused918]
[unused919]
[unused920]
[unused921]
[unused922]
[unused923]
[unused924]
[unused925]
[unused926]
[unused927]
[unused928]
[unused929]
[unused930]
[unused931]
[unused932]
[unused933]
[unused934]
[unused935]
[unused936]
[unused937]
[unused938]
[unused939]
[unused940]
[unused941]
[unused942]
[unused943]
[unused944]
[unused945]
[unused946]
[unused947]
[unused948]
[unused949]
[unused950]
[unused951]
[unused952]
[unused953]
[unused954]
[unused955]
[unused956]
[unused957]
[unused958]
[unused959]
[unused960]
[unused961]
[unused962]
[unused963]
[unused964]
[unused965]
[unused966]
[unused967]
[unused968]
[unused969]
[unused970]
[unused971]
[unused972]
[unused973]
[unused974]
[unused975]
[unused976]
[unused977]
[unused978]
[unused979]
[unused980]
[unused981]
[unused982]
[unused983]
[unused984]
[unused985]
[unused986]
[unused987]
[unused988]
[unused989]
[unused990]
[unused991]
[unused992]
[unused993]
!
"
#
$
৳
%
&
'
(
)
*
+
,
-
.
।
‘
’
“
”
/
০
১
২
৩
৪
৫
৬
৭
৮
৯
0
1
2
3
4
5
6
7
8
9
:
;
<
=
>
?
@
[
\
]
^
_
`
অ
আ
ই
ঈ
উ
ঊ
ঋ
এ
ঐ
ও
ঔ
ক
খ
গ
ঘ
ঙ
চ
ছ
জ
ঝ
ঞ
ট
ঠ
ড
ঢ
ণ
ত
থ
দ
ধ
ন
প
ফ
ব
ভ
ম
য
র
ল
শ
ষ
স
হ
ড়
ঢ়
য়
ৎ
ং
ঃ
ঁ
া
ি
ী
ু
ৃ
ে
ৈ
ো
ৌ
র্
্য
্র
্ন
্ম
্ল
্ব
a
b
c
d
e
f
g
h
i
j
k
l
m
n
o
p
q
r
s
t
u
v
w
x
y
z
{
|
}
~
¡
¢
£
¤
¥
¦
§
¨
©
ª
«
¬
®
°
±
²
³
´
µ
¶
·
¹
º
»
¼
½
¾
¿
×
ß
æ
ð
÷
ø
þ
đ
ħ
ı
ł
ŋ
œ
ƒ
ɐ
ɑ
ɒ
ɔ
ɕ
ə
ɛ
ɡ
ɣ
ɨ
ɪ
ɫ
ɬ
ɯ
ɲ
ɴ
ɹ
ɾ
ʀ
ʁ
ʂ
ʃ
ʉ
ʊ
ʋ
ʌ
ʎ
ʐ
ʑ
ʒ
ʔ
ʰ
ʲ
ʳ
ʷ
ʸ
ʻ
ʼ
ʾ
ʿ
ˈ
ː
ˡ
ˢ
ˣ
ˤ
α
β
γ
δ
ε
ζ
η
θ
ι
κ
λ
μ
ν
ξ
ο
π
ρ
ς
σ
τ
υ
φ
χ
ψ
ω
а
б
в
г
д
е
ж
з
и
к
л
м
н
о
п
р
с
т
у
ф
х
ц
ч
ш
щ
ъ
ы
ь
э
ю
я
ђ
є
і
ј
љ
њ
ћ
ӏ
ա
բ
գ
դ
ե
թ
ի
լ
կ
հ
մ
յ
ն
ո
պ
ս
վ
տ
ր
ւ
ք
־
א
ב
ג
ד
ה
ו
ז
ח
ט
י
ך
כ
ל
ם
מ
ן
נ
ס
ע
ף
פ
ץ
צ
ק
ר
ש
ת
،
ء
ا
ب
ة
ت
ث
ج
ح
خ
د
ذ
ر
ز
س
ش
ص
ض
ط
ظ
ع
غ
ـ
ف
ق
ك
ل
م
ن
ه
و
ى
ي
ٹ
پ
چ
ک
گ
ں
ھ
ہ
ی
ے
अ
आ
उ
ए
क
ख
ग
च
ज
ट
ड
ण
त
थ
द
ध
न
प
ब
भ
म
य
र
ल
व
श
ष
स
ह
க
ச
ட
த
ந
ன
ப
ம
ய
ர
ல
ள
வ
ா
ி
ு
ே
ை
ನ
ರ
ಾ
ක
ය
ර
ල
ව
ා
ก
ง
ต
ท
น
พ
ม
ย
ร
ล
ว
ส
อ
า
เ
་
།
ག
ང
ད
ན
པ
བ
མ
འ
ར
ལ
ས
မ
ა
ბ
გ
დ
ე
ვ
თ
ი
კ
ლ
მ
ნ
ო
რ
ს
ტ
უ
ᄀ
ᄂ
ᄃ
ᄅ
ᄆ
ᄇ
ᄉ
ᄊ
ᄋ
ᄌ
ᄎ
ᄏ
ᄐ
ᄑ
ᄒ
ᅡ
ᅢ
ᅥ
ᅦ
ᅧ
ᅩ
ᅪ
ᅭ
ᅮ
ᅯ
ᅲ
ᅳ
ᅴ
ᅵ
ᆨ
ᆫ
ᆯ
ᆷ
ᆸ
ᆼ
ᴬ
ᴮ
ᴰ
ᴵ
ᴺ
ᵀ
ᵃ
ᵇ
ᵈ
ᵉ
ᵍ
ᵏ
ᵐ
ᵒ
ᵖ
ᵗ
ᵘ
ᵢ
ᵣ
ᵤ
ᵥ
ᶜ
ᶠ
‐
‑
‒
–
—
―
‖
‘
’
‚
“
”
„
†
‡
•
…
‰
′
″
›
‿
⁄
⁰
ⁱ
⁴
⁵
⁶
⁷
⁸
⁹
⁺
⁻
ⁿ
₀
₁
₂
₃
₄
₅
₆
₇
₈
₉
₊
₍
₎
ₐ
ₑ
ₒ
ₓ
ₕ
ₖ
ₗ
ₘ
ₙ
ₚ
ₛ
ₜ
₤
₩
€
₱
₹
ℓ
№
ℝ
™
⅓
⅔
←
↑
→
↓
↔
↦
⇄
⇌
⇒
∂
∅
∆
∇
∈
−
∗
∘
√
∞
∧
∨
∩
∪
≈
≡
≤
≥
⊂
⊆
⊕
⊗
⋅
─
│
■
▪
●
★
☆
☉
♠
♣
♥
♦
♭
♯
⟨
⟩
ⱼ
⺩
⺼
⽥
、
。
〈
〉
《
》
「
」
『
•
�
』
〜
あ
い
う
え
お
か
き
く
け
こ
さ
し
す
せ
そ
た
ち
っ
つ
て
と
な
に
ぬ
ね
の
は
ひ
ふ
へ
ほ
ま
み
む
め
も
や
ゆ
よ
ら
り
る
れ
ろ
を
ん
ァ
ア
ィ
イ
ウ
ェ
エ
オ
カ
キ
ク
ケ
コ
サ
シ
ス
セ
タ
チ
ッ
ツ
テ
ト
ナ
ニ
ノ
ハ
ヒ
フ
ヘ
ホ
マ
ミ
ム
メ
モ
ャ
ュ
ョ
ラ
リ
ル
レ
ロ
ワ
ン
・
ー
一
三
上
下
不
世
中
主
久
之
也
事
二
五
井
京
人
亻
仁
介
代
仮
伊
会
佐
侍
保
信
健
元
光
八
公
内
出
分
前
劉
力
加
勝
北
区
十
千
南
博
原
口
古
史
司
合
吉
同
名
和
囗
四
国
國
土
地
坂
城
堂
場
士
夏
外
大
天
太
夫
奈
女
子
学
宀
宇
安
宗
定
宣
宮
家
宿
寺
將
小
尚
山
岡
島
崎
川
州
巿
帝
平
年
幸
广
弘
張
彳
後
御
德
心
忄
志
忠
愛
成
我
戦
戸
手
扌
政
文
新
方
日
明
星
春
昭
智
曲
書
月
有
朝
木
本
李
村
東
松
林
森
楊
樹
橋
歌
止
正
武
比
氏
民
水
氵
氷
永
江
沢
河
治
法
海
清
漢
瀬
火
版
犬
王
生
田
男
疒
発
白
的
皇
目
相
省
真
石
示
社
神
福
禾
秀
秋
空
立
章
竹
糹
美
義
耳
良
艹
花
英
華
葉
藤
行
街
西
見
訁
語
谷
貝
貴
車
軍
辶
道
郎
郡
部
都
里
野
金
鈴
镇
長
門
間
阝
阿
陳
陽
雄
青
面
風
食
香
馬
高
龍
龸
ﬁ
ﬂ
！
（
）
，
－
．
／
：
？
～
ও
করে
##ের
হয়
এবং
থেকে
না
এই
##র
করা

তিনি
এ
একটি
জন্য
করেন
হয়েছে
হবে
তার
বলেন
##ও
করতে
যে
সঙ্গে
##ই
এর
মধ্যে
নিয়ে
এক
তাঁর
সালে
বা
আর
##কে
ছিল
প্রথম
হয়ে
সময়
পর
যায়
কোনো
কিন্তু
বলে
হিসেবে
তা
পারে
দিয়ে
কথা
আছে
তবে
হচ্ছে
শুরু
করার
বছর
তাদের
হাজার
##ে
বেশি
ছিলেন
টাকা
বাংলাদেশ
টি
বিভিন্ন
কিছু
করেছেন
আমরা
কোটি
রয়েছে
হতে
দুই
নয়
গত
পর্যন্ত
সালের
এখন
দেওয়া
কাজ
অনেক
বিরুদ্ধে
আরও
সে
বাংলাদেশের
যা
নতুন
ওই
সেই
করেছে
লাখ
তাঁদের
আমাদের
নেই
দেখা
মতো
তারা
সব
প্রধান
পাওয়া
এটি
থাকে
আগে
ওপর
মনে
প্রায়
একজন
দিন
বিচার
তাঁরা
আজ
বড়
কারণে
হন
গেছে
দেশের
মামলা
কাছে
হলে
মাধ্যমে
বলা
নাম
একটা
শেষ
হলো
ভারতের
তথ্য
দলের
তৈরি
কারণ
দিকে
যদি
সরকার
এমন
আমি
দেন
##—
জাতীয়
তিন
তাই
##সহ
দিতে
ক্ষেত্রে
কি
সাথে
সম্পদ
জন
ব্যবহার
ভালো
ধরনের
ঢাকা
##এর
থাকা
রহমান
এসব
দল
ছাড়া
টাকার
পরে
যাবে
হয়েছিল
প্রতি
এটা
ধরে
বিষয়ে
##তে
কী
অংশ
দুটি
হওয়ার
তাঁকে
ফলে
পারেন
নেতা
তো
খুব
আমার
সাধারণ
তখন
নামে
জানান
দেশে
শেখ
মানুষ
হয়নি
বিশ্ববিদ্যালয়
হোসেন
একই
যেতে
এতে
দ্বিতীয়
উত্তর
বিভাগের
বলেছেন
বছরের
সবচেয়ে
বিশেষ
সেখানে
নারী
প্রধানমন্ত্রী
এখানে
অন্য
##দের
দায়িত্ব
আবার
বেশ
যখন
সংখ্যা
সরকারের
করছে
হল
সুযোগ
সম্পাদক
হক
##–
বিভাগ
আইন
হওয়া
কেউ
পুলিশ
সময়ে
করছেন
মানুষের
মো
শুধু
কম
নিতে
গিয়ে
করেছিলেন
পরিচালক
সদস্য
অবৈধ
আন্তর্জাতিক
নেওয়া
ভারত
মার্কিন
তাকে
ব্যবস্থা
মামলার
বন্ধ
এরপর
##য়
পড়ে
দক্ষিণ
রাজনৈতিক
আওয়ামী
নির্বাচন
শতাংশ
মূল
নিজের
কে
ইসলাম
অভিযোগ
প্রকাশ
চলে
সাবেক
দেওয়ার
যেমন
নানা
##টি
জানা
তাহলে
অর্থ
তুলে
যাচ্ছে
দেয়
বিষয়টি
অনুযায়ী
আলোকে
কেন
যার
থাকতে
সেটা
চেষ্টা
কোন
মিয়ানমারের
অন্যান্য
হলেও
র
এলাকায়
দ্য
বিএনপি
হাতে
এবার
যান
পালন
অন্যতম
অক্টোবর
নিশ্চিত
নির্বাহী
লাভ
দাবি
সৃষ্টি
খান
সরকারি
অবস্থিত
রান
পরিচিত
গ্রেপ্তার
ঘোষণা
পাশাপাশি
দ্বারা
গুরুত্বপূর্ণ
করলে
কারও
অবরুদ্ধ
কর্মকর্তা
দাম
হার
দিয়েছেন
প্রয়োজন
গতকাল
অর্জন
স্থানীয়
##এ
চার
উচিত
শিক্ষা
মাত্র
অব
করি
জেলা
আদালত
সম্পর্কে
তদন্ত
পক্ষে
যুক্তরাষ্ট্রের
বলতে
থাকবে
বিএনপির
এখনো
রাখা
ঘটনা
বাংলাদেশে
পাঁচ
ছোট
মামলায়
অবস্থান
আপনার
করবে
হয়েছেন
সিদ্ধান্ত
ফিরে
বিষয়
উপজেলার
তম
ভারতীয়
নির্বাচনে
নির্বাচিত
বন্ধু
দেশ
বর্তমানে
সম্ভব
##স
চেয়ে
পরিমাণ
চলচ্চিত্র
##ন
গড়ে
শেষে
##া
সাল
জেলার
সমস্যা
পরিবর্তন
প্রেসিডেন্ট
বিপক্ষে
হিসাবে
চৌধুরী
ছবি
শুক্রবার
অভিযান
আলোচনা
সভাপতি
আসে
আদালতের
মা
গ্রহণ
ক্রিকেট
ভূমিকা
পথ
মাস
ব্যাংকে
পেতে
পানি
সেপ্টেম্বর
খালেদা
যেন
থেকেই
লীগের
রাখতে
নভেম্বর
প্রতিষ্ঠান
উল্লেখ
##রা
রেখে
ব্যাপারে
অনুষ্ঠানে
অর্জনের
বর্তমান
দুদক
সড়ক
দিয়েছে
জন্ম
সম্পদের
বিশ্বের
এম
আছেন
কিংবা
এসে
অভিনয়
মে
নিজেদের
সহকারী
যোগ
রোহিঙ্গাদের
নামের
ছয়
মাসে
##ি
ইউনিয়ন
স্বাধীনতা
সর্বোচ্চ
রকম
সামনে
যেখানে
মোট
কয়েক
মধ্য
অনুষ্ঠিত
দেখে
তৃতীয়
কাদের
বের
ঘটে
ঠিক
আলী
মাসের
পুরস্কার
ঢাকার
নেন
উপস্থিত
ডিসেম্বর
আবেদন
বঙ্গবন্ধু
উপজেলা
জানতে
আয়োজন
নেওয়ার
বক্তব্য
যাওয়ার
সামাজিক
চেয়ারম্যান
যাওয়া
আগের
পান
ভোট
বাংলা
আল
শহরের
উইকেট
জানিয়েছেন
এগিয়ে
পর্যায়ে
আইনে
এসেছে
দুদকের
যারা
করেছিল
কীভাবে
ব্যাংক
করবেন
আলম
কলেজ
ধারণা
আগামী
সারা
পাশে
অবস্থায়
প্রশ্ন
যুক্ত
ভাগ
এনামুল
আদালতে
অভিযোগে
যদিও
নিরাপত্তা
দিনের
বাইরে
জামিন
চলছে
যাতে
থাকেন
ব্যাংকের
বোলিং
মুখে
আলোচনায়
পেয়ে
সেটি
কয়েকটি
দলে
আপনি
জীবন
স্থান
আশা
সামরিক
উপর
পূর্ব
দেখতে
পায়
খাবার
ব্রিটিশ
হয়তো
উন্নয়ন
##গুলো
খবর
##টা
গান
সবাই
ই
কাজে
তিনটি
অথবা
মার্চ
ক্ষমতা
নিহত
মোহাম্মদ
অ্যান্ড
বাজারে
পুলিশের
প্রকাশিত
থাকার
ঘটনায়
আনা
পরিবারের
ভাই
চাইলে
তাতে
যাঁরা
রায়
চালু
বিশ্ববিদ্যালয়ে
অধিকার
কখনো
দীর্ঘ
উদ্যোগ
হলেন
শুভ
পাবেন
হাসিনা
আলাদা
জুলাই
শহর
হতো
একটু
গেল
কেবল
এত
রাজধানীর
বেড়ে
নম্বর
বাবা
তালিকায়
সবার
পুরো
হত্যা
সম্পর্ক
জুন
সূত্র
দলীয়
দ্রুত
আহমেদ
কাছ
ব্যক্তি
আবদুল
জমা
স্থাবর
্যাব
চট্টগ্রাম
শহীদ
আগস্ট
রাখার
সেরা
অর্থনৈতিক
জানুয়ারি
সিটি
পাকিস্তান
শিক্ষক
আলো
বিরোধী
পাওয়ার
পূর্ণ
কুমিল্লা
কিলোমিটার
পাকিস্তানের
পরবর্তী
স্ত্রী
উঠে
হারিয়ে
বিক্রি
এলাকার
পরিবহন
কেন্দ্রীয়
অস্ত্র
নির্মাণ
মুক্তি
গেলে
ক্রিকেটে
এপ্রিল
বৃহস্পতিবার
মেডিকেল
পরিস্থিতি
নারীদের
যেসব
আসা
নিয়ন্ত্রণ
প্রাথমিক
নিয়োগ
জায়গা
ম্যাচে
মন্তব্য
জি
কত
চারটি
দরকার
মারা
ধরা
অবশ্য
জিয়ার
ইউনিয়নের
বাতিল
যেকোনো
কয়েকজন
গাড়ি
চা
সময়ের
কাজের
ইত্যাদি
স্বাধীনতার
নিয়েছে
পরিণত
স্থানে
সদর
পথে
পরিবেশ
আইনের
হাসান
বৃদ্ধি
পরীক্ষা
জিয়া
বছরে
অর্থাৎ
পেয়েছেন
জানিয়েছে
রোহিঙ্গা
হাত
আসতে
বাড়ি
ফেব্রুয়ারি
শিশু
হামলা
হোক
নেয়
চাই
রাজ্যের
ফেলে
বিভাগে
উচ্চ
হওয়ায়
কমিটির
জরুরি
থাকলে
প্রতিটি
পণ্য
নির্বাচনের
প্রদান
বিশ্ব
চিকিৎসা
সংগ্রহ
জনপ্রিয়
নাগরিক
আইসিজে
ভাষা
অবস্থা
জানায়
ওবায়দুল
তালিকা
প্রভাব
মতে
অন্যদিকে
নির্দেশ
বললেন
বল
সাড়ে
মূলত
যিনি
পরিচালনা
আবারও
সংস্থা
বিশ্বাস
ম্যাচ
রাতে
শনিবার
কেন্দ্র
হাসপাতালে
পদে
করতেন
এদের
কিছুটা
করুন
চান
আসলে
লক্ষ্য
গবেষণা
ভর্তি
অধ্যাপক
ডলার
এমনকি
দিক
ভূঁইয়া
জায়গায়
##ল
পরিকল্পনা
লেখা
দিনে
ছেড়ে
সাধারণত
পৃথক্
যায়নি
সহায়তা
##ী
ব্যবহৃত
জয়
ঘটনার
দেশটির
সকালে
শুরুর
##ণ
বাস
প্রার্থী
আসার
সুবিধা
মাহমুদ
এলাকা
চুক্তি
লীগ
পারবে
কার্যকর
যোগাযোগ
শীর্ষ
গঠন
মিলিয়ে
আগেই
সুপ্রিম
এভাবে
কমে
অন্তর্ভুক্ত
দশমিক
মৃত্যু
অঞ্চলের
নিয়েছেন
সমর্থন
মত
বাজার
জড়িত
তারিখে
প্রতিবেদনে
আরেকটি
স্থাপন
নদী
সম্ভাবনা
কার্যক্রম
বুধবার
নির্দেশনা
বিজয়
রানের
প্রযুক্তি
পেঁয়াজ
বর্গ
##অন্তর্বর্তীকালীন
স্বাধীন
আইনজীবী
আসেন
গেছেন
পার
অন্তত
স্বাস্থ্য
ছবির
বাকি
সংবাদ
ব্যবসা
প্রশ্নের
বলছেন
ইতিহাস
পরিষ্কার
রাসেল
সম্প্রতি
##ভাবে
দিচ্ছে
নারীর
ট্রাম্প
অথচ
শিকার
মাশরাফি
স্কুল
নিজেকে
খেলা
বহু
উদ্ধার
সংসদ
মেয়ে
জেনারেল
ছেলে
যুদ্ধ
আয়
ব্যর্থ
ভুল
পাঠানো
আরেক
রাত
গাম্বিয়ার
বরং
ভারতে
আন্দোলন
অনুসারে
পার্টির
অধীনে
আসামি
প্রস্তাব
উঠেছে
দুজন
টা
ক্ষমতায়
উন্নত
জনগণের
আসছে
অঞ্চলে
সেবা
পুরুষ
পারবেন
সৌদি
ভাষায়
সরাসরি
দিলেন
তৎকালীন
কর্তৃপক্ষ
শহরে
রানে
থাকলেও
খুবই
একমাত্র
গ্রামের
গঠিত
এছাড়াও
অঞ্চল
প্রয়োজনীয়
বিয়ে
চায়
শ
তেমন
বেগম
বয়স
ওঠে
আ
ছাত্র
পরিষদের
সরকারকে
অতিরিক্ত
পক্ষ
সাত
পেয়েছে
আসবে
প্রথমে
কঠিন
সম্রাটের
বিনিয়োগ
খেলায়
পেছনে
নিয়মিত
থানায়
করেই
দূরে
জাতিসংঘের
বেলা
ওভার
পরিবার
আইনজীবীদের
অনেকে
শুনানির
সফল
কমিশন
বাড়িতে
খেলার
প্রতিষ্ঠিত
বিচারক
আসন
থানার
আবুল
রহমানের
মাদক
কৃষি
বই
একে
জব্দ
যুক্তরাষ্ট্র
বসে
পদক্ষেপের
সহযোগিতা
মৃত্যুর
আদেশ
নিজ
পোশাক
রাজনীতি
সাক্ষরতা
রোববার
জানিয়ে
শাসন
মানে
বলছে
লোক
চালিয়ে
##গুলোর
উল্লেখযোগ্য
অপরাধ
আক্রান্ত
জীবনের
মুসলিম
থানা
করায়
মডেল
সৈয়দ
ছড়িয়ে
প্রভাবশালী
জানানো
ব্যাপক
সহজ
তেল
ক্রোক
কর্মকর্তাদের
রাজ্য
প্রতিবেদন
রাজধানী
উপলক্ষে
কমিটি
অনেকেই
নিন
কর্তৃক
তুলনায়
আহত
দাগ
পরিচালিত
মাঠে
অংশগ্রহণ
আমাকে
ফল
পারেনি
কাপ
রূপন
অফ
বয়সী
টেস্ট
##বিষয়ক
সিলেটের
শক্তি
উপপরিচালক
চীনের
গতি
ওভারে
নন
জবাবে
নদীর
শুনানি
একাধিক
খুঁজে
সোমবার
আটক
পদক্ষেপ
##ক
গ্রাম
রাষ্ট্র
যত
খরচ
তরুণ
কর্মকর্তারা
বাহিনীর
পা
স্বাভাবিক
নিচে
গড়
##টির
মাঝে
সূত্রে
কোচ
মঙ্গলবার
নামক
পড়েছে
পরিচয়
আধুনিক
বেসরকারি
বিচারপতি
দূর
প্রমাণ
ঢাকায়
ভিন্ন
অত্যন্ত
সাহায্য
কমিশনের
পূর্বে
নির্দিষ্ট
শত
প্রসঙ্গে
উদ্দিন
ইংরেজি
মায়ের
ক্লাবের
করলেন
মন্ত্রী
দু
প্রতিষ্ঠানের
ওয়ার্ল্ড
চীন
সমস্যার
প্রেমের
পড়তে
রাখে
আর্থিক
তারপর
পৃথক
পছন্দ
রাজনীতিতে
ভেঙে
গণহত্যা
সফর
মাথায়
শিক্ষার্থী
আহ্বান
সংশ্লিষ্ট
মিটার
আলোর
আট
উভয়
চরিত্রে
প্রতিষ্ঠা
বাদ
সকল
ফেসবুক
বাসায়
ফোন
সমাধান
বিদেশি
প্রকল্প
শক্তিশালী
মেনে
বয়সে
পক্ষের
সিলেট
স
পরামর্শ
–
পাস
##বিরোধী
পশ্চিম
মন্ত্রণালয়
পূরণ
অবশ্যই
সন্তান
সকাল
ছবিতে
স্বীকার
সাংবাদিকদের
দিয়েছিলেন
চতুর্থ
সি
ঘণ্টা
বাহিনী
ম
অধিকাংশ
শামীমের
বলেই
দেবে
পড়বে
সাংবাদিক
জন্মগ্রহণ
মাছ
হিসাব
##গুলি
ব্যক্তিদের
স্পষ্ট
নির্মিত
শিল্প
উৎপাদন
ফোর্বস
সম্পন্ন
বার
যুবলীগের
পরের
পারেননি
বিখ্যাত
বাংলাদেশি
রক্ষা
গ্রামে
সঠিক
চাপ
পরবর্তীতে
মিস
রং
বেড়েছে
আরব
সত্ত্বেও
সেলিম
রাজা
ইউরোপীয়
##িং
মালিক
নেতৃত্ব
শিক্ষার্থীদের
কর
শফিকুল
সংগঠন
নির্বাচনী
ব্যক্তিগত
মুজিবুর
যুগ্ম
ঘরে
হামলার
চিত্র
যাত্রা
চূড়ান্ত
দুর্নীতি
বলেছিলেন
বাঙালি
এস
লাল
প্রচার
সহ
অভিজ্ঞতা
পারি
লেখক
করব
সেতুমন্ত্রী
মান
প্রক্রিয়া
নিয়োগের
মামলাটি
প্রতিনিধি
অনুষ্ঠানের
বুঝতে
চলচ্চিত্রে
ধর্মীয়
বিমান
দিলে
পুরোনো
##ার
রাখাইনে
গুরুত্ব
সংস্থার
অনুষ্ঠান
যুবলীগ
ভিডিও
বিচারব্যবস্থা
প্রস্তুত
মানসিক
মিনিট
দিবস
##রাষ্ট্রমন্ত্রীর
রাসেলের
সচিব
করছি
হিন্দু
গল্প
হবেন
প্রচলিত
##ভিত্তিক
শিশুদের
সংকট
চালানো
মোবাইল
হয়েছিলেন
যুক্তরাজ্যের
থেমে
ক্ষতি
বিদ্যালয়
বেশির
সহযোগী
অনুসন্ধান
জনসংখ্যা
বেছে
দুজনের
জীবনে
মানুষকে
স্থায়ী
সাদা
প্রশাসন
তারকা
সভায়
সম্পূর্ণ
টেবিল
মৌসুমে
ধীরে
কোম্পানি
বিল
##ো
প্রাচীন
এদিকে
হত্যার
দখল
বন্ধুর
লক্ষ
কম্পিউটার
মন
পৃথিবীর
কোথাও
কোথায়
খারাপ
ঐতিহাসিক
মুক্ত
লিখেছেন
আবু
উদাহরণ
থাকায়
যথাক্রমে
বাংলাদেশকে
ব্যবসায়ী
ক্লাব
মন্ত্রণালয়ের
ব্যবস্থাপনা
এনে
ভিত্তিতে
জার্মান
শব্দ
ফিরিয়ে
গেলেন
করেছি
প্রশিক্ষণ
আক্রমণ
উইকেটে
ট্রাম্পের
বিপুল
মহিলা
##তা
ঐ
চাকরি
বিদ্যুৎ
ফুটবল
কোর্টের
পড়ুন
সমাজের
কুমার
##ত
প্রতিযোগিতার
রোগ
ভবন
ফলাফল
গণতন্ত্র
সেগুলো
ভূঁইয়ার
খাদ্য
অধিনায়ক
এছাড়া
সম্মেলনে
বর্গমূল
চলমান
ভর
মুখ
অসুস্থ
##চামচ
বৈশিষ্ট্যপূর্ণ
এগুলো
ইতিমধ্যে
নাকি
অফিস
ইমিগ্রেশন
এনামুলের
বিশাল
বি
সহসভাপতি
প্রতিদিন
লড়াই
নেমে
দেয়া
##্
চোখে
চলতি
কংগ্রেসের
কর্মসূচি
বার্তা
কাজী
কালো
##গুলির
কারাদণ্ড
বাধ্য
চোখ
ব্যক্তির
কেজি
করপোরেশনের
পরিস্থিতির
লাগে
ছবিটি
সক্ষম
পদ্ধতি
আধা
নির্যাতন
যুদ্ধে
পার্টি
ছাড়াও
নিজস্ব
বিজ্ঞান
টানা
অল্প
হোসেনের
রেকর্ড
নেতৃত্বে
হাসপাতাল
আমদানি
মিলিয়ন
উপজেলায়
জ্যেষ্ঠ
রচনা
আন্দোলনের
শুনে
প্রধানমন্ত্রীর
ফেরত
কারণেই
বিন
শাহ
যৌন
যথেষ্ট
তদন্তে
চলতে
খাতে
কেমন
বোঝা
সমিতির
অনলাইন
অপর
ঘটেছে
তামাবিল
খ্রিষ্টাব্দে
কাল
আশঙ্কা
শুরুতে
অভিনেতা
আস্থা
বিভাগকে
প্রতিযোগিতা
রয়েছেন
উন্নতি
প্রচুর
কংগ্রেস
বদলে
প্রতিনিধিত্ব
মধ্যেই
দায়
বিবেচনা
রাখেন
স্ব
কলকাতা
চামচ
চিকিৎসক
ভ্রাম্যমাণ
সতর্ক
ব্যয়
আসনে
আনতে
তোলা
গোল
কন্যা
বিজেপি
দেখার
##পররাষ্ট্রমন্ত্রী
বিয়ের
সাম্প্রতিক
বাধা
ফেলতে
ডি
জন্যই
উন্নয়নের
সবাইকে
ধারণ
চিহ্নিত
টিভি
শামীম
চলা
ভিত্তি
লম্বা
অ
জমি
রঙের
মহানগর
একবার
খন্দকার
ডিগ্রি
সেখান
পাবে
নির্মাণের
##কর্মীদের
দশকে
ছয়টি
প্রবেশ
কবি
টেস্টে
হত
প্রতিযোগিতায়
সর্বশেষ
যুদ্ধের
সেসব
মিয়া
দেবেন
কাউন্সিলর
##এই
কিছুই
সত্য
##ড
স্বীকৃতি
বিবেচনায়
দলকে
হঠাৎ
দমন
স্বামী
প্রতিনিধিরা
উদ্দেশ্যে
লক্ষ্যে
বলেছে
অভিনেত্রী
যাই
অভিযানে
কর্মরত
রাজশাহী
সংখ্যালঘুদের
পেঁয়াজের
পদ
সিং
গানের
থাকবেন
প্রমুখ
এসেছেন
আটকে
ব্যবহারের
শুদ্ধি
শিক্ষার
নীতি
প্রথমবারের
দলটি
অন্যদের
ফুট
বিসিবি
ভাষার
কর্মী
জয়ী
##উপাত্ত
ভেতরে
বাড়ছে
পরাজিত
জনের
অবদান
পর্বে
নং
পারিবারিক
উপদেষ্টা
জনগণ
দশক
সপ্তাহে
নিউ
আব্দুল
বুদ্ধিজীবী
খেতে
বিয়োগ
অবসান
যুক্তি
কমাতে
জিয়াউর
পড়েন
বাবার
পণ্যের
পাঁচটি
টিউলিপ
মৌলিক
বিশেষজ্ঞ
পুনরায়
চলচ্চিত্রের
বিশ্বকাপ
মুহাম্মদ
তৈরির
গরম
সরিয়ে
ব্যাখ্যা
রাষ্ট্রপতি
ধর্ম
আনোয়ার
করলেও
তুলতে
শীর্ষে
করণের
লাশ
সরবরাহ
ইতিহাসে
রূপ
যুগ
দেখুন
বাড়তি
অতিথি
জেলায়
শিশুর
খেলতে
খাত
সমাজ
ইসলামের
চলেছে
অনলাইনে
মেয়র
এল
যেহেতু
##ম
খেলোয়াড়
প্রত্যাবাসন
ভবিষ্যতে
শিল্পী
পরিষদ
লেবার
তেমনি
ব্যাট
একসঙ্গে
বিকল্প
বর্ণনা
বিশিষ্ট
ক্যাসিনো
আগুন
কঠোর
খালেদের
বাণিজ্য
##ীয়
নিয়ম
আয়োজিত
স্বপ্ন
নিযুক্ত
ইমাম
ওরফে
অভিযানের
শিক্ষাক্রম
শাখা
আলোচনার
পানির
লোকজন
অস্বীকার
হাসিনার
ডেভিড
বিশ্বে
গুলি
সাংসদ
খুশি
রাস্তা
ওয়ার্ড
শেয়ার
রপ্তানি
প্রবাসী
আরো
সমালোচনা
ইন্টারনেট
ডিজিটাল
লবণ
অভিষেক
টেলিভিশন
সীমান্ত
দেড়
হাসপাতালের
চাহিদা
##ঃ
যাচ্ছেন
একক
শিক্ষার্থীরা
যানজট
চামড়া
পড়ার
পর্ব
এরা
মুক্তিযুদ্ধের
জনসংখ্যার
অনেকের
পরীক্ষায়
কেটে
স্কুলে
ঝুঁকি
ভারপ্রাপ্ত
গণতান্ত্রিক
চিন্তা
উজ্জ্বল
গাম্বিয়া
কৃত্রিম
পররাষ্ট্রসচিব
বসবাস
নিরাপদ
শ্রমিক
ওয়েস্ট
আপিল
নির্ধারিত
পাচার
নির্ধারণ
আমলে
ভাবে
নাটক
হাবিবুর
আইনি
দুর্বল
উৎসব
বিরাট
যেটা
ফেলার
টু
যুগে
বেরিয়ে
উদ্দেশ্য
সাইফুল
কলেজের
ভেবে
সাফল্য
পাকিস্তানি
অন্তর্গত
নকশা
আনার
করত
রাখাইনের
রেখেছে
আইসিজের
বেতন
বাস্তবায়ন
সদস্যদের
ইংল্যান্ড
তদন্তের
ঘনিষ্ঠ
গ্রুপ
মসজিদ
ট্রাফিক
গ্যাস
ঘুরে
রাজনীতির
সংরক্ষণ
সা
অধিক
খোলা
পরীক্ষার
শারীরিক
সুন্দর
এলেঙ্গা
প্রমাণিত
নীতিমালা
আওতায়
ওষুধ
বঙ্গবন্ধুর
মুছে
পড়া
##মা
ইচ্ছা
ইনিংস
প্রশাসনিক
সমগ্র
এবারের
দুপুরে
##সংক্রান্ত
সন্ধ্যায়
ব্যবধানে
হেগে
বাড়ির
কার
বিজয়ী
রায়ের
প্রকল্পের
প্রয়োগ
পরও
ছাত্রী
ভবনের
অস্ট্রেলিয়া
যানবাহন
প্রতিষ্ঠাতা
রেল
নষ্ট
ইন
পঞ্চম
শ্রেষ্ঠ
সূচনা
জোর
যথাযথ
চুক্তির
অনুমতি
সমান
বারবার
পারলে
মিলে
সাড়া
প্রতিষ্ঠার
প্রাকৃতিক
আঘাত
পিতা
আবেদনের
হালকা
সাংস্কৃতিক
সংখ্যার
নেতাদের
সপ্তাহের
আচরণ
ক্যারিয়ার
আরমান
ডোনাল্ড
অর্থনীতি
কামাল
কার্যালয়
মিজানুর
প্রিয়
হুমকি
সেতু
অপেক্ষা
প্রকৃত
পুরোপুরি
টার
কাউকে
একসময়
আগ্রহ
প্রভৃতি
আঞ্চলিক
গণমাধ্যম
সংসদের
মাথা
চলাচল
হচ্ছেন
করেনি
করেননি
নির্ভর
দায়ী
ঈদের
ভোটের
বিশ্লেষণ
প্রস্তুতি
গভীর
##পুর
সুপার
বজায়
মজুমদার
কলকাতার
কমিয়ে
দপ্তর
বোর্ড
মূল্য
কিনতে
উপায়
সামান্য
বোধ
ফুল
ওপরে
যাদের
অনুমোদন
নগদ
মুখোমুখি
শান্তি
সেনা
দেব
অতি
সেনাবাহিনীর
নেতারা
বাসা
বাংলার
কেন্দ্রে
জাকির
তুলনা
করছিলেন
খাতের
যুক্তরাষ্ট্রে
সংযুক্ত
প্রতিবছর
স্টেশন
নিরাপত্তার
আই
আদায়
অস্ট্রেলিয়ার
টাকায়
পুত্র
ধারা
বৈঠকে
##তেই
আবদুর
সম্রাট
যেভাবে
দ্রব্যমূল্যের
মনোনয়ন
সংস্কৃতি
ছাত্রলীগের
খবরে
সম্ভবত
ভোগ
চলবে
নিরপেক্ষ
মুদ্রা
মোশতাক
ড
ফেসবুকে
সংখ্যালঘু
কোম্পানির
দায়িত্বে
মতিন
ফেলা
বৈশ্বিক
পর্যবেক্ষণ
টাঙ্গাইল
দুধ
ম্যাচের
নিশ্চয়ই
বিজেপির
আকারে
বৈঠক
মিয়ানমার
সুমি
উৎস
খেলে
দশকের
সদস্যরা
কিছুদিন
রাজ্যে
লেগে
জোট
দাঁড়িয়ে
লা
ভয়
কুমিল্লাকে
পশ্চিমবঙ্গের
সক্রিয়
আশ্রয়
গুলশান
বিপরীতে
কোর্ট
জানি
মুক্তির
রাষ্ট্রের
ইতিবাচক
মন্দির
##না
অংশে
মনোনীত
পালিয়ে
সংস্কার
ক্রিকেটার
বিদেশে
সাফল্যের
নেবেন
ওয়ান্ডারার্স
আফসানা
ঘর
ইউরোপের
আজকের
আসনের
ধ্বংস
মাধ্যমিক
ভালোই
ফ্রান্সের
টায়
পরপরই
ঘিরে
দেখানো
বলি
সংবিধান
##পা
দুর্নীতির
রাষ্ট্রীয়
সবুজ
খালেদ
সমীচীন
সুতরাং
টন
বিকেল
ঘরোয়া
##ঢাকা
উত্তরে
প্রদেশের
সামনের
নীল
কর্তৃপক্ষের
আনন্দ
ব্যক্তিত্ব
ব্যাটিং
তুমি
বিনা
গুগল
মর্যাদা
খানের
যাবেন
নিষিদ্ধ
প্রকৌশলী
নি
উপাদান
অনুরোধ
সিনেমা
তারেকুজ্জামান
##িক
মোদি
চীনা
মহাসচিব
জানালেন
প্রবণতা
যেটি
করিম
ঘটতে
নিলে
অবসর
দীর্ঘদিন
কতটা
সপ্তাহ
ওজন
নিজে
থাকছে
##ুল
অর্থমন্ত্রী
যৌথ
বৃহত্তম
##শ্রেণীর
উঠতে
স্পিনার
কেন্দ্রের
থাকুন
শাস্তি
যাঁদের
শে
সম্ভাব্য
ভূমি
আবাসিক
সরে
##জামায়াত
চট্টগ্রামের
ভাইস
পরিবর্তনের
কলেজে
যাতায়াত
রাশিয়ার
প্রতিবাদ
সম্মেলন
তোলার
ধান
মানবিক
মানি
অব্যাহত
স্নাতক
বোঝায়
ইংল্যান্ডের
লাগছে
গণহত্যার
আইনমন্ত্রী
পানিতে
ন্যাশনাল
ছাত্রীদের
এটাই
মানবাধিকার
ইন্টারন্যাশনাল
পোস্ট
ইঙ্গিত
লেগ
পরিস্থিতিতে
গ্রহণের
রাস্তায়
সভা
ভেতর
অগ্রগতি
উপাচার্য
গিয়েছিল
##িত
মাসদার
বিদায়
সংসদে
ব্যাপার
তীব্র
হাজির
পৌঁছে
স্মার্টফোন
বিভক্ত
বিপিএল
জারি
কার্যালয়ে
প্রতীক
এশিয়ার
ফর
বোর্ডের
গাড়ির
সফরে
ইসমাইল
সমস্ত
ক্ষতিগ্রস্ত
নগর
##গুলোতে
যাত্রী
তখনই
ভাড়া
তুলেছেন
সৌম্য
সোভিয়েত
অনেকটা
আনুমানিক
নাগাদ
চ্যালেঞ্জ
চালায়
তারিখ
স্বল্প
উদ্বোধনী
মাংস
##জ
যুগের
সম্মেলনের
গাছ
ক্যাচ
পরিপ্রেক্ষিতে
বিকেলে
দেশকে
বাড়বে
আহসান
কৌশল
কাঁধে
দর্শক
বিদ্যমান
শ্রদ্ধা
কারফিউ
রাজি
জার্মানির
তথা
ক্ষুদ্র
গভর্নর
খাবারের
চন্দ্র
দাস
পড়াশোনা
তে
বন্দর
নাগরিকত্ব
সফটওয়্যার
গুঁড়া
চিঠি
উল্টো
নিজেই
সেদিন
আখাউড়া
দিনটি
জাতির
পরিদর্শক
আউট
এখনই
অর্থের
পেলে
জ্ঞান
##আনিসুল
বোন
সংস্করণ
উন্নয়নে
কারাগারে
মিথ্যা
গোলাম
সহায়ক
ফিরেছেন
প্রায়ই
ইনস্টিটিউট
সু
প্রাণ
মুক্তিযোদ্ধা
বিরোধিতা
কোরিয়ার
রেখেছেন
সুরক্ষা
এশিয়া
ক্ষমতার
সংগঠনের
জলবায়ু
বাণিজ্যিক
উপ
অবাক
সংখ্যাটি
##িয়া
নামিয়ে
কূটনৈতিক
জেনে
পয়েন্ট
##য়ের
দারুণ
সড়কের
কাছাকাছি
টাইমস
পরিবর্তে
প্রতিষ্ঠানটি
খেয়ে
ঘুম
শর্ত
বলার
বক্তব্যে
চরিত্র
আশাবাদী
গাছের
সাহিত্য
সঙ্গীত
আক্রমণের
চাল
ইউনিভার্সিটি
সিরিজ
সন্ত্রাসী
সন্তানের
বাড়িয়ে
বাজেট
সম্প্রদায়ের
দিয়েছিল
ক
##এটা
দফা
অনেকগুলো
রাখুন
শোনা
প্রতিক্রিয়া
যাক
বরাদ্দ
নিধন
লিখিত
তত্ত্বাবধায়ক
সম্মান
কাটিয়ে
চুল
ইকবাল
গেলেও
আফ্রিকার
রচিত
ছাত্রদের
জুটি
ডাউকি
লিমিটেড
গবেষণায়
প্রাণী
প্রশাসনের
চিনি
জাহাঙ্গীর
ক্রীড়া
সিরিজের
ছিলো
সমাজে
গোপন
খাওয়া
নামকরণ
দক্ষিণে
যানজটের
বিশ্বকাপে
প্রচারিত
কবে
সংগীত
আমেরিকান
মাত্রা
মোকাবিলায়
পরিবেশন
সাংগঠনিক
পারছে
তোমার
নিষেধাজ্ঞা
ফরাসি
ভ্রমণ
দুর্ঘটনা
প্রজাতির
শহীদুল
প্রকাশনা
সন্দেহ
ট্রেন
যন্ত্র
খুলে
ইনিংসে
##াল
অনুসরণ
অবস্থার
গোয়েন্দা
নির্দেশে
শতকের
দেখিয়ে
নিয়ন্ত্রণে
আদি
টনি
##নি
ইসলামি
বিমানবন্দর
থিসারা
উপহার
হাসতে
কুমিল্লার
ডিম
আহমদ
পুরুষদের
উন্মুক্ত
সেনাবাহিনী
কষ্ট
তরুণদের
আপনাকে
অভ্যন্তরীণ
দৈনিক
সম্মাননা
লাইন
প্লাটুনের
উদ্দেশে
দেখি
বেঁচে
যেত
আয়ের
কারা
গুণ
প্রতিরোধ
উদ্বোধন
দুর্ভিক্ষ
কারখানা
শ্রেণির
মুখ্যমন্ত্রী
সাম্প্রদায়িক
ঘরের
সদস্যের
ক্ষমতাসীন
ডাক
কিশোর
মঞ্চে
ধরেই
বহিষ্কৃত
হব
খতিয়ে
কর্মচারী
##কারী
তৈরী
সীমাবদ্ধ
শুভেচ্ছা
বাড়তে
জ্ঞাত
শেখাতে
অ্যাপ
প্রতিনিধিদলের
মিজান
হলেই
বাসস্ট্যান্ড
আগ্রহী
বৈশিষ্ট্য
আইনশৃঙ্খলা
দক্ষতা
সংযোগ
হোটেল
মিনিটের
##কেই
ঘণ্টার
হোতা
দুইটি
শরীরের
উঠবে
উচ্চতা
বন্ধুত্ব
নজরুল
পাঠ
মাঠ
পার্থক্য
আবাসন
শরণার্থী
##ব
সন্ধান
##তম
কৃষক
শব্দটি
অভাব
আমেরিকার
ন্যায়বিচার
কিছুক্ষণ
রাস্তার
বিস্তৃত
ভাবতে
কাজেই
ব্যাটসম্যান
ওপেনার
এলে
লোকমান
জঙ্গি
জাপানের
সংস্থাটি
প্রদর্শন
গুরুতর
কার্যক্রমের
##তার
ভূমিকায়
কাকে
অভিনন্দন
ওআইসি
দূরের
কেননা
গ্রুপের
সম্পর্কিত
মাটিতে
একদল
উৎসাহিত
পাচ্ছে
বৃদ্ধির
প্রযুক্তির
লন্ডনের
বৌদ্ধ
প্রশ্নে
নৃশংসতা
প্রণয়ন
বিজ্ঞপ্তিতে
পিছিয়ে
উপস্থিতি
জাহাজ
কোর্স
চোখের
করল
বিতর্ক
রাশিয়া
শতাব্দীর
হারে
সিস্টেম
জয়ের
রেলওয়ে
পেয়েছিল
উপস্থাপনের
ফোরাম
রক্ত
দুপুর
করিয়ে
ডান
বোমা
আদর্শ
লন্ডারিং
ওসি
দলটির
কলকাতায়
তিনিই
করণ
রুশ
নৃশংসতার
মুক্তিযুদ্ধ
পাল্টা
অভিজ্ঞ
##গত
মাশরাফির
জড়িয়ে
জুড়ে
জটিল
সাতটি
প্রার্থীদের
অভিনয়ের
গ্রেপ্তারের
জল
সবকিছু
হ্যাঁ
চ্যানেল
বন
সম্পর্কের
উপকরণ
পার্লামেন্টে
বিচারকদের
সেতুর
প্রজন্মের
উপভোগ
বিদ্যালয়ের
বার্ষিক
মনের
ভোটে
কালাম
গবেষক
পশ্চিমবঙ্গ
নাগরিকদের
পশ্চিমে
জনকে
পর্যায়ের
রাজীব
কমিশনার
##বা
সিদ্ধান্তের
বাসিন্দা
মাসখানেক
কিনে
মমিনুল
জোরালো
প্রদেশ
ইবনে
##পূর্ব
আটজন
পদ্ধতিতে
প্রাপ্ত
জানেন
অভিযুক্ত
লাগিয়ে
পত্রিকার
আনুগত্য
দিল
পছন্দের
যোগ্যতা
ওভারের
ভাবনা
ভবিষ্যৎ
বিশ্বকাপের
রান্না
মি
আকার
অসাধারণ
নির্মাতা
সাঈদ
প্রতিবেদককে
ইসলামী
তিনজন
আফ্রিকা
ত্যাগ
ইংরেজ
জন্যে
##মূলক
##বি
এরই
খুলনা
পরবর্তীকালে
অতিক্রম
ধর্ষণের
একাডেমি
বলেও
সেন্টার
মেলা
আন্দোলনে
তামিম
মহান
ইরানের
মুহূর্তে
পাচ্ছেন
প্রতিরক্ষা
স্ববিরোধী
বৈজ্ঞানিক
সিদ্দিক
পরিসংখ্যান
নজর
দিচ্ছেন
পারমাণবিক
বিক্ষোভ
ফেসবুকের
##যুক্ত
কবিতা
বৃষ্টি
পবিত্র
বলুন
একদিন
সেটির
মেয়েদের
আক্তার
গবেষণার
বলের
হলুদ
ষষ্ঠ
পেরেরার
ইসলামিক
দোকান
আপাতত
স্টেট
দক্ষ
##একের
অর্থনীতির
কথায়
তৎপরতা
কার্ড
স্কুলের
অবশেষে
সেটাই
থাকত
মতোই
মানব
দাঁড়ায়
ফেরার
ফ্যাশন
যোগ্য
বিনিময়
কবির
পূর্তি
পেরেছে
ওঠা
সাংবিধানিক
জানাতে
কাপড়
যোগাযোগের
হকের
পরদিন
জাতি
গঠনের
রশীদ
নরেন্দ্র
ইঞ্চি
গাজী
আপনাদের
যতটা
হচ্ছিল
ইন্ডিয়া
নেবে
চলচ্চিত্রটি
নিকট
পররাষ্ট্র
নোবেল
প্রশংসা
ডেঙ্গু
##সমূহ
বাড়াতে
হামলায়
দাবিতে
ত্রি
মিল
শাখার
##অ্যান
রস
ইতিহাসের
সচিবালয়
অর
শরীরে
কাগজপত্র
নিয়েই
মসজিদের
মাঝামাঝি
করপোরেশন
ব্যথা
দৃশ্যমান
ঘন
পরিচিতি
দিবসের
বহন
কাঁচা
ভয়াবহ
সংরক্ষিত
বিধান
পাঠাতে
প্রচেষ্টা
জগতে
ক্রেডিট
ডলারের
বোলিংয়ে
চুরি
দেবী
লাগবে
সন্ধ্যা
##্স
বিচ্ছিন্ন
পাবলিক
ব্যস্ত
করলেই
সেগুলোর
সভাপতিত্ব
##টিতে
অবনতি
একপর্যায়ে
অসংখ্য
ফাউন্ডেশন
পেরেছেন
ফেলেছে
আমির
নিয়েছিল
##জি
##ং
ব্যবসায়ীদের
খুন
##ণের
ভারী
নিম্ন
ঢুকে
কেনা
পত্রিকা
মমতা
জাপান
সুপারিশ
রাজাপক্ষের
উদ্যোগে
প্রয়োজনে
পাতা
সেটাও
তৃণমূল
জাতিগত
বন্য
শাসনের
বেশিরভাগ
হাই
সুস্থ
শূন্য
পাশের
ধুঁকে
মোকাবিলা
পড়ছে
সুফল
সৃজনশীল
বৈঠকের
প্রেমিক
কাউন্সিলের
চরম
সহজেই
পাঠিয়ে
রোড
হতাশা
চাইতে
অবস্থানে
প্রতিদ্বন্দ্বী
ধন্যবাদ
আয়তন
সহজে
প্রকাশের
প্রেম
ছাড়
কথিত
দান
্যাবের
ধর্মের
##কেও
শুধুমাত্র
ছাড়াই
দ্বিপক্ষীয়
সবশেষ
সচেতন
স্মৃতি
সেন
ভালোবাসা
সুলতান
গায়ে
ধাপ
হারুন
সমস্যায়
কানাডা
পদক
দেশগুলোর
আপনারা
রাজস্ব
শুটিং
ক্যামেরা
জনপ্রিয়তা
গণতন্ত্রের
পাই
কাটা
মিনিটে
নগরের
কেনার
জেলে
উঁচু
পাশ
ওবামা
জ্বালানি
তবুও
কখনোই
ঠান্ডা
বরাত
হত্যাকাণ্ডের
ধর্ষণ
কাজটা
কর্মকর্তার
মালান
মুজিব
বেঁধে
হলের
পরই
চলার
সাজা
বাইরের
##টিকে
প্রত্যাহার
প্রত্যেক
আইনজীবীরা
মাইল
মেরামত
আল্লাহ
সংগীতশিল্পী
মানের
উপস্থাপন
জমিতে
কমেছে
ফিরছেন
এখানকার
আকারের
পারছেন
মাহবুব
চেয়ারপারসন
প্রতিশ্রুতি
চ্যান্সেলর
রাসায়নিক
পারস্পরিক
মিশিয়ে
ঘাটতি
ভয়ংকর
মির্জা
বিবেচিত
মরিচ
কমপক্ষে
অফিসে
পাখি
মধ্যেও
কাজটি
আকর্ষণ
রংপুর
একেবারে
নিয়েছিলেন
সুষ্ঠু
উপন্যাস
ওয়ানডে
সামাল
ব্যক্তিরা
আনুষ্ঠানিকভাবে
নিয়ন্ত্রিত
বিস্তারিত
দেশি
শ্রমিকদের
দৃষ্টি
মাটি
ব্যবধান
প্রসঙ্গ
সার্ভিস
নেতৃত্বাধীন
মিডিয়া
বিবাহ
চিকিৎসকের
বিনিময়ে
মূল্যবান
শুরুতেই
হাসি
বাজারের
সেনাপ্রধান
পেলেন
নেতিবাচক
পাওনা
বিপাকে
ধরতে
এজাহারে
রক্ষাকারী
শরীর
##এমন
যুক্তরাজ্য
জবাব
মৃত
মেয়াদ
খালি
অনতিবিলম্বে
রশিদ
আগাম
একধরনের
সড়কে
ওয়েবসাইট
ব্যবসার
পি
পেয়েছিলেন
শক্ত
বাড়ানোর
##সি
সময়ই
লেনদেন
পায়নি
পরিচালনায়
রমনা
নাতনি
দৃশ্য
প্রবৃদ্ধি
শো
মাসিক
ক্ষমতাধর
শুল্ক
ধাপে
ভাগ্য
টিম
লঙ্ঘন
শপথ
পারাপার
রাজনীতিবিদ
খেলেন
পাসপোর্ট
প্রতিমন্ত্রী
ভুলে
চুপ
বিধানসভা
বয়ে
গিয়েছিলেন
এটাও
তারপরও
জাতিসংঘ
সাহায্যে
গোটা
প্রকৌশল
জবাবদিহি
সাকিব
ইমরান
স্টার
বিশিষ্টজনেরা
কাশেম
জে
##ট
কক্ষে
ব্যবসায়ীরা
হালনাগাদ
পৌরসভার
তিনজনকে
মুকুট
সর্বাধিক
জেল
প্রদেশে
নির্যাতনের
জনগণকে
সাজে
রকমের
বিকাশ
মাদকদ্রব্য
করলাম
সুর
সাম্রাজ্যের
ট্রাস্ট
দুজনই
যাচাই
ব্যবস্থার
বিদ্যালয়ে
বিজ্ঞপ্তি
হ্রাস
শনাক্ত
খাওয়ার
আবিষ্কার
অফিসার
জরিপ
তত্ত্ব
প্রবন্ধ
আসল
করণে
আমেরিকা
বাড়ানো
ঠিকানা
##লি
বিষয়ক
মিয়ানমারে
বন্দ্যোপাধ্যায়
টির
মাধ্যম
জিজ্ঞাসাবাদ
হিউম্যানিটি
চাষ
প্রভাবিত
বন্দী
মৌসুম
অন্যের
ভোটার
দে
পার্ক
পাথর
বিলিয়ন
ঠিকাদার
যোগদান
অপেক্ষায়
ম্যার্কেল
আইফোন
গ্রন্থ
সুবাদে
রক্ষার
দূরত্ব
পেরেরা
নেটওয়ার্ক
হাউস
চালক
উপযুক্ত
চেক
##জনিত
সন্তুষ্ট
অংশের
রোগের
বিপিএলে
ওঠার
সর্বাত্মক
দেখেন
জানে
দুর্বৃত্তদের
বৃহৎ
শাসনকাজে
ল্যাপটপ
পাকিস্তানে
তবু
বেগ
বিস্তার
বিবৃতিতে
আদেশের
রেহানার
বিশেষত
সুসম্পর্ক
পদত্যাগ
লন্ডনে
পরিচয়ে
নেতার
আফগানিস্তানের
দাঁড়িয়েছে
পরিমাণে
সাহস
লিখে
স্বাক্ষর
জামাল
হাইকোর্ট
মেয়ের
উপযোগী
শক্তির
পদের
##টাই
মতামত
সেখানকার
সম্প্রসারণ
##য়া
জজ
সেন্ট
সংসদীয়
স্যার
বানিয়ে
অভিহিত
অধিদপ্তরের
পৌরসভা
প্রতিবেশী
চাপে
তাপমাত্রা
ইউসুফ
বানানো
##শ
কোনও
##হীন
পরিচালনার
জেনেছি
খারিজ
বাসে
এসআই
রা
পরিবারে
##গুলোকে
আয়োজনে
জমির
হ্যাটট্রিক
উসকানি
খোঁজ
আঙ্গেলা
দিয়েই
ফ্লাইট
রোগী
খেলছেন
##সেটা
অনুবাদ
চেতনা
ব্যক্তিকে
এটিকে
পারব
বরিশাল
ঘোষণার
পর্যাপ্ত
শ্রীলঙ্কা
প্রকৃতি
গঠনমূলক
সালমান
এখান
ধারাবাহিক
হাতের
এন
মোটরস
রুপা
স্পিকার
রে
দি
নির্মাণকাজ
আনুষ্ঠানিক
কর্মীদের
শাসক
চেহারা
যোগফল
কাউন্সিল
লেন
এইচ
নিচের
মানিক
বাংলায়
ভালোভাবে
কোরিয়া
হত্যাকাণ্ড
সীমিত
জিনিস
জাতের
উদ্বেগ
সালাহউদ্দিন
যাওয়ায়
বিপ্লব
অপসারণ
চক্রান্ত
সীমান্তে
##ির
ইরান
সমপরিমাণ
ফখরুল
রুপি
বিমানের
মনোযোগ
বন্ধুকে
মজার
থেকেও
পেস
শিক্ষকদের
গুজব
দেখেছি
সূত্রপাত
প্রত্যাশা
রাজ্জাক
সমুদ্র
মুসলমান
দুটো
প্রধানের
ক্ষুব্ধ
আগেও
সমৃদ্ধ
লোকসভা
জিতে
প্রেমে
চিকিৎসার
আম
নদীতে
বীর
চালান
ডেমোক্রেটিক
বইয়ের
হবার
কর্তব্য
ক্লাস
ইনিংসের
সঞ্চালনা
শুধুই
উদ্বোধনের
পেশাদার
স্থগিত
উৎসবের
দেশটিতে
দৈর্ঘ্য
প্রযোজক
##পাড়া
মামুনুর
শতাধিক
স্বার্থে
স্মরণ
অর্থে
অর্ধেক
সংঘটিত
টিকে
ইঞ্জিনিয়ার্স
ফিরোজ
এবারও
স্বতন্ত্র
হেফাজতে
সংশোধন
পশ্চিমা
এসেছিলেন
গানটি
চেয়েও
সম্প্রীতির
নিবন্ধন
হিন্দি
সান
কুচি
কিনা
##ায়
ডেকে
বাস্তবায়নে
চেয়েছে
রাম
##কার
নিলেন
অবস্থানের
যোগসাজশ
খুনিদের
আলোচিত
গোলে
প্রধানত
সিন্ডিকেটের
জাফর
পাহাড়
সবজি
প্রবল
বর্বরতা
বেসামরিক
জর্জ
অ্যাপল
মূল্যে
পারত
সময়টা
তোলেন
যুক্তরাজ্যে
বিবিসি
ভবনে
সুলতানা
গ্রহণযোগ্য
নাকচ
সেবার
নিচ্ছে
গাড়িতে
উৎসবে
ঈদ
চারজন
মনোভাব
মন্ত্রিসভা
এরপরই
প্রিমিয়ার
এফ
শিরোপা
ফি
অনুমান
বিপিএলের
একর
এড়িয়ে
বিবৃতি
গণ্য
বাম
সংস্কৃতির
টিকিট
ব্যবসায়
আনিসুর
সঙ্গী
##বার
ফার্স্ট
মধ্যকার
পিতার
প্রতিষ্ঠানে
ইউরোপ
পূজা
মাটির
গরু
মিলনায়তনে
জমিদার
##গণ
প্রদর্শনী
দেশীয়
পার্লামেন্টারি
ডিএনসিসি
ধরন
##সে
বিশ্বব্যাপী
নৌকা
ফাউন্ডেশনের
খেয়াল
জেমস
সংবিধানের
দোকানি
প্রশাসক
হিসেব
চালানোর
যাকে
জোটের
আইএস
পূর্বাভাস
বাংলাদেশী
##জামায়াতের
ত্বকের
ম্যাগাজিন
দশ
কমিউনিস্ট
উঠছে
নূর
আরোপ
বাস্তব
সাগর
গৃহীত
উপাত্ত
চ্যাম্পিয়ন
লি
ভিটামিন
ফেলেন
ঝড়
##রূপে
লাভের
আগস্টের
ইউ
এটির
বিজ্ঞাপন
পত্রিকায়
অন্যায়
##গুলিতে
এমপি
নির্যাতিত
শাড়ি
আড়াই
লন্ডন
##কা
আইসিসি
মেশিন
ঐতিহ্য
বর্বরতার
দেখছেন
ফিটনেস
ধাঁধা
##কৃত
ভিত্তিপ্রস্তর
শুনতে
##বার্ষিক
##্বরাষ্ট্রমন্ত্রী
দিকেই
প্রাণীর
ক্ষমা
মাছের
নিয়েও
ইনস্টিটিউশনে
ফারুক
##শন
অপরাধের
তাঁদেরও
প্রযোজনা
অপরাজিত
আল্লাহর
আত্মত্যাগ
অবকাঠামো
মুখপাত্র
জন্যও
রাজ
য়
খুনের
জরিমানা
রাতের
চাওয়া
বাড়ে
মেরে
নারীরা
কিশোরী
আদমশুমারি
জিজ্ঞাসা
দর
ময়মনসিংহ
ক্ষতিকর
রোহিঙ্গারা
মীর
তুলেছে
উদ্
পৃথিবীতে
হরিণের
জমে
মুখ্য
##ু
তালিকার
শতাংশের
খাল
মেলায়
আসছেন
##জাতীয়
ইউনিয়নে
পেটে
ষড়যন্ত্র
সোনার
সহিংসতা
ক্রমিক
চাকরির
দামে
পারতেন
দর্শন
ক্যাসিনোর
ওয়েব
অস্তিত্ব
আসায়
চাইছেন
সেদিকে
ইন্ডিয়ান
কিমি
বন্যা
মোদির
সমন্বয়
আওতাধীন
আমিনুল
##লা
একদিকে
ভ্রমণকারীদের
সাব্বির
তত
একাদশ
চর্চা
কর্মকাণ্ড
স্বেচ্ছায়
উক্ত
জ্যামাইকান
সাক্ষাৎকারে
পেল
স্ত্রীর
ক্ষেত্রেই
সক্ষমতা
নিয়োজিত
প্রকট
চক্রান্তের
এয়ার
অধিকারী
ভাব
আবদুল্লাহ
পেরে
বলিউড
গড়তে
সিরিজে
মালিকদের
পুরুষের
ফ্রান্স
বিদেশ
ব্র্যান্ড
গেম
দর্শকদের
রুশনারা
তোলে
ফায়ার
সত্যি
সশস্ত্র
প্রশ্নবিদ্ধ
পুরস্কারের
স্বার্থ
স্থাপিত
চক্রবর্তী
সাউথ
ঐতিহ্যবাহী
টেনে
বিপরীত
ব্যবসায়িক
সিংয়ের
দিল্লি
জনতা
কোনোভাবেই
প্রাধান্য
স্বর্ণালংকার
জোড়া
মিছিল
লাগানো
সীমানা
##য়ে
পাননি
উইকেটের
দগদগে
মাদ্রাসা
মেলে
হুমায়ুন
ভুয়া
চলেছেন
সমিতি
কোড
শব্দের
কাঠামো
আপত্তি
ব্রিটেনের
ব্যবহারকারী
মোড়
ক্ষেত্র
রাজীবের
মিষ্টি
কূটনীতিক
সভাপতির
খ
প্রত্যাগত
কক্ষ
আশপাশের
শিক্ষার্থীর
বাস্তবতা
শ্রম
নামাজ
বিভাগীয়
কথাও
সংক্রান্ত
রোমান
পৃথিবী
ওয়ান
ভ্যাট
ট্রাক
স্বেচ্ছাসেবক
উইন্ডোজ
অপরাধে
ঘটনাটি
প্রাথমিকভাবে
স্নাতকোত্তর
ধারার
সার্বিক
ফাইনালে
কল
কাউন্টি
গয়না
বৈদেশিক
ক্রিকেটের
সফরও
আগ
##অস্থাবর
বিতর্কের
উপরে
সনদ
দেশটি
শ্রেণি
অবরোধ
রিয়াল
জন্মগ্রহণকারী
প্রক্রিয়ায়
বেড়াতে
শ্রীলঙ্কার
সেখানেই
দুর্ঘটনায়
দরিদ্র
বুঝে
অনেকটাই
বোলার
গণ
দুর্ভাগ্য
প্রচণ্ড
নোট
প্রত্যাখ্যান
দলই
অন্তর্বর্তী
জানার
##মাত্র
চালাতে
##কর্মীরা
গ্রামীণ
সমাবেশ
একইভাবে
বলবেন
আলমগীর
লিগ
ছোট্ট
পাওয়ায়
প্রার্থীর
কখনও
পাব
পতন
নিউজিল্যান্ড
##ব্রাহ্মণবাড়িয়া
দুঃখ
এসেছিল
স্বামীর
ওরা
প্রবাহিত
অনূর্ধ্ব
বৈষম্য
তখনকার
ভাইয়ের
অ্যালবাম
আরবের
পরপর
শুনানিতে
ন্যূনতম
সমন্বয়ে
প্রদানের
গান্ধী
বুক
ধারায়
এন্ড
ওঠেন
তীরে
অংশগ্রহণের
মন্ত্রিপরিষদ
রোগীর
সন্তানদের
দুর্দান্ত
স্থাপনা
লেখার
চেয়েছিলেন
পার্বত্য
ছোটখাটো
জবাবদিহির
অতিথিদের
প্রজাতন্ত্র
অভিযোগের
বিচারের
একা
ছেলের
আছি
স্বরাষ্ট্র
বরাবর
লাইসেন্স
চালিত
অলিম্পিক
নাটকের
ভাল
নিয়ন্ত্রক
পদার্থ
সূচক
পায়ে
শফিউল
সম্প্রদায়
ইউনাইটেড
##েরা
##বাড়ি
দেখাতে
আমন্ত্রিত
নুরুল
শিল্পের
মারাত্মক
প্রধানকে
ঘোষ
দারিদ্র্য
প্রসঙ্গত
পড়লে
ঘটছে
প্রকার
সংক্ষিপ্ত
##ভ
কৌতূহল
চর
আদায়ে
শিশুকে
অগ্রসর
পর্যটন
দ্বীপ
বাঁচার
শেষের
গোষ্ঠী
সেঞ্চুরি
আনিসের
একদিনের
বিশেষভাবে
নেয়ামুল
হোটেলে
প্রতিষ্ঠানটির
ব্যাপকভাবে
বাস্তবায়নের
এক্সপ্রেস
প্রেক্ষাপট
সিরিয়ার
ত্বক
দরজা
বঞ্চিত
কাঁধ
দিনই
বর্ষসেরা
আশ্চর্য
চলাচলের
সারি
##বেনআজ
সংজ্ঞায়িত
##কালীন
বৃহত্তর
বিক্রির
প্রস্তাবিত
##বহির্ভূত
অর্থবছরে
পেশায়
হাটে
অধিদপ্তর
অমিত
স্বার্থের
জার্মানি
ভিড়
শতকে
উৎপাদনের
নাই
গবেষকেরা
সোচ্চার
বটে
অসম্ভব
নায়ক
আফগান
##প্রথম
দায়ে
কর্মসূচির
##সের
টেনিস
##রি
অন
শিশুরা
আফগানিস্তান
##র্ধ্বে
ছুটি
উত্তীর্ণ
মজুরি
অগ্রাধিকার
ইস্ট
শতাব্দীতে
প্রান্তে
অর্জনে
দ্বন্দ্বের
দক্ষিণের
রেডিও
স্বীকৃত
সিইও
নিবিড়
পর্দায়
এতই
বিতর্কিত
বিতরণ
জিয়াকে
নেদারল্যান্ডসের
এশিয়ান
মাঝারি
কান
মদ
ততটা
বয়সের
নেপাল
শুনেছেন
কমানোর
জেতা
গ্রিক
উদ্যোক্তা
বিশ্বস্ত
ছিলাম
অধিনায়ককে
সিংহ
##লে
ছিটকে
বেঙ্গল
সরকারী
সাময়িকী
মাশরাফিকে
মূল্যায়ন
বাদী
ফজলুল
চিহ্ন
ধানের
কো
মনোবল
লাভবান
রয়ে
মূল্যের
ভাঙচুর
সফরের
ব্যাংকিং
অভিনীত
অবদানের
টেলিভিশনে
লেডি
বিজ্ঞানী
ধরেন
ওয়াহাব
##তেও
জানুয়ারিতে
মেরি
বসুন্ধরা
কৃষকের
বিশ্বযুদ্ধের
লোকের
লক্ষণ
ধরার
পতাকা
বিষয়গুলো
ইউনিট
মাইক্রোসফটের
ব্যান্ড
##কর্মী
##মোকদ্দমা
পোশাকের
ধুয়ে
সম্পর্কটা
কর্মসংস্থান
থাকেনি
সত্যতা
রোজা
সহায়তায়
মডেলের
আকাশ
বাছাই
পায়ের
নবী
হোয়াইট
লক্ষণীয়
গণমাধ্যমে
অনুষদের
পরিশোধ
নামেও
ফসল
##সমূহের
আজও
পাউন্ড
অ্যাসোসিয়েশন
আমন্ত্রণ
##্য
মাঠের
কাপুর
আরবি
পাঠানোর
সেভাবে
বৈধ
লিমিটেডের
বিনিয়োগের
প্রজাতি
অপারেটিং
প্রদত্ত
পড়েছেন
দোকানে
রানা
তুরস্কের
প্রচারণা
ছাপা
মিত্র
দুরূহ
তথ্যপ্রযুক্তি
ন্যায়
জানাবেন
ওয়ারিয়র্স
সিনিয়র
##হ
অনুভব
সবই
বগুড়া
ভোটারদের
নির্ভরযোগ্য
ছাড়িয়ে
দুর্ঘটনার
জ্বর
তৈরিতে
জানতেন
কক্সবাজার
যৌথভাবে
দোষ
মৃত্যুবরণ
সিনেমার
হেক্টর
মাইকেল
ফাঁস
বিকৃত
বিষয়ের
কপি
বিরতিতে
দত্ত
##দ
মহা
দলগুলোর
পর্যালোচনা
ডাকা
দশম
স্টেডিয়াম
দখলে
তরল
ইলিশ
প্রত্যক্ষ
স্যামসাং
খেলেছেন
পরিবেশে
ইউএনও
উপায়ে
গ্যাসের
ভুগছেন
ক্ষেত্রেও
শহরটি
যশোর
খেলাপি
ব
জামায়াত
বাটা
জনগোষ্ঠীকে
ডিগ্রী
অ্যাকাউন্ট
এক্স
মেয়াদে
রফিকুল
কর্তৃপক্ষকে
কার্যালয়ের
সাংঘর্ষিক
ব্যবস্থাপক
শীর্ষক
ঘোষিত
প্রোগ্রাম
অল
ছাত্রীকে
বর্জ্য
করছিল
বাধ্যতামূলক
ভি
উন্নীত
ফ্রি
আবহাওয়া
জনগোষ্ঠীর
রাহুল
তথ্যমন্ত্রী
হাফিজ
কনজারভেটিভ
সোনা
প্রেক্ষাপটে
এরশাদ
চট্টগ্রামে
বিমানবন্দরে
ফোরামে
চক্রের
অ্যান্ড্রয়েড
হতেন
সপ্তম
শতক
দফায়
নিউজিল্যান্ডের
দেওয়ায়
কারিগরি
বোল্ড
হেরে
জনসন
##আজ
বলিউডের
জারির
সফলতা
##েও
টার্গেট
একেবারেই
এভাবেই
মাসুদ
##টার
পৌর
বুকে
আবদ্ধ
ম্যানেজার
গরুর
##ান
ব্যায়াম
মেঘালয়
মন্ত্রিসভার
সুনির্দিষ্ট
হোন
অনন্য
পরেই
শুনি
খেলোয়াড়ী
বন্ধুদের
মোটরসাইকেল
করাতে
উইলিয়াম
পরিদর্শন
নারীকে
ইয়াবা
স্বাগত
ভাগে
জাপানি
সামলে
সংখ্যক
##জানতে
বিধিনিষেধ
ধাক্কা
কল্যাণ
##প
প্রশ্নোত্তর
সমাধানের
সার্জেন্ট
আবাদ
পেরিয়ে
যাত্রীবাহী
পূর্ণাঙ্গ
সাইবার
নিখোঁজ
উড়ন্ত
সম্পত্তি
##বিহীন
বিচিত্র
##ছে
মাথার
রোগে
মিয়ানমারকে
##ম্যান
এখানেই
চৌধুরীর
ব্র্যান্ডের
সৃষ্টির
পদ্মা
উদ্ধারের
অধ্যক্ষ
ক্ষোভ
মূর্তি
মালিকেরা
অস্বাভাবিক
মার্ক
জটিলতা
প্রতিষ্ঠানগুলো
ধনী
ইসরায়েলের
অভ্যাস
প্রতিষ্ঠায়
মর্যাদাপূর্ণ
ইউরোপে
যোগাযোগমাধ্যমে
##কালে
রবার্ট
অনিয়ম
##ছেন
হিলারি
ফেলেছিল
উল্লেখ্য
নিউইয়র্ক
ডিজাইন
উৎসাহ
আটটি
তহবিল
বস্তু
কয়লা
ঝুঁকিপূর্ণ
টেকসই
বলব
ক্ষুধা
সৌজন্যে
ছাত্রলীগ
মূলতঃ
চারপাশে
সংগ্রাম
সাম্রাজ্য
ভাষ্য
প্রকৃতির
পদ্ধতির
ওয়াশিংটন
সমর্থক
এসেও
উন্নয়নশীল
অভাবে
উৎপাদিত
নিলেও
##িস
উৎসর্গ
ছুটির
স্মরণীয়
লেনে
নামটি
করণীয়
দীর্ঘায়িত
মঞ্চ
কমিশনে
মন্ত্রিসভায়
গ্র্যান্ড
সত্যিকারে
এলিজাবেথ
পর্যটকদের
আমিন
বসতি
ডাল
শফিকুর
সমবয়সী
মৌসুমের
মহাসড়কের
ডিসেম্বরে
চার্লস
অষ্টম
বিরত
বাসের
প্রত্যেকের
##নের
বিশেষজ্ঞরা
রাষ্ট্রদূত
বোতল
বলছি
প্রচলন
জানিয়েছি
পারলাম
আজাদ
দেয়নি
পাকা
লে
প্রেস
তোমাদের
ব্লক
কৃষকেরা
বিধিমালা
মিশেল
উত্তরের
ক্ষমতাসীনদের
তৌহিদ
চালের
পুষিয়ে
##এসব
সার
দেখবেন
থেমেছে
বর্ষের
রেজা
আসামির
নাটকে
জুতা
##মন্ত্রী
##ফ
ক্যালিফোর্নিয়া
সংস্কৃত
তথ্যের
নীতিমালার
খর্ব
বৃষ্টির
মুসলমানদের
সমঝোতা
রোগীদের
প্রাক্তন
ক্যানসার
নেত্রী
ব্রেক্সিট
ডা
করানো
গো
##েই
হবেই
রঙ
কৃষ্ণ
রবীন্দ্রনাথ
খোঁজে
##সুবিধা
গোল্ডেন
প্রতিপক্ষ
সজাগ
মারেন
সৃষ্ট
দিকের
মেজর
নির্দেশনার
ছক্কা
খেলোয়াড়দের
সাক্ষাৎকার
প্রকারান্তর
ওপেনারের
তোমরা
অর্থনীতিতে
সুমন
ব্যাপারটা
এলোমেলো
পরিবর্তিত
ভেসে
কাটাতে
সম্মুখীন
ওয়েবসাইটে
##সংকট
সুন্দরী
সংশোধনী
ইয়াসির
পরমাণু
আসাম
ডুবে
বিষয়বস্তু
কণ্ঠ
দায়ের
বিপ্লবী
এগুলোর
চরিত্রের
সেদ্ধ
চিকিৎসকদের
যাপন
যেগুলো
নেয়া
বাঁধ
কর্ম
উদ্ভিদ
টাওয়ার
পাইকারি
মন্দিরের
দীর্ঘমেয়াদি
রিপোর্ট
দ্বিগুণ
মুর্তজার
আলাপ
ঢেকে
অন্যত্র
চলুন
হজরত
সূর্য
কমানো
কাইয়ুম
ভীষণ
নিচ্ছেন
সার্ভার
পাড়ি
বলেছি
তন্মধ্যে
সম্পৃক্ত
রিমান্ডে
আলমের
রূপে
সদস্যরাষ্ট্র
অনুসন্ধানে
ভোলা
সময়কালে
খলিফা
প্রকাশ্যে
সুনাম
কতটুকু
সিরিয়া
বিবরণ
গুগলের
ল
সমতল
সমানভাবে
পাঠান
বে
জাতীয়তাবাদী
থিয়েটার
নাজমুল
স্বাদ
লজ্জায়
দলগুলো
স্তরে
##প্রমাণ
##ুর
তেলের
চিকিৎসাধীন
বাজেটে
পুরস্কৃত
##বে
এখনও
দাখিল
বিতাড়ন
শিগগিরই
সাজানো
চুক্তিতে
নমুনা
দেখেছেন
রানি
অনুশীলন
মাতা
খ্রিষ্টাব্দের
কারখানার
তাহলেই
অধ্যয়ন
সামলেছেন
অভ্যুত্থান
গানে
অতীতে
আয়োজনের
প্রকল্পে
মাইক্রোসফট
ফিল্ম
স্পর্শ
ম্যান
বহুপক্ষীয়
##বাবা
চীনে
ফুলের
ডে
হাট
চাইছে
রক্তচাপ
দেশগুলো
ফোনে
বোলারকে
গা
##ব্যবস্থা
হস্তান্তর
জয়লাভ
প্রেসক্লাবের
পাহাড়ের
সর্বপ্রথম
ছয়জন
কাহিনী
অপারেশন
বংশোদ্ভূত
উত্তেজনা
তালিকাভুক্ত
ওসমান
থাকাটা
মোস্তফা
হাইকমিশন
স্মার্ট
আফ্রিকান
##প্রতিদ্বন্দ্বিতা
পাল
কর্তৃত্ববাদী
গ্রাহক
ফিফা
চালুর
গোষ্ঠীর
হস্তক্ষেপ
ছেলেদের
ক্ষেপণাস্ত্র
ঘুমিয়ে
মোটামুটি
মাহমুদউল্লাহ
গণমাধ্যমের
ছুটে
রিসার্চ
মাশরাফিদের
অজানা
সত্যিই
দেখায়
চমৎকার
লড়াইয়ে
চুলের
উঠেছিল
আতাউর
কয়েকবার
তারেক
নিউজ
প্লাটুনে
নীতির
জাল
দেয়াল
মুঠোফোনে
মাঝেমধ্যে
গণিত
অনুভূতি
##বাংলা
##দুজনই
চলছিলেন
কাশ্মীর
হেগ
অক্টোবরে
কলা
অঙ্গীকার
যুবক
##রে
দেননি
সতীর্থে
থাকি
বসু
ঢেলে
নিবেদিত
প্রখ্যাত
ব্যাগ
ডেপুটি
নবম
##প্রতি
আলু
আত্মহত্যা
সুইডিশ
তাদেরকে
##গ
বইটি
স্থাপনের
মুখের
যত্ন
ইঞ্জিনিয়ারিং
নৈতিক
মতামতের
মধ্যবর্তী
মোহাম্মদপুর
টিতে
ব্যতিক্রম
শিক্ষিত
কনিষ্ঠ
সদস্যদেশ
নিবাসে
ভন
কর্মকাণ্ডের
ইন্ডিজ
হতাশ
অলক
চেয়ারপারসনের
প্রাতিষ্ঠানিক
ভয়ে
সিভিল
এটিই
সৈয়দা
ব্যবহারে
##ডি
স্তরের
স্থানান্তর
ব্যবস্থায়
মেয়েকে
রানারআপ
গণিতের
স্তর
রায়ে
##সা
মুঠোফোন
ইসরায়েল
##প্রতিষ্ঠান
কড়া
তহবিলের
ভালোবাসার
বিরোধ
লেখেন
হে
যাব
প্রতারণামূলক
সেট
নিষ্পত্তি
যুব
সীমা
লাগতে
আসেনি
দেহ
জানিয়েছিল
ঘটনাস্থলে
বুঝি
অধস্তন
মিউজিক
হ
সমাধানে
##পো
খসড়া
এমনটা
অবলম্বনে
শ্রী
লোকজনের
দিল্লির
মিলিত
আবেদীন
সম্প্রচার
উৎপত্তি
আজিজ
ভূষিত
অত্যাচার
তোলেনি
কোটা
একমত
পরিষদে
সংবাদমাধ্যম
মানুষদের
স্টক
পরিবহনের
রাজাপক্ষে
কর্মীরা
সাহিত্যিক
আয়েশা
সদ্য
মোটা
সচেতনতা
টুইট
ফোনের
সমালোচনার
নির্ভরশীল
সাময়িক
তথ্যমতে
##য়বহির্ভূত
ইইউ
আবুবকর
ভাত
##বতীয়
কখন
##স্
হিসেবেও
পেয়েছি
মধু
সংকেত
হাইওয়ে
##মো
গুম
নিচ্ছি
##এটাই
ইংরেজিতে
জরিপে
অপছন্দ
ব্যর্থতা
নম্বরে
মোমেন
ম্যাপ
ফ্রিজ
শানাকা
ডিএসসিসি
অর্থবছরের
হাছান
যুবদলের
পরিবেশবান্ধব
করতেই
পারছি
ওদের
এনেছে
বয়স্ক
লেনদেনের
উৎপন্ন
হননি
কারখানায়
বক্তৃতা
ব্যবহারকারীর
তত্ত্বাবধানে
রাইস
গিয়েছে
পাঠদান
ম্যানেজমেন্ট
রবি
বৈদ্যুতিক
বিগত
একদম
টুকরা
বীজ
ইঞ্জিন
নকশার
তামিল
করো
সংস্কারের
##মান
পরিবেশের
শরণার্থীদের
সিরাজ
রেড
উপলব্ধি
সংগঠিত
ডিএমপি
শহরটির
বিদ্রোহী
ইংলিশ
বিলুপ্ত
মশা
পারফরম্যান্সে
মেঘালয়ে
দাসুন
দুর্যোগ
স্লোগান
তখনো
ফিচার
সংসার
উচ্চারণ
এড়াতে
বিলের
ঝামেলার
বেশী
সাক্ষ্য
বিপর্যয়
আইএসের
নীরবতা
যন্ত্রপাতি
শুষ্ক
আলি
বাস্তবে
সংঘর্ষ
##দা
মানা
চি
বিস্কুট
প্রথমত
শর্তে
##তি
জীবিত
মালয়েশিয়া
কিম
বিরল
মহাপরিচালক
আশার
বেলায়
পরা
মঙ্গল
বিজনেস
দাঁত
প্রতিবাদে
চেপে
প্রথমবার
অধ্যাদেশ
নিবন্ধ
মর্যাদার
শিরোনাম
বাঞ্ছনীয়
ভিত্তিক
শিলংয়ে
কৃষকদের
নেপালের
প্রতিপক্ষের
##টোয়েন্টি
সৌন্দর্য
উত্তোলন
আদা
সরেজমিনে
যাত্রীদের
রাখতেন
অন্তরে
সাফাইয়ে
বিপদ
বর্ণিত
বহাল
দাঁড়াচ্ছে
##কি
ছবিটির
প্রতিযোগী
কাটে
লস
গেটস
মুক্তিযোদ্ধাদের
ঠেকাতে
সমন্বিত
কমবে
ভরে
অফিসের
রি
সই
কাগজ
প্রার্থনা
প্রশংসিত
গেট
পল
দেখলাম
নিন্দা
দেখিয়েছেন
##িন
প্রয়োজনীয়তা
রাখবে
বিদ্রোহ
কথাই
দেরি
জেসিয়া
আসামের
অভিজ্ঞতায়
ম্যানচেস্টার
বসানো
রিপাবলিকান
বানর
মানেই
##অ
হজ
সাহা
আইএমএফ
তুর্কি
সর্বনিম্ন
##মেইলে
রানেই
##নো
আকর্ষণীয়
জো
আদালতকে
বক্স
সাধারণভাবে
পাল্টে
লিখতে
সহযোগিতায়
বিচারপতিদের
সাব
জুনিয়র
প্রচারের
পঞ্চায়েত
জন্মের
সংখ্যাগরিষ্ঠ
যাচ্ছিল
এসময়
খুনি
দাঁড়
মসজিদে
গণনা
রোধ
তোরসা
##টাও
দিতেন
হিসেবেই
ইট
##সব
শান্ত
মহিলাদের
দিয়েছি
সমর্থকদের
ভাগের
প্রক্রিয়ার
উত্তম
পেশা
সম্বন্ধে
##কো
ব্যবহারকারীদের
আনন্দের
পারিনি
হাতেও
কর্মকাণ্ডে
স্মৃতির
কান্তি
আলোয়
পুষ্টি
শ্রেণীর
আগামীকাল
হত্যাকাণ্ডে
ঠাকুর
মিরপুর
অধিকাংশই
নওয়াজ
অশুভ
থাকতেন
বিদ্যুতের
দরে
বোঝাতে
লক্ষ্যমাত্রা
##ইন
##কিন্তু
শাখায়
শান্তিপূর্ণ
দিই
খনন
পাখির
সংক্রমণ
ইরাক
রুম
##নে
নেতৃস্থানীয়
করেও
মহাসড়ক
বিক্রম
লিঙ্গ
সংকটের
ত্রিপুরা
দিলেও
রাখবেন
রিয়াজের
সংলাপ
পাহাড়ি
ফাইনাল
রমজান
মেসি
ত্রুটি
সম্মিলিত
রাজশাহীর
মুম্বাই
জিনিসটা
কালে
কিবরিয়া
কার্বন
টুয়েন্টি
প্রত্যেকেই
হোম
অনুরূপ
ফুটে
অবশিষ্ট
বাবু
কর্মস্থলে
উপপরিদর্শক
সঠিকভাবে
সালিশ
আলীর
স্কুপ
গরিব
দৃঢ়ভাবে
প্রাইভেট
ব্যাংকার
গ্রন্থে
লিখেছিলেন
বাগান
লুকিয়ে
ভাগই
শাসনকাল
উইলিয়ামস
তেজগাঁও
মুনাফা
##চার
শত্রু
খাতুন
ভাজা
অলরাউন্ড
সাক্ষাৎ
আগ্নেয়াস্ত্র
বিচারে
উদাহরণস্বরূপ
মোহামেডান
ফাইল
বেঞ্চের
ষড়যন্ত্রের
কাহিনি
মেট্রো
বলেছিল
অনুভূতিতে
দৃষ্টান্ত
গেছি
বর্ণ
কার্যত
লাগাতে
প্রিয়াঙ্কা
করেছিলাম
তুরস্ক
শিক্ষকের
বিক্রয়
বস্তুনিষ্ঠ
বাউন্সে
গুরু
মেলার
টক
বর্ষে
বললে
পর্বত
শতাব্দী
প্রয়াত
উদ্বিগ্ন
ত্রাণ
খ্যাতি
মসলা
রাগ
ঝড়টা
ইয়াসিরের
ভক্ত
##মুক্ত
কেউই
ফাস্ট
শ্লীলতাহানির
##প্রেমিকার
গায়ক
দেখলে
মাহিদুল
অঙ্কের
বেকারদের
জোরদার
বিচারকার্য
ব্যাটারি
ভাবা
মাল
##মেইল
নীতিগত
আয়াত
একাধিকবার
ঘটেনি
একেকজন
##কাল
ময়লা
##আর
কোটাই
দিল্লিতে
উপেক্ষা
ঠাঁই
উইকেতে
রূপান্তরিত
ছোঁয়া
ঐক্য
অস্ট্রেলীয়
সাংঘাতিক
ব্যবসায়ে
##তবে
ভানুকা
গ্লাভসকে
খাঁ
নিশ্চিতে
লেগেছে
রাজবংশের
উদ্ভাবন
শেয়ারের
ধার
স্টেডিয়ামে
তুলেন
প্রযোজ্য
পেসার
পাঞ্জাব
হরতাল
একত্রে
##পূর্ণ
ঘটুক
সেপ্টেম্বরে
অঙ্গ
রাঙানো
ইন্ডিজের
আখ্যায়িত
অসৎ
ভেজে
আনিস
যুদ্ধাপরাধীদের
ব্যক্ত
আব্বাস
অতিথির
গ্রেগরী
ভার
ইসলামও
##এক
প্রেরণ
লিগে
ফুটবলার
সিঙ্গাপুর
কমতে
সাময়িকভাবে
মার
জ্যাক
দুবার
চার্জ
পাট
দোষী
হাজারের
অনলাইনের
ফ্লো
পরিকল্পনার
মানতে
অ্যাটর্নি
নাঈম
প্রবেশের
তলা
##র্ধ্বতন
ক্রমেই
বদল
দা
স্মার্টফোনের
নভেম্বরে
শ্রীমঙ্গল
নিকটতম
দার্শনিক
বুদ্ধিজীবীদের
মঞ্জুর
পাঁচজন
চাঁদপুর
আকাশে
থান্ডার
ডেটা
দুঃশাসনের
ঠিকমতো
প্রথা
পয়েন্টে
হেঁটে
দ্বন্দ্ব
সাহিত্যের
ভিসা
জিজ্ঞেস
কমান্ডার
পালিত
শরিফ
উদ্ভাবক
সাংবিধানিকভাবে
নানান
পৌঁছাতে
পেলেই
সংযোজন
হয়রানি
পড়েছিল
দৃঢ়
আইয়ুব
জম্মু
জাহিদ
সহিংসতার
বাঁচাতে
এশীয়
ব্রাজিল
সন্তানকে
ব্ল্যাক
প্রয়োজনমতো
চির
আস্থাশীল
স্পোর্টিং
মাদ্রাসার
ইহুদি
শিরোনামে
দিনাজপুর
পশ্চিমবঙ্গে
পরেও
পর্বের
মিশ্র
উনারা
আকবর
স্বাস্থ্যের
টেইলর
আসন্ন
##গুলোয়
আকৃতির
সংগ্রহের
জানিয়েছিলেন
বিপজ্জনক
##সবকিছুর
বর
হামিদ
অনুমোদিত
রক্ষায়
কাছেই
নিদর্শন
ভাইরাস
রাজার
কাশ্মীরের
মাত্রায়
##ীকে
নরম
রিজওয়ানা
ডেভেলপমেন্ট
টার্মিনাল
জগন্নাথপুর
নো
কল্পনা
উনাদের
বর্ষপঞ্জীর
বিনোদন
ড্র
সুইফট
যাঁর
বিরাগভাজন
এঁকে
কমলা
নৃত্য
নিশ্চয়তা
অর্জনকে
শহীদদের
কফি
চোট
ক্যাপ্টেন
সংশ্লিষ্টদের
লেবুর
মূল্যহীন
চিঠিতে
বাদে
কাঠের
কুখ্যাত
পেশ
পাঠ্যসূচি
জিবি
দেশেই
কই
পার্শ্ববর্তী
স্পিকারের
পর্যায়
তাকিয়ে
চিকিৎসকেরা
অবাধ
অভিজ্ঞতার
মৎস্য
নেতৃত্বের
সামগ্রিক
ক্লিক
চ্যাপ্টার
সন্ত্রাস
ঘটেছিল
কোমায়
তিনবার
সালেহউদ্দিন
রীতিমতো
আবেগ
কানাডার
আঁকা
মাদ্রিদ
এটাকে
রাষ্ট্রে
শিব
অলক্ষ্যে
আমজাদ
প্র
ছি
দ্বারস্থ
গ্রিন
ক্লাবে
চাকরিতে
নুসরাত
পাথেয়
বিশ্বজুড়ে
কর্নেল
চাপা
সিদ্ধান্তে
মাকে
পানীয়
প্রভাবে
শ্রমিকের
আমাদেরই
তথ্যসূত্র
ঠিকই
##ঁ
ইংল্যান্ডে
হয়রানির
পড়ুয়া
পুড়ে
স্পেনের
পেছনের
অনুষদ
যাচ্ছি
নৌ
ক্ষতিপূরণ
বলছিলেন
স্থিতিশীল
মেক্সিকোর
স্থির
নির্ণয়
পরিণতি
আদায়ের
হ্যারি
সিরিয়ায়
ঠিকঠাক
##বাংলাদেশ
প্রার্থীরা
ইউপি
তোমাকে
পালনের
আহ্বায়ক
পাঞ্জাবি
শীতের
কর্মসংস্থানের
টের
ওপেন
পশু
গড়ার
হুমকির
প্লে
গল্পের
চলছিল
সেনারা
চাহিদার
নির্মাণে
শিগগির
হাকিম
রত্ন
সেমি
পালনকারী
সামর্থ্য
মাসুম
সুখবর
প্রসারিত
মনিবের
গ্লাস
তুলনামূলক
শ্রেণিতে
রসুন
পলাতক
অর্থনীতিবিদ
টুইটারে
ক্যাম্পাসে
টাঙ্গাইলের
মার্চে
কটি
মুক্তিপ্রাপ্ত
চক্র
গ্রাহকদের
গলায়
রুট
তফাজ্জ
রঙিন
##মি
অপেক্ষাকৃত
ভবিষ্যতের
রিজভী
অস্থায়ী
ভারসাম্য
বিজয়ের
উত্থান
শ্রমিকেরা
বাজারমূল্য
##জা
আদিবাসী
##বাবার
টমেটো
বাজেটের
দেয়ার
জয়ে
ব্যাপারটি
সৈন্য
সমুন্নত
ব্যয়ে
বার্সেলোনা
ডায়াবেটিস
ঘুষ
বিদ্যুৎকেন্দ্র
যৌক্তিক
রীতি
আর্ট
হাওয়া
প্রশান্ত
স্থানান্তরিত
ক্ষতির
রূপান্তর
সায়েন্স
ইনস্টিটিউশন
হারিয়েছে
হয়েছি
স্টেশনে
##ওখানে
কমছে
হাইকোর্টের
চিরতরে
প্রদর্শিত
ইলেকট্রনিক
পড়ল
বাজে
রাশির
গতবার
উড়িয়ে
শোভনীয়
ঘুরতে
দেখছি
বৈধতা
লাগলেন
সরঞ্জাম
কমিউনিটি
শাকিব
বিহার
##দলীয়
##শীপা
ফলপ্রসূ
কাগজে
বায়ু
সালাম
মৃণাল
দারোয়ানের
##তিন
ক্রেতাদের
ক্ষমতাশালী
বিচারপ্রার্থীরা
কখনই
প্রোগ্রামিং
মারধর
এমনিতেই
সূত্রগুলো
গ
##এতটা
গলা
সমাবেশে
দ্বীপের
এমনভাবে
দাঁড়াতে
অবতীর্ণ
দুর্বলতা
##েন
দেশবাসীকে
মিশ্রণ
সার্ভিসের
বোঝানো
শৃঙ্খলা
ক্রেতা
##যোগ্য
পরিমাপ
ভট্টাচার্য
সোহেল
পলায়নপরতা
অনুপ্রাণিত
টুকরো
ছাড়তে
ক্রমাগত
পিএইচডি
গ্লোবাল
স্কোর
সঙ্গেই
নিজেও
দ্বিতীয়ত
জিততে
##পশ্চিম
পরিবারকে
লেজিসলে
বিপ্লবের
##উ
অভিবাসী
বিকাশের
ওভারলেপ
মুগ্ধ
গাঢ়
সর্বাবস্থা
ন্যান্সি
বিজ্ঞানের
নির্মলা
লিগের
কোর
এরফলে
অবধি
নিম্নকক্ষ
তালুকদার
নাট্য
অর্ধ
আহ্বানে
রাখাইন
দণ্ডপ্রাপ্ত
ভাঙা
##নির্ভর
বহুল
পুলিশকে
শিল্পকলা
চ্যারিটেবল
##উল
অপহরণ
শোক
চাপের
মামুন
একুশে
ঘটবে
সেকেন্ড
এসএসসি
ঘি
ক্রিম
স্বত্বাধিকারী
গুলিতে
আসামিরা
শততম
এরশাদের
যুবরাজ
দেখতেন
ট্রেনের
চাঁদ
আগুনে
সেনাদের
মৃত্যুদণ্ড
বারা
অ্যাপলের
রওনা
ম্যাজিস্ট্রেট
নিয়ন্ত্রণের
ফ্ল্যাট
বরখাস্ত
অভিবাসন
জাহান
অসহায়
চট্টোপাধ্যায়
ডিন
জাদুঘর
আমিনের
সুশাসনকে
আনে
প্রবৃদ্ধির
ধারাবাহিকভাবে
ওয়াই
মোসাদ্দেক
##নগর
শীর্ষস্থানীয়
##করণ
প্রতিফলন
নারায়ণগঞ্জ
মার্কেট
ইচ্ছে
চিত্রনাট্য
খানিকটা
বিরুদ্ধেও
প্রেসিডিয়াম
টাইম
সিনেমায়
বিপদে
পেশাগত
স্মারক
অভিন্ন
এগুলি
রহস্য
সোসাইটি
ঘণ্টায়
জনগোষ্ঠী
বুঝিয়ে
তড়িৎ
বালু
ইউএস
প্রকৃতপক্ষে
হই
কার্যকরী
একটার
বাতাস
তৎপর
বাড়ার
জয়নুল
আমু
কাঠ
তৃতীয়বার
নজরদারি
সংবাদপত্র
দুদকে
আধিপত্য
হাওড়া
দৃষ্টিভঙ্গি
অতীতের
ইয়র্ক
নাটোর
মিশন
ফের
কিংবদন্তি
সর্ব
প্রতিরোধে
ফাঁকে
কৃতিত্ব
##ৎসা
পিটার
গ্রেট
এতটাই
পাতলা
ভূ
রাষ্ট্রপতির
ক্রিস্টিন
ম্যার্কেলের
ঠিকাদারি
অপরের
অবিলম্বে
সোজা
অন্যরা
জিতেছে
অদ্ভুত
পরিষেবা
পুনরাবৃত্তি
জটিলতার
মালয়েশিয়ার
রহিম
সম্প্রসারণের
কাউকেই
জেগে
সংজ্ঞা
সংঘাত
খায়
পাঠক
আমেরিকায়
পে
আচার
সংখ্যায়
বিভাগই
পিছনে
ভরসা
মহাকাশ
আসামিদের
ইনচার্জ
এসপি
উ
দাবির
এজেন্ট
করপোরেট
ফলের
দ্যা
অবলম্বন
উঁকি
সৎ
উপকূলে
লাইফ
ফেডারেশন
লো
স্বাগতিক
ক্রয়
##েড
আসামিকে
এঁদের
ভেতরের
রণবীর
সোনালি
কা
অভ্যন্তরে
গ্রেপ্তারে
প্রান্ত
শের
গেটসের
প্রজন্ম
আবিষ্কৃত
প্ল্যাটফর্ম
দৈনন্দিন
প্রায়শই
চিৎকার
পাতায়
আশ্বাস
ঈদে
ত্বকে
বেল
শুরুটা
এলেন
স্বচ্ছ
আত্মঘাতী
পর্যটক
মালিকানা
অলরাউন্ডার
দুদিন
স্পোর্টস
বিজ্ঞানীরা
ব্রাজিলের
বর্জন
মেধাবী
অ্যা
প্রবাহ
কনস্টেবল
ক্যাম্প
প্রাদেশিক
প্রেসিডেন্টের
সরু
দর্শকের
রিটার্ন
দাবী
পারা
জানাই
স্বর্ণ
ডানার
সহ্য
বাদামি
শতকরা
চ্যাম্পিয়নস
অভিযোগপত্র
অক্ষাংশ
চেয়েছেন
সেন্টারে
ইউরো
অর্গানাইজেশন
মরদেহ
দেহের
বিংশ
##জুড়ে
কেনাকাটা
কৃষিবিদ
অর্জিত
মার্টিন
শোভা
আইনবিদ
##তো
ক্রমবর্ধমান
সেরেনা
রেখেছিলেন
ভ্রমণের
সহযোগিতার
মিলবে
গড়েন
কৌশলগত
কলাবাগান
কিলোমিটারের
আইসিটি
সেন্ট্রাল
বসিয়ে
তুমুল
ট্রেড
অ্যাসিড
জিন
অ্যাকশন
লোকেরা
ব্র্যাক
অভিনয়শিল্পী
শিক্ষকেরা
চালকের
বৃথা
ল্যান্ড
হতাহত
শাসনামলে
##কারীদের
একাডেমির
নজির
সাহিত্যে
সাহেব
নভেম্বরের
জ
পুতিন
অভ্যুত্থানে
জানানোর
##একটি
গ্রেটা
অর্ডার
গণপূর্ত
বাঁধা
টেলিভিশনের
অধীন
হার্ট
পর্দা
ভাতা
##শিক্ষাপ্রতিষ্ঠান
অদূরে
টুর্নামেন্টে
বিস্ফোরণ
খ্রিস্টপূর্ব
সম্রাটকে
সত্যকে
অপরাধী
পেলেও
বন্দরের
লিপ্ত
বাঘ
মেলিন্ডা
বললাম
প্রতীয়মান
দুপুরের
সাজিয়ে
স্বাধীনতাকে
ধারণার
বিরুদ্ধ
খনিজ
সফরকারী
সংখ্যাগুলো
দীর্ঘস্থায়ী
খ্রিষ্টাব্দ
প্লাস্টিক
সনি
মস্তিষ্কের
বিশ্বমঞ্চে
ভ্যান
ঘূর্ণিঝড়
সস
নবাব
মাওলানা
আচরণের
হতেই
ছেলেকে
বলল
##ব্যবসা
তাঁরাও
শিল্পীদের
ধূসর
স্থাপত্য
প্রিন্স
মণ্ডল
##জমি
ঘটায়
পরিশ্রম
হাল
সুবিধার
কাটার
অপসারিত
অতঃপর
আমলের
##াস
বইয়ে
চমক
প্রশিক্ষণের
নোটিশ
ভরা
সোহরাওয়ার্দী
মেয়েরা
টেলিযোগাযোগ
সূর্যের
বুকের
অধিকতর
আমীর
নজরে
কম্পিউটারের
আকৃষ্ট
##কেন্দ্রীয়
পুরান
জন্মেছিলেন
গুপ্ত
##বাদ
চলচ্চিত্রটির
টেন্ডারবাজি
আহমেদের
মনিরুজ্জামান
নদ
##পরবর্তী
গাজীপুর
পার্শ্ব
মুদ্রানীতির
রক্তে
আশায়
ঘটনাপ্রবাহ
লাতিন
দেখান
পাতার
##চ
প্যানেল
পুড়িয়ে
পোশাকে
পতনের
ভারতকে
দুজনকে
ওমর
রশিদের
নাগরিকের
প্রতিবন্ধী
ব্যক্তিও
ছাপ
##প্রচার
দক্ষতার
বোঝার
পাত্রে
নাক
তরুণেরা
ময়দা
মিনহাজুল
এসি
পাথরের
কারাদণ্ডের
দেবতা
ছায়া
মনোনয়নপত্র
চিফ
ইন্দোনেশিয়া
রোকেয়া
মদ্যপ
আত্মপ্রকাশ
দুটির
গেমসে
হৃদয়
যৌক্তিকতা
নামতে
পড়েছিলেন
গেন্ডারিয়া
সোয়া
শুকনো
সম
স্থলবন্দর
ক্যাম্পাস
গতিতে
পাসওয়ার্ড
আবদুস
মানবসেবা
টান
টুইটার
মোটেও
ফিরতে
ইভাঙ্কা
দৌড়ে
উদ্বেগের
ওয়ারী
বিগ
দম্পতির
ইনস্টিটিউটের
বৃত্তি
শেরেবাংলা
##রক্ষামন্ত্রীর
কাতার
ঠেলে
শুকিয়ে
শর্মা
শ্রেণী
সেমিস্টার
রিচার্ড
বিবিসির
ময়রা
ভাবলেন
পাবনা
টেস্টের
##দার
কুক্ষিগত
প্যারিস
কক্সবাজারের
সাপ্তাহিক
আস্তে
সমসাময়িক
ধাঁধার
নয়ন
মালিকানাধীন
সামুদ্রিক
সাহসী
অতীত
ইস্যু
তত্ত্বের
উচ্ছেদ
##আমাদের
তফসিল
প্রবর্তন
আইসিইউ
রোডের
অপরাহ
মুক্তিযুদ্ধে
স্বাভাবিকভাবেই
ফরহাদ
মাঝখানে
উইনফ্রে
মুসলিমদের
থুনবার্গ
বাস্তবায়িত
মতিয়া
জন্মদিন
সম্পাদনের
কোষ
কর্মজীবন
পুরনো
বাসার
খুঁজতে
উপমহাদেশের
ঈদুল
সম্পদে
বসার
সোনালী
সুন্দরবন
বিরতি
উপাধি
##তু
##ময়
পয়সা
পেলোসি
ভোরে
কাপড়ের
##জন
যন্ত্রের
ফেনী
দ্বীপে
পণ্ডিত
অক্সিজেন
বিজ্ঞানচিন্তা
সাগরের
শেয়ারহোল্ডার
উৎপাদনে
অনুপ্রেরণাদায়ী
স্থানের
মাঝের
জামিনে
আয়কর
সরল
ফাঁকা
ওয়েলস
নেয়নি
চলাকালে
অসুবিধা
রাজপথে
ফৌজদারি
প্রণালি
জাপানে
পাইলট
শতভাগ
একজনের
ইতালির
আসছি
পারলেও
যমুনা
থ্রি
ডিজাইনার
পৌনে
লীগে
যাত্রায়
চারদিকে
সীতারমণ
উদ্যোগের
এপ্রিলে
গাওয়া
##কেন্দ্রিক
পুরাতন
বাচ্চা
##ছ
মাত্রার
পরিবেশকর্মী
নোয়াখালী
উরসুলা
কন্ডোলি
দপ্তরের
ঘটাতে
সংস্করণে
ওয়ার্ডের
নবমবারে
মাস্টার
ইরাকের
ইব্রাহিম
পরিমাণমতো
যোগাযোগমাধ্যম
সভাপতিত্বে
অন্ধকার
গমন
ভবনটি
সুখ
টেকনোলজি
রাজকীয়
মায়া
তাও
দুর্গ
প্রজনন
উপকূলীয়
অধিবেশনে
পিছিয়েছেন
রিমান্ড
সর্বমোট
যুক্
স্মিথ
নাচ
মুখেও
নিকটবর্তী
চাচ্ছি
তাৎক্ষণিকভাবে
চ্যানেলে
জঙ্গিদের
মন্দিরে
বহিষ্কার
তরঙ্গ
কানে
ফেরদৌস
অ্যান্টি
কীর্তিময়
সাঁতার
তলায়
বাবাকে
রানিয়া
ধর্মঘট
ক্ষমতাকাঠামোকে
ছুড়ে
সেখানেও
আন
ফাইনালের
রেলপথ
প্রসেসর
জাতক
##ররাষ্ট্রের
লগার্ড
প
ফলশ্রুতিতে
কাতারের
মানবসৃষ্ট
নাশার
হুজুগে
বিচ্ছেদ
এশিয়ায়
মেডিসিন
বক্তব্যের
চিরকালের
দোয়া
##ছি
পরিসরে
##কর্মীকে
ফেব্রুয়ারিতে
গ্যালাক্সি
তাৎক্ষণিক
কামনা
বিপণন
সংঘর্ষে
বানিয়েছিলেন
উচ্চতর
টপ
সনে
রাস্তাটি
##যা
হা
ব্যবস্থাপনার
মানসিকভাবে
ভেন্টিলেটর
বাহিনীকে
অস্থির
আঙুল
গ্যালারিতে
পাড়ে
বাঙালির
প্রো
ভোর
ঢুকতে
হত্যাকারীরা
নারীও
##থ
নবনির্বাচিত
টিআই
রকমই
মরে
##পি
বিষয়টিকে
চিন্তার
শাস্তির
##বাহী
বসা
##বাজার
##বড়
আর্জেন্টিনা
##আমরা
ডাইরেক্টর
দুপাশে
দুইবার
##মার
সূত্রাপুর
নিরসনের
পাচ্ছি
মেঘ
প্রেসবক্সে
নানাভাবে
আভাস
সচল
##ছিল
কসবা
পার্লামেন্ট
নর্থ
বুঝলেন
রক
মুঘল
মিজানের
আত্মসমর্পণ
সুদের
##দি
পুকুর
অসম
থাকুক
দুঃখজনক
প্রবীণ
সাধন
##ব্যবসায়িক
সামগ্রী
লোকদের
আগমন
জুনে
মুহাম্মাদ
প্রতিষ্ঠানকে
সাঈদের
হু
এখনকার
অভিভাবক
আক্তারকে
আইনগত
রিকশা
বিশুদ্ধ
রনি
##বেনামে
বিসিএস
জৈব
শীত
তুলা
সভার
বাইপাস
ইত্যাদির
পরতে
নকল
এসবের
কেড়ে
পর্দার
লেয়ে
শার্ট
স্টেশনের
এমনই
অংশীদার
বেকার
অফিসারকে
আফগানিস্তানে
বাড়ায়
লিটন
শরীফ
সম্মানিত
##সাড়ে
##আ
আদৌ
সিস্টেমের
কথাটি
##ভি
আদম
বানাতে
বোনের
দূতাবাস
জায়গাও
রোধে
##মুখী
ইউটিউব
সমাজতান্ত্রিক
##বাদী
জালিয়াতি
মন্দ
##পুলিশ
তৃণমূলের
উদ্যান
পোর্ট
গ্রন্থের
গেমস
বিমানবন্দরের
বিশ্লেষকেরা
পরিয়ে
অনুদান
সেলফি
সাক্ষী
বছরই
সাইট
সম্পাদনা
পূর্ববর্তী
অস্ত্রের
নাইট
লাগার
আসবেন
##ব্যবসায়ে
বন্যার
আসর
ফিফটি
##আমি
টানতে
অনুকূলে
ঘটলে
ক্যাশিয়ার
সুস্পষ্ট
গ্রীষ্মকালীন
নুর
রিজার্ভ
##কন্যা
মহাসড়কে
তারাই
লেনের
ভাষণ
ঘাঁটি
অংশগ্রহণকারী
মাধ্যমেই
মানুষেরা
অ্যাপ্লিকেশন
মোশাররফ
কণ্ঠে
এমডি
হৃদ্
ছাড়ার
অবতরণ
প্রতিকার
ডাক্তার
একাডেমিক
সদস্যরূপে
জনসাধারণের
এনবিআর
চারে
##লো
##ীর
##প্রধান
তিনজনের
সুন্দরবনের
ট্রেনে
হাতছাড়া
ব্যর্থতার
সাগরে
বদলি
পুঁজি
ওপরের
জং
ইতিমধ্যেই
পাশেই
দেশগুলোতে
ফার্মগেটে
আমদানির
সভ্যতার
করতো
বিরুদ্ধেই
ভাবমূর্তি
চালাচ্ছে
রক্তের
ইসি
লেখাপড়া
ইসরায়েলি
রেখা
সহিংস
শিশুটির
বেতার
সেরে
রাজীবকে
দই
মজুত
বন্ধন
কলাম
পরস্পরের
বাঁ
জনপথ
ন
আজকাল
চ্যাম্পিয়নশিপ
ধূমপান
ইনডেমনিটি
খবরের
শাহরুখ
ডায়াবেটিসে
নাসির
ফাঁসি
##নিমিনি
থেরেসা
রাজস্থানের
##পনিবেশিক
কমিটিতে
সংবিধানে
অনুপাত
কোচিং
খোরশেদ
মৌখিক
শর্তটি
কিনতেন
নিলামে
হযরত
সঞ্চয়
হাসবেন
তাল
জলের
শিক্ষকতা
আগস্টে
চালিয়েছে
কিশোরগঞ্জ
রপ্তানির
ডেইলি
হেড
উপকূল
##গুলিকে
নিল
উর্দু
স্বাক্ষরিত
মহল
##ইসমাইল
মাংসের
ভিয়েতনাম
ফুটিয়ে
পূর্বের
ফিরোজের
ফরিদপুর
কবিতার
সেন্সর
এসেছি
মুরগির
কিং
মশার
মান্নান
খামার
নায়িকা
প্রতিষ্ঠানগুলোর
আরমানের
ডানহাতি
জনক
মাই
মানসিকতা
##ক্যাসিনো
হাসার
গোসল
##হাটি
বস্তুর
লাইভ
চলাকালীন
দ্রাঘিমাংশ
পরিত্যক্ত
যানজটে
আরবে
আংশিক
ইতালীয়
অনুসারী
গোপনে
##ফ্ল্যাট
লোকমানকে
কুষ্টিয়া
স্টুডিও
##টেকে
একেক
খেতাব
এগোতে
হুয়াওয়ে
সার্চ
দেয়ালে
জাকিরের
পথের
##মে
সহকর্মী
##শুদ্ধি
নেয়ার
গন্ধ
চুক্তিবদ্ধ
ঘাট
চাকা
মেয়েটি
বিষয়টা
দপ্তরে
আবরার
হয়েছিলো
অনুচ্ছেদ
##পুরুষ
##গো
স্বাস্থ্যসেবা
আরা
কর্তৃত্ব
ইন্টারনেটের
বৃষ্টিপাত
চিন
মণিপুরিপাড়া
থাইল্যান্ড
পেছন
গুরুত্বের
##সন
ইন্দোনেশিয়ার
দুশ্চিন্তা
ধাঁধাটি
ব্লু
বিধি
দেখানোর
পরম
সাইকেল
রেজাউল
হিল
প্রয়োগের
উদ্দীন
##সম্রাটের
মেহেদী
কেআইবি
স্ত্রীকে
সংরক্ষণের
লিপি
ম্যাক
রোবট
হারায়
বনাম
জগতের
গড়া
আইনটি
সত্যিকার
##সবশেষ
রাশিতে
হারানোর
নই
##কর
##কলাবাগান
##লোকমান
অধ্যাদেশকে
কোনোভাবে
ছাত্রদলের
##গেন্ডারিয়া
স্থপতি
##গামী
রাজত্ব
সতর্কতা
কথাটা
সাপেক্ষে
নথি
স্বপ্নের
ভৌগোলিক
জাহাজের
বরফ
ওষুধের
শিল্পে
প্রোটিন
##মুল
একজনকে
প্রতিনিয়ত
আরেকজন
প্রসার
জাকিরকে
সুরা
চারটির
মোমেনকে
কারনে
মেট্রোপলিটন
মরগান
বুথ
টুর্নামেন্ট
উঠলে
তল্লাশি
উল্লিখিত
বন্ধের
প্রশ্নপত্র
সমাপ্ত
স্বচ্ছতা
ভোটাধিকার
পুরাণ
বর্গসংখ্যাটি
ডানহাতে
বলতেন
ফুটবলের
অভিজাত
বিষ
রান্নার
আতঙ্ক
ভেঙ্গে
দলিলমূল্য
শিয়া
এহসান
বার্তায়
নদের
পাত্র
সমালোচক
স্পেন
আয়োজক
জবানবন্দি
নাদুর্নীতি
##শার্ট
ঘটান
ব্যাংকটির
বেন
অলিম্পিকে
তিনিও
আড়ালে
বাতিলের
বেশিগত
প্রজেক্ট
ঘনত্ব
সেলিমে
স্প্যানিশ
ভঙ্গ
বসতে
ব্লকের
বারী
বানানোর
আখ্যা
আসুন
ঘুমের
ছাত্ররা
বিচারিক
আপন
জব্দের
উপকারী
স্টিভ
খালিদ
অবৈধভাবে
##বাণিজ্য
জিম্বাবুয়ের
সং
কমপ্লেক্সে
ধারাবাহিকতায়
বিশ্বাসঘাতকের
দম্পতি
আক্রমণে
গ্রাহকের
শামসুল
পরিবেশনা
ফেডারেল
দীর্ঘদিনের
ক্যামেরার
ঐশী
এদিন
আরমানও
ডলারও
##বিশিষ্ট
নিক
সেন্টিমিটার
স্পেনীয়
উড়ে
অ্যাসোসিয়েশনের
মধ্যবিত্ত
ব্যাহত
সমর্থকেরা
##তৃতীয়াংশ
গোলের
উদ্বুদ্ধ
উড়োজাহাজ
উষ্ণ
গান্ধীর
মেট্রিক
উদ্ভব
মাদকও
অ্যাওয়ার্ড
চিংড়ি
কথাবার্তা
ওখানে
মেয়েটির
রানী
হারানো
দলিল
##শাসিত
বিনিয়োগকারীদের
ডাই
বিশেষজ্ঞদের
প্রথমেই
গঙ্গা
তাপ
আশপাশে
হেনরি
অপারেটর
আরমানকে
তারই
বললেই
প্রাক
আসিফ
এরকম
পোষণ
সন্দেহভাজন
পরিমাণই
আন্তর্জাতিকে
##উত্তর
কাজগুলো
উন্নতির
প্রতিবেদনের
সূরা
ভাস্কর্য
প্লাস
নয়টি
কাঙ্ক্ষিত
নিজেরাই
ব্যবহারকারীরা
প্রজাতন্ত্রের
কুরআন
তরুণী
অস্ট্রেলিয়ায়
মুহম্মদ
ডিএনএ
ইতালি
ফরম
মেঘনা
##িয়ে
মোল্লা
পদোন্নতি
ঝামেলা
দরপত্র
টম
অনুষ্ঠানটি
সঞ্চার
আবেদনপত্র
কার্যক্রমে
উচ্চতায়
রাখলে
বিরক্ত
ডাকসু
প্রতিদ্বন্দ্বিত
ভিডিওতে
ডিসেম্বরের
ঘটনাস্থল
দিকেও
বস্ত্র
ট্রাকচালক
জানুয়ারী
অভ্যস্ত
দখলের
বিধায়ক
খেলোয়াড়ের
নিই
##পশ্চিমে
নীরব
শাহজালাল
মধ্যম
ব্যতীত
শুনেছি
পারফরম্যান্স
আত্মহত্যার
##উপকরণ
সীমান্তের
হিট
টাস্ক
বিন্দু
কাম
সিদ্দিকী
রুটি
বিপুলসংখ্যক
প্রচারে
ভরাট
আড়তদার
পার্কে
ফেলুন
পাকিস্তানকে
বুয়েট
খালাস
ডন
কোরআন
মেধা
নিশ্চয়
আপ
সর্বত্র
বরিস
বিসিবির
অঙ্গনে
রাজধানীতে
জ্ঞানের
প্রাপ্তবয়স্ক
বাউন্ডারি
শিক্ষাক্রমে
গঠনে
টেকনাফ
উদ্ভূত
ঠেকেছে
একত্রিত
জামায়াতের
স্পেস
সমুদ্রের
##দুই
এতটা
উঠল
অস্থিরতা
জুলিয়া
বনে
সম্মতি
খ্রিস্টান
ট্রফি
অধিকারের
কলেজটি
সেল
কর্মকর্তাকে
উপসর্গ
ভর্তির
বৈচিত্র্য
মজা
কমবেশি
##নার
##গা
পিপলস
জানুয়ারির
উপস্থিতিতে
প্রকল্পটি
ফোর
নিরসনে
ওয়া
ভূমিকম্প
চেম্বার
পিছু
সুদ
সংক্ষেপে
ডব্লিউ
চর্বি
বিদ্যালয়টি
ডিভাইস
উদ্যোক্তাদের
তিব্বতের
ইদানীং
##রাও
প্রশস্ত
রকেট
ঐক্যবদ্ধ
জগৎ
পেট
আসরে
গাইডলাইন
দোকানের
পোস্টার
দায়িত্বশীল
রয়্যাল
উল
শৈশব
##িয়ান
চেয়েছিল
সংশয়
ভাষণে
##স্ট
ইন্টার
সুপরিচিত
রক্ষণাবেক্ষণ
সেন্টারের
আখতার
বিরাজ
স্ট্রিট
টেবিলে
দামের
খণ্ড
এবারই
বিশ্রাম
গ্রহ
জিতেছেন
মুখোপাধ্যায়
##জে
ডাউনলোড
পরিপূর্ণ
ব্রিজ
ঈশ্বর
জনি
রংপুরের
শব্দটির
পাশ্চাত্যমতে
গুলো
পুনঃ
অডিও
বন্দরে
অপ্রতুল
মোতায়েন
পুলিশও
চুরির
সার্টিফিকেট
বগুড়ার
ইকোনমিক
হ্রদ
তুলেছিলেন
হাড়
চাপিয়ে
তেলে
গৌতম
##কমার্স
গুঞ্জন
দেবীর
কদিন
রুহুল
ক্যাথলিক
বসেন
বালিকা
সিটির
কাপের
বিরূপ
##ভুক্ত
বারাক
অস্ত্রোপচার
পাহাড়ে
ব্যবস্থাপনায়
পাঁচটা
হংকং
তুলনামূলকভাবে
উন্মোচন
গোলাপি
বাণী
সম্মত
সংবাদমাধ্যমের
প্রান্তিক
গোত্রের
আবির্ভূত
একের
হলিউড
নির্বাচনকে
পৌঁছায়
আদান
বাবদ
সমষ্টি
বৃদ্ধ
কিডনি
কাছের
##সমাবেশ
##সংশ্লিষ্ট
ব্যান্ডের
উই
করাই
সংবাদমাধ্যমে
উভয়ই
গেলাম
বর্ণের
অনুপ্রেরণা
বিস্ফোরণের
লামা
অং
বর্ধিত
ইন্দিরা
বন্ড
খানকে
##সংলগ্ন
মার্শাল
রক্ষণশীল
নিঃসন্দেহে
এরপরও
উসমানীয়
হাজারো
ক্রিস
##খ
ভাঁজ
কোচের
পাঠায়
ভক্তদের
ওজনের
সাঁথিয়া
আড্ডা
##াম
বিশ
সিকি
লড়াইয়ের
প্রত্যাশিত
গুণগত
লাইনের
মিলন
বিরোধের
লাইট
নব
শিবির
ফিট
##দ্বন্দ্বিতাপূর্ণ
আর্মি
ক্রিয়া
দেখবে
মেক্সিকো
ঘটনাকে
লর্ড
চোটে
কম্পিউটারে
ডিরেক্টর
ঘটানো
আলিয়া
বাতাসে
মন্ত্রীর
জিডিপি
##বেন
রোজ
স্বয়ংক্রিয়
ইন্টারনেটে
পালা
ঘৃণা
মেকআপ
এক্সেল
প্রাচীনতম
ক্রেতারা
অধিবেশন
পরাজয়
ব্যস্ততা
প্রত্নতাত্ত্বিক
গতির
গীতিকার
হায়দার
অনাকাঙ্ক্ষিত
মানেন
মাপের
অধিনায়কের
সাংবাদিকতা
কোয়ান্টাম
অপরাধীদের
থাই
বিদেশী
খসরু
জাকারবার্গ
ফ
ডট
স্বস্তি
ডিসি
রসায়ন
কর্ণাটক
সময়েই
সম্পদই
বাক্য
অগ্রণী
ফুড
খুচরা
শঙ্কা
জার্মানিতে
ঠিকানায়
হাঁটতে
মেইল
সংকটে
##সিংহ
সাব্যস্ত
মোটেই
চায়ের
##বেসরকারি
প্রার্থীকে
চকলেট
##বৃষ
বাসিন্দারা
শুনেই
কমনওয়েলথ
ইস্যুতে
বাইরেও
অযোগ্য
ইন্দো
যেকোন
বাসিন্দাদের
অঙ্ক
ঘটিয়ে
আনেন
পাক
বেঞ্চ
বাই
দাও
রুবেল
অনিয়মের
প্রি
প্রগতিশীল
করুক
তাড়া
মানুষও
গ্লোব
খ্রিষ্টান
বিরোধীদের
নিবন্ধিত
জড়ো
ডিমের
অঞ্চলটি
টিভির
বলেননি
মোস্তাফিজুর
প্রত্যক্ষদর্শী
মৃতদেহ
উদার
চাকমা
জগন্নাথ
ঝুঁকির
##লাল
শতাংশে
ভাঙন
আজীবন
উল্লাহ
##এবারের
নামেন
মহিউদ্দিন
অতিবাহিত
মূসক
সুরক্ষিত
মূলধন
আকৃতি
নিয়েছি
পাউডার
জয়া
বাক্স
দিত
হাউসের
মৃত্যুতে
লিটার
আশরাফ
সমূদ্র
দর্শনের
পার্লামেন্টের
শিকাগো
জাহাঙ্গীরনগর
সমাপ্তি
সিন্ধু
##বঙ্গবন্ধু
স্টেডিয়ামের
বাচ্চাদের
এক্ষেত্রে
বস
উপাচার্যের
মাখন
রোডে
আকস্মিকভাবে
জোরে
ক্রমে
ব্যাটিংয়ে
ডিসপ্লে
ট্রেনটি
##বিদেশি
ছুরি
ফেলেছেন
মুক্তিযোদ্ধারা
বাণিজ্যের
ঠোঁট
কারওয়ান
সোপর্দ
টাইপ
দুনিয়ার
তথাকথিত
বিপন্ন
উপস্থাপনা
যথা
আবির্ভাব
নারায়ণ
লেক
বোলারদের
মেখে
অব্যাহতি
হাদিস
নারায়ণগঞ্জের
এইচএসসি
ধ্বংসস্তূপ
সবারই
হারের
ইউনিভার্সিটির
জের
অবহিত
ফাংশন
ইসলামকে
জনমত
জীব
কারাগার
##ডা
যাবজ্জীবন
আজকে
করান
##চি
লাইনে
##েস
##ভারত
বিস্মিত
বাবুল
কর্পোরেশন
দাদা
সুরকার
অপব্যবহার
কল্যাণে
মনসুর
বসন্ত
রাশেদুল
##বেকারদের
সরবরাহের
হোটেলের
ডাকে
উপকার
উভয়ের
ফেরি
পলিসি
মাইক
ডু
এনআরসি
লালন
বিট
খেলতেন
প্রথিতযশা
মমতার
রেখেই
দ্রব্য
জোগান
উচ্চমাধ্যমিক
কেন্দ্রটি
ধারাবাহিকতা
শিল্পীর
কাপে
বরাবরই
মুন
অপরিহার্য
মানিয়ে
ফুলে
যথাযথভাবে
আগত
ভিন্নতা
##টাকে
করিনি
##সু
দ্বৈত
শান্তির
রিয়াজ
বর্ধমান
আয়ারল্যান্ড
সোশ্যাল
সঞ্জয়
##মেষ
পিটিয়ে
লুইস
চেয়ার
কর্মসূচিতে
সঙ্গেও
রাখি
মানদণ্ড
নিরাপদে
ট্রাম্পকে
সফলভাবে
আফ্রিদি
কিভাবে
শীতল
কেমব্রিজ
প্রতিযোগীরা
বিকশিত
##িংয়ের
অধ্যায়
বাকিরা
সময়সীমা
আফ্রিকায়
যুক্তিতর্ক
মাননীয়
জ্যামাইকা
পড়াশোনার
সম্পাদিত
প্রদর্শনের
দেখছে
অবসরপ্রাপ্ত
প্রচারণার
ন্যায্য
ধারে
গুলিবিদ্ধ
কাঠামোর
প্রেক্ষাগৃহে
নামেই
সুশাসন
পারভেজ
আরম্ভ
##রাজ
মাথাপিছু
গ্যালারি
আমানত
প্রকাশে
মতবিনিময়
সমীর
সময়মতো
সহায়তার
মনকে
অসীম
নাটকটি
খোঁজখবর
রসুলপুর
গর্বিত
মিয়ার
নিবন্ধে
##শি
স্থায়ীভাবে
নিরীহ
কোহলি
ধার্য
দুর্ভোগ
চওড়া
ভিক্টোরিয়া
আইটি
মিশে
ঘোড়া
##রত
আধ্যাত্মিক
জামালপুর
##কু
##ভা
কুড়িগ্রাম
অংশটি
কাছেও
ক্যাম্পে
বিধ্বস্ত
সমীক্ষা
##যে
শারমিন
মন্ত্রণালয়ে
মিনার
আসি
উপনিবেশ
##ড়
লুটপাটের
মন্দিরটি
তাহমিনা
স্বীকারোক্তি
ছোটবেলা
ঘটল
আর্জেন্টিনার
শিক্ষায়
অলআউট
ভুটান
ছাদ
পল্টন
জোন
পল্লী
হাতিয়ার
মধ্যপ্রাচ্যের
মেলেনি
অতএব
একসাথে
সংঘ
চতুর্থবারে
উনি
বাদাম
ব্যাটসম্যানের
থাইল্যান্ডের
স্যাটেলাইট
মনোবিজ্ঞানের
হাতি
সমতা
জামায়াতে
ধ্বংসের
পদার্থের
প্রস্তাবে
পেপার
মনির
শিক্ষাগত
বাদশাহ
গোয়াইনঘাট
মধ্যপ্রাচ্য
চাননি
আত্মীয়
তিব্বতী
বিষাক্ত
সিকিউরিটি
তাছাড়া
ছবিগুলো
ব্রিটেন
কারাবন্দী
রেখেছিল
অর্থায়ন
##মিথুন
কৌশিক
নামঞ্জুর
কর্মক্ষেত্রে
তাআলা
নিক্ষেপ
সেটে
খাবারে
তিস্তা
রাশেদ
ডলারে
স্টাইল
বিশ্বাসের
চ্যানেলের
বর্ষা
##টন
শিক্ষানবিশ
সরিষা
ব্যাক
আইসিসির
রয়টার্স
রাখছে
আটজনের
মুরগি
##িয়ার
অভিবাসীদের
পয়লা
মার্চের
নামানুসারে
উপন্যাসের
##হা
পশুর
অ্যাপটি
সাজ
কার্ল
বেইজিং
মর্গে
অনেকেরই
লেনদেনে
চাঁদা
আরেকটা
আত্মবিশ্বাস
##ষধ
আসলেই
সমর্থনে
##র্গ্যাল
দীপিকা
চাচা
সংখ্যাগরিষ্ঠতা
প্রণীত
আসাদুজ্জামান
গ্রেফতার
আশরাফুল
ধাতব
আলাদাভাবে
বুদ্ধিমত্তা
পরিচালকের
দিনব্যাপী
টাউন
নৌবাহিনীর
প্রত্যাহারের
ফিলিস্তিনি
বিদ্যা
শিক্ষাবর্ষে
দূষণ
তালা
করমজা
বনের
ডিবি
শীতকালে
গ্রীক
ক্ষত
রাতেই
ঘাম
ইউনিটের
আমিও
তাড়াতাড়ি
কাব্য
ময়নাতদন্তের
শেখার
জনাব
অধিগ্রহণ
নারকেল
স্বাধীনভাবে
গরমে
শ্বাস
বিশ্লেষক
তারাও
ওয়ার্ডে
প্রদর্শনীর
হারাতে
পৌঁছানোর
উপরের
দ্বাদশ
সবগুলো
রোল
বলবে
সাপ
##ভেদে
রঙা
ততই
দিবসে
স্টাফ
যাচ্ছিলেন
পত্র
স্মরণে
ব্যাংকগুলো
নিজেরা
অনুপস্থিত
প্রতিদিনই
পারার
যেদিন
আর্থার
বেপরোয়া
বিতর্কে
লাগানোর
হো
স্টেশনটি
বাঁচতে
অপরদিকে
বরণ
সিমেন্ট
##প্রতিষ্ঠানের
বিশ্বব্যাংকের
সংস্থাটির
বিহারের
চ্যাম্পিয়নশীপ
##ফা
পরামর্শে
গাণিতিক
##ছিলেন
রহমানকে
সফলতার
##কোন
বিশ্বযুদ্ধ
প্যান্ট
অধিনায়কত্ব
ওডিআই
যাত্রার
স্থানীয়ভাবে
চড়ে
ফলাফলে
##নাম
ফিল্ড
ফিলিপাইনের
সূচকে
ক্ষয়ক্ষতি
পদত্যাগের
বসবাসকারী
##বো
মহারাষ্ট্র
দেখাবে
শরিক
নেহরু
ভালোবাসেন
বাসস্ট্যান্ডের
জামান
নৌকায়
সংঘর্ষের
##টুকু
এমনটাই
আসছিল
মস্কো
কথাগুলো
গৌরব
ফেডারেশনের
নিষেধ
খেলাধুলা
জার্সি
দামি
শিবিরে
সুনামগঞ্জ
অনেকগুলি
গোলমরিচ
স্ট্যান্ডার্ড
একাই
গিবা
ঝরে
হুদা
তাত্ত্বিক
আসামে
অক্সফোর্ড
স্বয়ং
বেসিস
বক্তৃতায়
ধরিয়ে
##উদ্দিন
সন্ধ্যার
সিপিআই
ক্রিকেটারদের
ব্যুরো
কমার্স
শিখতে
রাজনীতিক
বোধগম্য
সমঝোতার
আহমাদ
প্রযুক্তিগত
বাশার
আন্তরিক
জিম
দুধের
অমর
প্রতিহত
একযোগে
দেলোয়ার
দাঁড়াবে
বিজিবি
রেস্তোরাঁয়
কার্য
দাঁতের
সাভার
তীর
ঘরবাড়ি
বিবাহিত
পুরস্কারে
লেফটেন্যান্ট
গিগাবাইট
সংলগ্ন
নিয়মিতভাবে
সাতক্ষীরা
থাকাকালীন
জেলাটি
জিপিএ
##জার
পরামর্শক
পেলাম
চুলে
পঙ্গু
নেড়ে
##গঞ্জ
কামরুল
পলি
রুমের
রবীন্দ্র
নেননি
মোতাবেক
অজ্ঞাত
নকশায়
যাত্রীরা
গাছে
স্বাদমতো
নব্য
বমি
কোর্সে
হাইকোর্টে
প্রতিরোধের
পিষে
হিউম্যান
ইজ
দণ্ড
রেস্তোরাঁ
বিশ্বাসী
শামিল
শোনার
ওয়াটার
খরচে
পৌঁছেছে
জেতার
প্রতিবন্ধকতা
দাশ
হেলিকপ্টার
শপিং
দণ্ডিত
বামপন্থী
সৈনিক
উত্থাপন
শ্রীলঙ্কায়
রাফিয়া
ম্যাচটি
দিচ্ছি
রাশিয়ান
সাবান
যন্ত্রণা
করানোর
চাঁদের
জলে
কবর
শট
প্রতিভা
আশেপাশে
সাফ
##স্থ
—
কার্যকারিতা
উঠেছেন
##পার
মুদ্রার
অপরিবর্তিত
পর্যায়ক্রমে
ক্যানসারের
##লার
সুরে
কাতারে
স্পিন
ভিজিয়ে
জায়গার
পেজ
বিক্রেতা
আঘাতে
##কর্মস্থলে
নগরে
স্থলবন্দরে
মধুর
বিস্ময়কর
##ওয়ালা
হোসাইন
নিলাম
কু
বৃক্ষ
ওবামার
বিষক্রিয়া
পুরষ্কার
শর্করা
এনজিও
জৈন
কৌশলে
পেরেছিলেন
ক্ষয়
শাসকদের
জীবনযাপন
অমিতাভ
করবিন
আগপর্যন্ত
সম্পত্তির
নামার
কন্ট্রোল
ওয়ার্ল্ডের
এককভাবে
কমপ্লেক্স
পরিকল্পিত
্যাম
চেষ্টায়
অর্থভাগ্য
অপ্রয়োজনীয়
সংশোধনের
সমালোচকদের
করতাম
রুটে
বাহাদুর
##চালিত
বব
নির্মূল
শেখানো
লং
গানটির
মুশফিকুর
হানিফ
ফিলিপাইন
লোকজনকে
বৃষ্টিতে
##ওয়া
জিরো
প্রতিনিধিদের
ওয়ার
ভাগাভাগি
বরিশালের
বাল্যবিবাহ
স্ক্রিন
জীবাণু
সাতজন
প্রথাগত
একাত্তরের
উত্তরবঙ্গগামী
হাউসে
গ্রন্থাগার
বুলবুল
তাতেও
কোলে
কথার
মাসেই
পেরেছি
ফ্রান্সে
জানালে
উত্তরা
##সার
একাদশে
ফেলো
ভোটাররা
থাকল
আদেশে
চিকিৎসায়
ওয়ার্ল্ডে
হয়েছেমামলা
পূজার
##য়ার
সেহেতু
ওয়েস্টার্ন
টেলিফোন
শ্রেণীতে
গভীরভাবে
চুলা
আবিষ্কারের
##য
হাটের
মোড়ে
গেয়ে
##অ্যান্টিবায়োটিক
অন্যটি
দেরিতে
জোসেফ
তুলেছিল
ট্রাইব্যুনাল
##লাম
কেক
ঢোকার
জনসংযোগ
পিঠে
অবহেলা
মনগড়া
অবকাশ
ওয়াল
যাবার
হুয়াওয়ের
খ্যাত
প্রস্থ
জিরা
শতাংশই
রোমান্টিক
লেখায়
##চা
বিধানসভার
বহুতল
প্রচারণায়
দুজনেই
আগুনের
সমর্থ
##েল
ফুটবলে
##মায়ের
আশ্বস্ত
মালামাল
আইনকে
আওয়াজ
আরোহণ
কাট
ধাতু
সিম
ঐশীর
হ্যামস্ট্রিংয়ে
হাঁটা
বিদ্রোহীদের
##সমৃদ্ধ
বিচারপতির
ব্রোঞ্জ
ঐতিহ্যের
রেঁধে
দাফন
সর্বজনীন
পাড়া
রাবনা
মারিয়া
ব্রিটিশদের
চারটা
তাঁরাই
বৈশাখ
আস্থার
##ন্ত
পোস্টে
নিপীড়ন
কোপা
জঙ্গিবাদ
খোলার
মাস্টার্স
বউ
অর্জুন
পার্কের
কেরালা
টুর্নামেন্টের
তারকার
উঠিয়ে
ব্যক্তিগতভাবে
ভূমিকার
লাইব্রেরি
অত্যাচারিত
কমার
লেবু
সিলেটে
এলেঙ্গাতে
নেমেছে
##সম্পর্কিত
লু
দ্রুততম
তালেবান
আপাত
সড়কটি
ফেলবে
সংগঠনটি
টোকিও
প্রণব
নিচু
কাজল
মালা
শিশুটি
বাচ্চু
লাগল
উপাদানের
আটকা
রেলের
সুইজারল্যান্ড
ঈশ্বরের
সচেষ্ট
অটো
কাউন্টার
পোর্টের
প্যারিসে
শোচনীয়
খোদ
নেব
প্রফেসর
ইয়ান
মেটাতে
বিলটি
টিভিতে
অস্ট্রেলিয়ান
##ভাতা
##গে
আঘাতের
দুর্বৃত্তরা
অগ্নি
স্মার্টফোনে
##গি
উপদেশ
ঝুঁকিতে
বিভাজন
মিডিয়াম
রেললাইন
শুমারি
প্যাকেজ
উচ্চশিক্ষা
ছুটিতে
শোভাযাত্রা
যানবাহনের
বন্ধে
কোরীয়
প্রেক্ষিতে
ট্রেনিং
প্লাস্টিকের
##গ্রাম
সিঙ্গাপুরের
বার্সেলোনার
প্রতারণা
পরাজয়ের
বিদেশযাত্রা
অস্কার
পালনে
গ্রেড
কোর্টে
কর্মীর
ধরেছেন
দুর্ভাগ্যজনক
খাচ্ছে
টেন
কাউসার
এডওয়ার্ড
চার্চ
হিন্দুদের
ফিনালেতে
নেতাকে
জার্নাল
ফিল্মফেয়ার
ডানা
দূষিত
##চন্দ্র
হামলাকারী
পরিচর্যা
সবকিছুই
##জিনো
##নিরীক্ষা
হাবিব
হোসেনকে
##রাম
যতক্ষণ
বার্ন
রিফাত
ফজলে
##ফাই
জীবনকে
যাইহোক
শীতকালীন
হারান
ভেজা
সিন্ডিকেট
লক্ষ্মীপুর
অনুরোধে
অ্যান
তালাক
চিন্তাভাবনা
সংস্কৃতিতে
রিভিউ
##প্রতিষ্ঠানে
সর্বকালের
ছাদে
সাইফ
ব্রাশ
কমই
বুদ্ধ
দুঃশাসন
চাষের
পৃষ্ঠা
ক্লাসে
চোপড়া
ফিলিপ
মূল্যবোধ
##কর্কট
কিছুতেই
উপত্যকা
তিনটার
ঘন্টা
দ্বিধা
গ্রুপে
বন্ধুরা
একান্ত
শিক্ষাবিদ
কোরবানির
তরুণের
চিন্তায়
পুতিনের
বিজেপিকে
সুনামগঞ্জের
ইয়াং
##প্রক্রিয়া
আরিফ
##প্রতিযোগিতার
কাণ্ড
ভাবছেন
সন্ত্রাসীদের
রঙে
অস্বীকৃতি
স্কয়ার
অটোরিকশা
সেমিফাইনালে
প্রয়াস
কনটেন্ট
তেমনই
মিলিমিটার
##মীন
ইউটিউবে
##েট
ক্যালরি
##ভার
বিএনপিকে
ধর্মনিরপেক্ষ
বিস্ময়
প্রাসাদ
ইয়ার
অনুপস্থিতিতে
আবহাওয়ার
স্ট্রোক
শাহরিয়ার
প্রকাশক
রোদ
আশির
পড়ানো
মানবসম্পদ
নিউইয়র্কে
অসামান্য
লড়তে
সদস্যকে
##তুলা
সংঘাতে
ভুক্তভোগী
জানালা
তারিক
শাড়ির
পঞ্চগড়
রোদে
আহম্মেদ
সংগীতের
চত্বরে
ডাইনিং
##বল
বর্গকিলোমিটার
গিয়েছিলাম
ফেটে
আত্ম
ভোক্তা
ব্রডকাস্টার
শুয়ে
শিল্পীরা
##দেশের
জেরে
মহলে
পিস
হেলথ
কারো
##পাকিস্তান
কোনোমতেই
ফ্লোরিয়া
সমীকরণ
আমের
ভ্যানেসা
কদর
##লেন
ধোঁয়া
মুকুটটি
কাটতে
পর্তুগিজ
পুতুল
লাভজনক
শেয়ারবাজার
ওপরই
ছাড়ে
ভাঙার
বলিউডে
হবিগঞ্জ
মতবাদ
ব্যাংকগুলোর
সুখী
স্বাস্থ্যকর
এলাকাবাসী
##বাংলাদেশের
মাথাব্যথা
দেখিয়েছে
বার্লিন
সংস্করণের
পোড়া
বিরাজমান
গ্রেনেড
শহুরে
রাশিয়ায়
ডটকম
মিশরের
পূরণের
খুদে
সৌর
সেটিও
##নজিবা
সেনাবাহিনীতে
##ধনু
বাঁশ
ডিফেন্স
##কী
দেশজুড়ে
ঝুলিয়ে
আমিরাত
এবারে
##প্রাপ্ত
লঞ্চ
জোগাড়
দূত
বাংলাদেশিদের
যতটুকু
পুলিশে
শাহীন
প্রিয়জনের
নদীটির
সরকারে
কণা
একাডেমী
নৌকার
##নিয়ন্ত্রিত
বরগুনা
শাহজাহান
অন্তর
প্রশ্নটি
পপ
কমেডি
দৃষ্টিতে
এরূপ
পন্সে
পড়েনি
##ড়া
দার্জিলিং
কনটেইনার
টমাস
কবলে
ফলাফলের
নবীন
##েহলি
স্বেচ্ছাসেবী
সংগঠনটির
##রাই
সাকিবের
শেষদিকে
সচরাচর
##সমর্থিত
##কুম্ভ
হিরো
উঠেছিলেন
কালের
ঘড়ি
ধসে
দেহে
হার্ড
##ফাইনালিস্টদের
##স্রেফ
বসবাসের
বিউটি
প্রত্যন্ত
আলেকজান্ডার
মনিরুল
দিলাম
ডিপ্লোমা
ভিক্ষুকের
পাইরেস
দায়িত্বপ্রাপ্ত
দাঙ্গা
মাতার
##ত্ব
মিশর
পেশার
সিরাজুল
কাস্টমসে
পাল্লা
জঙ্গিরা
গাজীপুরের
আকাঙ্ক্ষা
আইডি
সিসি
কোয়ার্টার
মোরলি
##পূর্বে
ছাপিয়ে
##নাথ
লঙ্ঘনের
কতিপয়
অ্যারেনাতে
অ্যাপের
ব্যালট
দেখেছে
##েবাজে
ব্যয়বহুল
এডিস
পড়ি
মদিনা
যাননি
ছাড়পত্র
বিল্ডিং
প্রতিস্থাপন
কর্মচারীদের
জেড
নির্বাচনেও
মেটাল
সেবন
বারের
অন্তর্ভূক্ত
যন্ত্রাংশ
ফোরামের
চল
বাড়িটি
ইলিয়াস
করেনমিস
উইমেন
কাশ্মীরে
সন্ত্রাসবাদ
##ডাউকি
রান্নাটা
গম
##ার্স
উপরন্তু
কমান্ড
পতিত
রিট
##মকর
গুটিয়ে
মিনি
লাগা
জাহাজে
ফোনটি
##সেন
খবরটি
মিলেছে
যোদ্ধা
লোকসভার
##সম্পন্ন
দুনিয়ায়
উয়েফা
রবীন্দ্রনাথের
##আমার
শেয়ারবাজারে
অনন্ত
##দোকানপাট
##বৃশ্চিক
কান্ট্রি
চাইছি
আম্পায়ার
বর্ষ
অবিশ্বাস্য
ওল্ড
গায়িকা
দাঁড়ানোর
তোরসার
স্বজনদের
ক্রমশ
নির্মম
##ষি
ভাইরাল
দিলেই
##রো
সেক্টর
মালিকের
লাফালাফি
রিং
##মতে
পাইনি
পাচারের
সেলসিয়াস
নিউমার্কেট
সভ্যতা
নিষ্ক্রিয়
কোমল
ইবন
বাধাগ্রস্ত
উপমহাদেশে
রায়হান
##দিন
দিলীপ
ষোড়শ
ঘুরিয়ে
কাঁটা
##ৎ
বুয়েটের
বানান
কেয়ার
অঙ্গরাজ্যের
##গান
সুষ্ঠুভাবে
স্পেশাল
ইনস্টাগ্রামে
তামাক
প্রীতি
কুয়েত
##ব্জাং
বটেই
চারা
চেয়ারম্যানের
ছড়ানো
লেজ
সেক্রেটারি
সংকুচিত
সেনাপতি
আইওএস
আত্মীয়ের
জরিপের
প্রচেষ্টায়
##নী
মুহূর্ত
ভিন্নমত
সেমিনারে
##প্র
দুশ্চিন্তায়
তামাবিলে
ভ্লাদিমির
বিনাশ্রম
প্রতিশোধ
জীবনী
প্রাণের
দর্শকেরা
সোর্স
একীভূত
মুম্বাইয়ের
মু
হেরেছে
মানববন্ধন
সারির
ধৈর্য
গোল্ড
লিপিবদ্ধ
কেরানীগঞ্জ
মন্টু
মারার
পুরোটাই
যুবকের
অকার্যকর
গাইড
নদীটি
বচ্চন
পেটের
নিখুঁত
বিশ্বব্যাংক
এতিমের
নাগরিকেরা
বুদ্ধি
সমূহ
পুলিশি
অক্ষর
থাক
কাম্য
বংশের
পরিচয়পত্র
হিমশিম
প্রসাদ
নেটওয়ার্কের
যান্ত্রিক
সালাউদ্দিন
চামড়ার
আন্ত
তাগিদ
টেক্সটাইল
মহড়া
আয়ারল্যান্ডের
অনৈতিক
সকালের
লোকসান
হাইকমিশনার
চেনা
ভর্তুকি
অভিমত
প্রদাহ
খনি
খরচের
গ্রাহকেরা
সংবেদনশীল
রাখলেন
সাই
উইথ
ফার্সি
সুরক্ষার
ইউরোপিয়ান
রোজার
ব্রাউন
নীলফামারী
কর্তব্যরত
সোনিয়া
সাত্তার
প্রসিদ্ধ
ওদিকে
মিসরের
একটানা
দূরত্বে
গ্রহের
মহাসাগরীয়
জ্বরে
জিম্বাবুয়ে
কার্ডের
নিপীড়নের
সম্ভাবনার
মুসা
সেনের
প্রিন্ট
নিষেধাজ্ঞার
ক্যালসিয়াম
সেমিনার
পর্ষদের
পরিহার
হোলি
বেসিক
সংগ্রামের
হরমোন
বিএ
জাত
প্রস্তাবের
লোহার
স্থলাভিষিক্ত
দোসররা
বন্যায়
অয়েল
জনবল
পরিকল্পনায়
ঘাটে
ক্রস
আদলে
কমিশনকে
অনূদিত
পারিশ্রমিক
রওশন
যেতেন
রোনালদো
ফেব্রুয়ারী
বিরোধীদলীয়
আয়তনের
লাইক
##তায়
কান্না
ব্যাটিংয়ের
বিদ্রোহের
ভালোবাসি
মকর
বেগমের
অবসরে
সিঙ্গাপুরে
##শা
ভাবেন
গ্রহণযোগ্যতা
সঙ্গীতের
স্টোর
মক্কা
কৌতুক
অভিভাবকদের
গোত্র
বকর
অন্ধ
কুকুর
রাই
নব্বইয়ে
রাজস্থান
কুসুম
ব্যত্যয়
আক্রমণাত্মক
দেশব্যাপী
সৈন্যদের
রাজবংশ
অংশগ্রহণে
আমল
##দ্বাং
পড়ালেখা
রেহাই
বিল্ডার্সের
খেলছে
সিয়াম
এনডিটিভি
ধনু
ইনফরমেশন
শি
উসকে
গোপাল
শিক্ষার্থীকে
সরকারিভাবে
স্পিনারদের
বাহিনীতে
মধ্যপ্রাচ্যে
বহুজাতিক
মোদিকে
শাসনামলকে
জব্বার
অনুধাবন
স্বরূপ
ভূমির
জিম্মি
দৌড়
সদস্যপদ
সোসাইটির
প্রকাশ্য
যেমনঃ
চিত্রশিল্পী
লুক
সংকলন
এক্সচেঞ্জ
চেন্নাই
সমুদ্রে
সহপাঠী
মারুফ
##্র
চাইবে
সমাজবিজ্ঞান
বসেছে
ল্যাব
##লিন
শস্য
লুৎফুল
দিয়েও
উগ্র
ঝগড়া
সমকামী
রোগীকে
পেনশন
তিব্বত
কাগজের
##য়ান
রাসুলুল্লাহ
মস্তিষ্ক
ঐক্যফ্রন্টের
প্লাজা
পাকিস্তানী
রামপাল
ভালোভাবেই
দ্বীপপুঞ্জ
পুনরুদ্ধার
মালয়েশিয়ায়
পাঁচজনের
ধানমন্ডি
আনসার
গার্ডিয়ান
সুযোগে
ধর্মে
আজম
শীতে
বাগেরহাট
পার্টিতে
বাসস্থান
শওকত
প্রতিক্রিয়ায়
##বোধ
প্
রাণী
সিরাজগঞ্জ
ইমতিয়া
ছাত্রছাত্রীদের
সাংবাদিকেরা
কুম্ভ
##শীল
ঐতিহাসিকভাবে
সংশোধিত
##কজিল
জনবহুল
গভীরতা
তীর্থ
ধরুন
মেসির
রয়্যালসের
আকস্মিক
কুপিয়ে
বিঘা
আলোকচিত্র
দমনে
প্রতিফলিত
##আই
মানুষই
অপচয়
বোর্ডে
ইস্টার্ন
সিনহা
ফাঁকি
সিলিন্ডার
জহির
##টু
ফ্রন্ট
সবজির
গল্পে
সাহসিকতার
নিয়মে
বিশেষায়িত
বিন্যাস
উইজডেন
খেলাটি
অ্যাশেজ
বাধ্যবাধকতা
অনু
আনন্দে
সমাধি
বিষ্ণু
খালের
বললেও
গণরুম
দাতব্য
চরিত্রটি
টিকিয়ে
একটাই
সংঘাতের
আরাম
জিডিপির
প্রশ্নটা
প্রামাণ্য
##এন
মিমি
প্রতিবেদক
উত্তরাধিকার
বহুমুখী
অচল
পাঞ্জাবের
বেআইনি
বঙ্গ
ব্যাংককে
সীমাবদ্ধতা
অধুনা
ভোটকেন্দ্রে
উত্তপ্ত
এএফপির
আয়রন
##গু
গার্ড
শিক্ষামন্ত্রী
অধিষ্ঠিত
ডাচ
থাকব
প্রতিবেদনটি
##গার
প্রাণহানি
বিয়েতে
কংগ্রেসে
##বাছাই
বইছে
ফোর্স
আকরাম
জাতিকে
বাতি
নিবেদন
ব্যয়ের
মাতৃভাষা
একেকটি
খুলনার
বিস্ফোরক
সর্বোপরি
কোম্পানিগুলো
নাজিম
আলামত
হালিম
বদলাতে
জায়গাটা
ফাইভ
চর্চার
##জাত
বাতাসের
ত
অশোক
ধরেছে
টিকা
নাট্যকার
হাম
লেখালেখি
উদ্যোক্তারা
স্থল
ট্যাবলেট
লিংক
দিনগুলোতে
রূপা
বণ্টন
অগ্রাহ্য
ব্যানারে
ষাটের
ক্যাম্পাসের
বন্দুক
প্রণয়নের
কাপালি
পুনর্বাসন
প্রদর্শনীতে
ডেল
মানবতার
দুলাল
একত্র
লাখের
মসজিদটি
##মু
প্রাঙ্গণে
অনিশ্চিত
ফয়সাল
এজন্য
দূতাবাসের
শিখ
উনিশ
##গাঁও
হুমায়ূন
সকলের
হয়েই
##খালী
পুণরা
গোড়ার
হাসানের
হাইড্রোজেন
আটলান্টিক
রচনার
নেইমার
##নবিংশ
পূরণে
টাকাপয়সা
##টে
কানের
রাইফেল
এলেও
ফর্ম
লিভারপুল
বড়ুয়া
ক্লিনটন
সতীর্থ
হাঁস
মানচিত্র
অযৌক্তিক
মহকুমা
থাকছেন
পারলেন
আকাশের
শ্বাসকষ্ট
##চট্টগ্রাম
শিশুটিকে
বারো
কক্সবাজারে
সর্ববৃহৎ
মেষ
হি
ফিকে
পর্ষদ
বইটির
ঝাঁপিয়ে
সজ্জিত
প্রাপ্য
সুতি
ব্যাকটেরিয়া
স্ট্রাইকার
রেলওয়ের
দারুচিনি
দ্বিতীয়বারের
চ
অধিবাসী
কোম্পানিটির
জোয়ার
এমনটি
ঠাকুরের
পরিবেশগত
##বিদ
শোষণ
অনিশ্চয়তা
পারদর্শী
খোসা
মেগাওয়াট
ডাব্লিউডাব্লিউই
মের
নিম্নলিখিত
উপকৃত
খাগড়াছড়ি
ভাইকে
কোর্সের
পটিয়া
পাড়
ডাইনিংয়ে
আনবে
##বান
আগ্রহের
হিলারির
ক্যারিয়ারের
##োর
মনোযোগী
যোগদানের
অনুকূল
ভূমিকম্পের
সমাপনী
রুপির
সৈয়দপুর
বিপর্যস্ত
সিঁড়ি
দুইজন
লোভ
একতরফা
##ইয়া
ড্রোন
দ্বিতীয়বার
ম্যাচটা
আত্মা
গণের
আঁকড়ে
##ফি
উত্তরাধিকারী
বিশৃঙ্খলা
রুল
যোগ্যতার
সাদ
অদৃশ্য
ব্রাহ্মণ
ফাঁদে
মীন
পরোয়ানা
চ্যালেঞ্জের
শয্যা
সরব
সুজন
বন্দুকযুদ্ধে
মৌলভীবাজার
##তাই
তর্ক
বাঘের
##কোনো
সংবাদপত্রের
##স্টার
সীমান্তবর্তী
কালচে
দুবাই
পাবনার
সর্বসম্মতিক্রমে
##ফেরত
আমরাও
ফেনীর
উদযাপন
উভয়েই
মল
তারকাদের
যখনই
টেক
খ্রিস্টাব্দে
জ্বলে
ডাবল
অধীনস্থ
মধ্যযুগীয়
হাওর
##্যাল
ফজলুর
রাইটস
ইফতার
উইকিপিডিয়া
##আপ
আসাদ
##িকা
আলোক
সম্পাদন
চমকে
শোতে
এডুকেশন
বাঁশের
গিটার
ময়মনসিংহের
দিনেই
রব
##ডে
ভান্ডার
প্রক্টর
ডেলিভারি
লেখকের
ভাবি
মাজার
নিকটে
পারস্য
অনার্স
পরস্পর
ফ্রিজে
আবেদনে
শহিদুল
একাদশের
বিধানসভায়
মেয়াদি
পরার
রামকৃষ্ণ
অসুস্থতা
সেটার
##সংখ্যক
##সূত্র
হ্যামলেটস
বাড়িঘর
গুলির
##বান্ধব
খুলতে
সন্ধানে
রানও
সংগৃহীত
দৃষ্টিকোণ
পরোক্ষ
শিথিল
হ্যাক
রফিক
বর্ধন
নেপালে
করুণ
নিঃসরণ
প্রতিদিনের
সম্প্রসারিত
মারতে
##হার
নকিয়া
রবিউল
পর্যবেক্ষক
পাশ্চাত্য
রাজনৈতিকভাবে
দেহাবসান
ইংরেজী
মিলছে
জাকের
ফ্রাঙ্ক
চাঁদাবাজি
ভিপি
ভিতরে
ছিনিয়ে
পরি
জালাল
আইরিশ
ভেজাল
নিচ
দরজায়
##ভারতের
বাঁচিয়ে
কাশি
আরেকটু
মৌল
উল্লেখিত
মাইলফলক
আরোপের
সংস্পর্শে
সরদার
স্বর্ণপদক
ক্রিকেটারের
জমজমাট
সমালোচিত
লেভেল
ইরাকে
পরিবর্তনসহ
ভীতি
বিপর্যয়ের
কালি
নির্ধারণের
আন্তর্জাতিকভাবে
ভৈরব
মহলের
জুলাইয়ে
##এদিকে
স্যামসাংয়ের
পালক
সিল
জীবিকা
খাদ্যের
পন্থা
প্লট
ত্রিপুরার
মাদকের
সিল্ক
মোহন
ছোপ
ছোটবেলায়
পেন
ট্রাকে
অনুমোদনের
পড়ায়
ইলেকট্রনিকস
এলাকাটি
রমনার
পাপ
প্রাসঙ্গিক
হলিউডের
খেজুর
##জো
##্ড
চুলায়
শিক্ষালাভ
রয়টার্সের
আলাউদ্দিন
##মার্কিন
সময়কাল
সিডনি
বিমা
সুভাষ
বিদায়ী
পৃষ্ঠপোষক
মোটর
থিম
অমান্য
দাঁড়ান
হাটহাজারী
সিংহভাগ
বকেয়া
ব্রহ্মপুত্র
সংস্থাগুলো
##উন
আসত
কট্টর
সম্মতিতে
ভোগান্তি
পেত
তদারকি
বস্তুত
নগরীর
নির্দেশিকা
পরিবেশনার
স্বামীকে
মসৃণ
বাণিজ্যিকভাবে
লজ্জা
বেড়া
সহিদুল
##দ্গা
মারুফের
ফন
ঘা
গ্রহণে
ভিশন
গাইবান্ধা
সুনীল
মিশরীয়
পিস্তল
মুর্তজা
ছড়ায়
রানার
দেখাশোনা
আঁচে
প্রাপ্তি
ভাবেই
নে
প্রকোপ
গন্তব্য
স্থিতিশীলতা
পুনর্গঠন
উদ্দিনের
##বিদ্যা
ওয়ালটন
কনভেনশন
##কান
বালি
বন্ধনে
ব্রেক
ব্যাটসম্যানদের
অনিচ্ছুক
উচ্চারিত
উল্টে
ভূগর্ভস্থ
ঘরানার
এনেছেন
মতিউর
ময়মনসিংহে
##ুন
গি
বেল্ট
নামাজের
ক্লান্ত
অগ্নিকাণ্ডের
কাল্পনিক
নাহিদ
ঘটা
পরিবেশিত
এমএ
ছেলেমেয়েদের
খাজা
দেয়ালের
নয়টার
চোর
উপত্যকায়
নাতি
দেওয়ান
পাসের
মণ
ঘাস
বিশ্বাসযোগ্য
চিন্তিত
সম্পূর্ণভাবে
বো
একাংশ
##দান
অস্বস্তি
লঙ্কান
ওঠেনি
পেতেন
আর্টস
##তলা
##গতকাল
খেলবে
দুঃখের
কুশলী
অর্ধেকের
সূক্ষ্ম
সুগন্ধি
বাঙালিদের
গর্ত
নগরী
ছোটো
সিটিতে
বিমানে
সর্বাপেক্ষা
আচার্য
লুট
নিষ্ঠুর
##িতে
শুটিংয়ের
##নতুন
কিছুর
কবীর
চেতনার
কারাবাস
গজ
ট্যাব
অভিনব
গোবিন্দ
দো
গোলরক্ষক
আটটার
সংস্থাগুলোর
স্টিল
অনানুষ্ঠানিক
মার্কেটিং
রেসিপি
বাসভবনে
ঝুঁকে
পরিলক্ষিত
আখতারুজ্জামান
বিনোদনের
পোপ
##রু
চললে
সিংহাসনে
মোয়াজ্জেম
ধারণাটি
ওপরও
কাঁচামাল
##ভর্তি
রুমকে
হার্ভার্ড
##ল্দান
মরিয়া
মিডফিল্ডার
সংসারে
অভিনয়ে
ক্রমান্বয়ে
পুরোটা
নূরুল
আসেননি
পারভীন
সোহাগ
বান্দরবান
সবকিছুর
চেষ্টার
চড়া
নওগাঁ
জিজ্ঞাসাবাদে
হজম
কাপুরের
খোকন
লালমনিরহাট
নিউইয়র্কের
বাছাইপর্ব
শিষ্য
সাহায্যের
কক্ষের
##ধর্মী
করাটা
ঘুমাতে
এসিড
ধারালো
দুটোই
মালেক
সাতটায়
উৎসাহী
পিসি
তন্ত্র
গাইতে
গির্জা
বেগুনি
ঘটনাপ্রবাহে
ছাই
পরীক্ষামূলক
সন্ত্রাসের
উদ্ধৃতি
সততা
দ
নোংরা
##ক্স
মৌসুমি
প্রাণীদের
ফু
সনাতন
শুকনা
##এখন
##গড়
মুহিত
প্রধানমন্ত্রীকে
প্যান
প্রতিনিধিদল
পাঠকদের
অণু
রহিমের
সময়কার
আবশ্যক
দেশই
বিবি
নাহার
##িয়
ইমান
মৃদু
দ্বি
লাখো
উপদ্বীপ
গয়েশ্বর
আড়াল
মনিটর
রাজশাহীতে
এখতিয়ার
শাকসবজি
ঝোড়ো
এফডিআর
আয়োজকেরা
রেজিস্ট্রার
ক্রম
বৈষম্যের
মন্তব্যের
সামগ্রিকভাবে
কাচের
অক্ষয়
হেসে
্যা
##জু
উচ্চতার
রয়েল
রঞ্জন
ডিভিশন
ফিলিস্তিন
শিলা
লতা
সুন্নি
খেলোয়াড়েরা
কপালে
গাজর
সংগ্রহে
মেয়াদের
গোড়া
পরিধান
কর্কট
অজয়
জনতার
পারায়
প্রদীপ
মুখার্জি
ভুটানের
উপগ্রহ
খানম
ভ্রমণে
বিষয়টিও
গোস্বামী
হরিণ
বাড়েনি
মাইক্রো
লাঠি
##ব্যবস্থার
মোঃ
লিস্ট
আমাজন
ফলন
এতেই
চে
আসছিলেন
ভোটারের
তামিমের
স্তম্ভ
ম্যাট
রেটিং
##টিও
বৃশ্চিক
ষ্ঠ
রক্তাক্ত
বিলম্ব
ফারজানা
ইঞ্জিনিয়ার
রায়ান
অনুগত
অনিল
পিরোজপুর
খাটো
সোনাগাজী
সেচ
##স্বয়ংক্রিয়ভাবে
বহুদিন
তীব্রতা
বিকাশে
খেলাতে
ফান্ড
ইরাকি
আন্তঃ
বিক্রিয়া
জীবনযাপনের
উদ্ধৃত
অপমান
জিনিসপত্র
বাণিজ্যে
কিউ
চারবার
##পে
সন্তানেরা
লোককে
জাম
মিলান
জালে
চায়না
ব্রায়ান
কাটানোর
সুশীল
সমবায়
কার্তিক
##লেস
প্রকারের
বাঁহাতি
বনানী
আণবিক
মৌসুমী
ব্রিটিশরা
অনশন
রাইট
ফসলের
লুই
ইস্পাত
ময়দানে
বইতে
গেয়েছেন
সম্পূর্ণরূপে
উমর
ব্যাখ্যায়
ভেবেছিলেন
ডেথ
পৃষ্ঠপোষকতা
জসীম
সর্বভারতীয়
সার্জন
পারতাম
মানবতাবিরোধী
রাকিবুল
লোকসংখ্যা
আপস
ইরানি
হস্তক্ষেপের
প্রজাতিটি
চকবাজার
গন্তব্যে
##তন
গৃহ
এজেন্সি
বিশ্বমানের
সোহরাব
নখ
গতিশীল
সিবিআই
উইল
বিচরণ
হাসিমুখে
বৌদ্ধবিহারের
চিনির
ভাসমান
সামলাতে
অনুমতির
প্রশিক্ষক
পরেন
ধন
গেরিলা
মুহূর্তের
বিচ্ছেদের
বংশ
নাসিম
শাসিত
ডেঙ্গুতে
স্টিফেন
যশোরের
##বাসী
প্রভাষক
নিরীক্ষা
পদার্থবিজ্ঞান
তোফায়েল
প্লাটুন
সস্তা
##উর
কার্টুন
##ছোস
মজবুত
বড়ি
কনসার্ট
পশ্চিমের
বিপদের
প্যাসিফিক
আসবাব
সিনেট
অপূর্ব
তরফ
সবসময়
ঢেউ
টাইগার
ওয়ার্নার
সিরিয়াল
জনসনের
হাতিয়ে
র্থ
##রূপ
কতগুলো
##টো
##ওয়ান
উদ্বেগজনক
এরদোয়ান
অবগত
প্রবেশাধিকার
বৈশিষ্ট্যের
পরবর্তিতে
##্ট
পৃষ্ঠ
অ্যালবামের
আন্দ্রে
মাগুরা
বারবারই
##ঙ্গা
দায়রা
পরিধি
সার্ভিসেস
আদর্শের
স্বত্ব
##মন
প্যাকেট
মুশকিল
##রাজশাহী
##ঘর
মানুষে
গাড়িটি
নিতেন
সেতুটি
হাঁটার
জ্বালিয়ে
বয়সেই
দাঁড়ানো
মুসলিমরা
গায়ের
রাখছেন
বোকা
##দে
পরিত্যাগ
পাঠকের
ড্রাইভ
রেট
ঢাল
জখম
রড
সমীক্ষায়
রোম
লাফ
##ঘাট
জীবন্ত
সমন্বয়ক
অনুসন্ধানের
সেসময়
নাচের
টাই
অর্থায়নে
ছাগল
কুর্দি
কুল
গম্বুজ
গোলাপ
জাতিকা
বসেই
ফেলছে
ছেলেমেয়েরা
মহাবিশ্বের
কাচ
আয়ু
ডোমেইন
সম্প্রীতি
রাজু
কেলেঙ্কারির
ভাট
ভাবার
পাঠিয়েছেন
এঁরা
খাসোগি
কোম্পানিটি
আরামদায়ক
শোধ
লুৎফর
জলপাই
দুর্গা
মিছিলে
করিয়েছেন
প্রথমদিকে
সাশ্রয়ী
ডিএসইতে
যাদব
স্বাভাবিকভাবে
গুদাম
কাপড়ে
উদ্ভিদের
স্বজনেরা
বাকী
কেটেছে
সম্পূরক
লিখেন
বাঁধের
অনুষঙ্গ
##দু
ইন্সটিটিউট
ভিয়েতনামের
বাকিদের
জিনস
আমিরাতের
জাহাজটি
ধারনা
কারাগারের
ফক্স
কৃতজ্ঞতা
ক্রু
হান
নির্দেশক
সন্দেহে
পড়ছেন
এইভাবে
ইজারা
ছিনতাই
সাংসদদের
চক
##ল্যান্ড
মামা
ম্যাক্স
ধাঁচের
ভোলার
পৈতৃক
দোষারোপ
সাংবাদিকতার
##িস্ট
হার্ডওয়্যার
উদ্যোগী
গভীরে
বিবর্তন
লক্ষ্মী
গ্রামীণফোন
লাশের
খাবেন
চূড়ান্তভাবে
ঘাড়ে
ওপেনিং
বাহুল্য
তাতেই
ধীর
শিকড়
##পন্থী
ব্যাকরণ
মূলধারার
বাস্তবতার
যুগোপযোগী
ইইউর
##ধারী
তানভীর
রশ্মি
গুড়
অসুস্থতার
ডায়েরি
উপার্জন
হেলাল
হয়েও
গলার
মহানগরের
##েশ্বর
বস্তা
গেলেই
কোনটি
পরিচ্ছন্ন
পিঠা
নতুনভাবে
বছরগুলোতে
মল্লিক
শত্রুর
ছাত্রীর
ডাকসুর
হুসেইন
ব্যাংকটি
##সেই
কোল
ঝিনাইদহ
দেখেই
##হি
দিবাগ
তালগাছট
বন্দরটি
মহাব্যবস্থাপক
আবাস
ট্যাংক
জনশক্তি
##দল
টহল
রাও
প্রণোদনা
যথার্থ
##খা
সমর্থিত
মোজাম্মেল
কৌশলের
সত্যজিৎ
ল্যাটিন
ধ্যান
##লী
দেখিনি
বিস্তারের
অপহরণের
নাড়া
রোহিত
একটিতে
খেলেছে
বাউল
সম্মানজনক
বিড়াল
গানগুলো
মনোনিবেশ
ইন্ডিয়ার
##জের
গে
সার্কিট
বোতাম
বিজ্ঞানীদের
দশা
মিউনিখ
সম্মানে
গর্ব
পদস্থ
অগ্রগতির
ওয়াসার
##বিদেশে
নেমেছিলেন
মহাসাগর
প্রতিযোগিতামূলক
মেমোরি
##এস
রতন
##এবং
বাণিজ্যমন্ত্রী
থাকাকালে
দ্রুতই
সৌরভ
বু
সার্বভৌম
খায়রুল
সেবায়
প্রত্যেকটি
বিটিআরসি
পেজে
ফকির
বসানোর
দোতলা
পছন্দমতো
অন্ধকারে
কয়েকটা
সুতা
শরিফের
বোরো
শ্রীপুর
মন্ত্র
মাদ্রাসায়
বসবাসরত
গর্ভবতী
##ারি
ব্যবহারিক
দৈর্ঘ্যের
কোম্পানিতে
রপ্তানিতে
হারিয়েছেন
পেট্রোলিয়াম
পৌরাণিক
##হে
মাদ্রাসাশিক্ষক
যোগসূত্র
তলব
দ্বিজাতিতত্ত্ব
গুনতে
বিভ্রান্ত
শ্যাম্পু
খোঁজার
পাগল
ফরাসী
হাফ
আলোকিত
সাপোর্ট
মার্কেটে
ট্রাকের
অন্যথায়
দীর্ঘসময়
নেওয়ায়
জামা
ইতি
দানা
আচরণে
দেখব
আত্মার
প্রতারণার
দিয়া
শামীমা
তাজা
##কেন্দ্রের
কিস্তি
রাইড
চাওয়ার
##বু
বালক
স্কেল
ফেরা
এলেঙ্গায়
অস্পষ্ট
##লু
দশটি
মাহবুবে
ক্লাউড
তঁাদের
বরিশালে
কেলেঙ্কারি
বণিক
মেয়েটিকে
##টেক
কিছুসংখ্যক
নাশতা
উল্লাস
সর্বদা
ব্রিগেডিয়ার
ফিলিস্তিনের
##াই
মূলকাটা
কলার
শিবের
বিস্ফোরণে
বৌদ্ধধর্মের
প্রাচীর
অন্তঃসত্ত্বা
এজ
কাটান
উপস্থাপক
ইয়াহিয়া
ফ্যান
অনুষ্ঠেয়
বর্ডার
##দক্ষিণ
প্ল্যাটফর্মে
রাজনীতিকেরা
হাতেই
উৎপাদনকারী
অভ্যুত্থানের
অত্যাধুনিক
মিউচুয়াল
##মের
জ্যোতির্বিজ্ঞান
কোমর
অর্থপ্রাপ্তির
স্টাডিজ
ক্যান্সার
গোলটেবিল
বৈষ্ণব
উদ্ভাবনী
নিয়মকানুন
দয়া
থামিয়ে
অবস্থানরত
বিভেদ
মিডিয়ার
ফা
সাংসদেরা
স্ট্যাটাস
দেখলেন
বাসভবন
পরিপন্থী
অধ্যয়নের
তুরস্কে
সুবিধাজনক
কর্পোরেশনের
বাছাইপর্বে
শব্দে
রইল
##িয়াল
বিজিএমইএর
হিমালয়
জুয়া
ডিএসইএক্স
মঠ
##তারা
কলম
বলেনএর
সমাজকে
ইতিহাসবিদ
ট্যাগ
আইফোনের
বিলবোর্ড
##ডো
বিমানবন্দরটি
স্টোরেজ
##পত্র
পাঠিয়েছে
ধরণের
জমকালো
ক্যাশ
শেল
নেট
রাউন্ড
মানসম্মত
জাদুঘরের
অপরকে
প্যাক
জনগণনা
শান্তিতে
সেভাবেই
অভিষিক্ত
রেমিট্যান্স
অক্সিজেনের
মুকুল
ছড়া
বিভিন্নভাবে
এএফসি
বেসরকারী
খ্যাতনামা
আবর্জনা
মহাত্মা
সেনগুপ্ত
তলিয়ে
পকেট
ফার
নাজুক
মোগল
মহাসাগরের
উত্তরসূরি
হানা
তাৎপর্য
চড়াও
##প্রশাসন
কালী
সজীব
নৌবাহিনী
একটিমাত্র
##কুল
জুটিতে
অঙ্গীকারের
সৈন্যরা
আস
বিরোধীরা
তরফে
##বারের
অভিনেতার
##একজন
আচরণবিধি
##খুন
উদীয়মান
ডাকাত
##রাত
##ম্
নাম্বার
রমজানের
অসন্তোষ
জাগিয়ে
সমবেত
জানাচ্ছি
খানেক
##নু
খ্রিস্টীয়
সালোয়ার
ফটক
বিবরণী
সাহেবের
##জান
সংলাপের
তাক
হকি
স্পর্শকাতর
স্তন
##ুয়া
মিথুন
সমাহিত
সদরের
আবৃত্তি
প্রত্যাবর্তন
তাপমাত্রায়
মাল্টিমিডিয়া
ক্ষুণ্ন
পেয়েও
পণ্যে
যুদ্ধবিমান
খাপ
চিত্রিত
ব্লগ
নম্বরের
ধারাবাহিকে
রক্তক্ষরণ
দিবা
নৃশংস
শিবিরের
জেন
প্রতিবাদের
বংশধর
সো
শীল
ধাক্কায়
উপন্যাসটি
শিরোনামের
অপরিচিত
##সংকটের
##শিক্ষা
রবিন
বাড়লে
রাজনীতিকদের
আসনটি
জেট
ঘোষণায়
ইলিশের
স্থানটি
জীবাশ্ম
লিঙ্গের
রিয়েলিটি
সম্পৃক্ততা
##প্রদান
তেজপাতা
ফলস্বরূপ
কীটনাশক
কভার
বাজারজাত
সংগঠক
লিনাক্স
চাইবেন
ধর্মসম্প্রদায়
পত্রিকাটি
##পুরুষের
##কারীরা
পটুয়াখালী
ইবাদত
ছিন্ন
শেরপুর
ফ্রান্সিস
ছাড়েন
এড়ানো
স্থলে
সিস্টেমে
ওয়েবসাইটের
ভয়েস
##িল
মুর
ঘৃণ্য
পড়াশুনা
একরকম
মণি
গুজরাট
হ্যায়
##য়ো
পু
উপজাতি
পিঠ
হিংসা
সংবর্ধনা
সানি
মহাদেশের
তেলেগু
বছরেই
হাতির
নীচে
ব্যাটসম্যানরা
পুল
মস্তিষ্কে
##দিনের
##তিনি
গুটি
ভিডিওটি
##দিয়া
আনাগোনা
সাংসদের
অরুণ
মিন
দরকারি
কাজকর্ম
লেন্স
বিবেচনার
শাস্ত্রীয়
প্রদানকারী
ধোনি
ইনস্টাগ্রাম
মিসর
##ব্য
কোরবানি
##লের
রেগে
চারপাশ
বন্দীদের
সিডি
নেদারল্যান্ডস
পৌঁছান
অরফানেজ
চব্বিশ
অনেকক্ষণ
নর
চিলি
সার্ক
ফিরছে
##সমূহে
রচয়িতা
ভার্চ্যুয়াল
সৈকত
##যোগাযোগপ্রযুক্তি
বেদনা
তথ্যপ্রযুক্তির
সুরাহা
সেক্টরের
স্রোত
বিচারকের
মাদ্রিদের
মালদ্বীপ
হুট
স্ট্রাইক
নড়াইল
সালাদ
মিলিটারি
হুঁশিয়ারি
ডজন
লাশটি
##ডার
কড়াকড়ি
জোরপূর্বক
গুছিয়ে
চিকেন
##সংযোগ
##কেন্দ্র
ব্যাটে
সেগুলি
পিএসজি
অস্তিত্বের
নার্স
ফাইবার
মানসম্পন্ন
কিছুদিনের
মেতে
প্রক্রিয়াটি
স্কটল্যান্ডের
প্রতিপক্ষকে
বিদেশিদের
##বিশেষ
অকেজো
অবস্থাতেই
বেতনের
প্রচেষ্টার
তারও
কুস্তি
সম্ভাবনাময়
নাথ
রাস্তাঘাট
খেলেছিলেন
হাজারীবাগ
ইলেকট্রন
ইনস্টল
প্রযুক্তিতে
ডক্টর
ফোনটির
কোহলির
সত্তা
অফার
বিশ্বকে
বোয়িং
ঠাকুরগাঁও
জাদুঘরে
প্রতিদান
বন্ধুত্বের
বুদ্ধের
গণপ্রজাতন্ত্রী
আলোতে
রাশি
বালা
বিলি
##্যা
খাড়া
ফাঁক
বাঁচানোর
কবিতায়
##গুলোও
লাক
টেকনিক্যাল
এরিক
ফ্রেঞ্চ
রূপালী
অত্যাচারের
ক্যান
শিক্ষাব্যবস্থা
কমিক
##েশন
বিলাসবহুল
পন্ডিত
বাংলাদেশেও
নন্দী
বিস্তৃতি
পর্যবেক্ষণের
মেগা
রাজউক
স্কট
পেস্ট
বিতাড়িত
শোয়েব
ভবিষ্যদ্বাণী
আঁশ
##সংবলিত
গার্ল
##শিল্প
মঞ্চের
পড়বেন
সমস্যাটি
তাহের
##পাড়ায়
মতপ্রকাশ
উইকেটশূন্য
দিতেই
গ্রাস
কুমারের
ছিটিয়ে
##এম
আজারবাইজান
বহিঃপ্রকাশ
এইসব
জঙ্গলে
মানায়
আলোকচিত্রী
প্রাইম
হার্ডডিস্ক
অধ্যুষিত
##চে
পিন
বসব
প্রেরণা
বেস্ট
নৌযান
কনফারেন্স
মানিকগঞ্জ
্য
অস্ত্রোপচারের
গীত
হলাম
সরকারপক্ষ
মনস্তাত্ত্বিক
নয়তো
ফটো
মেগাপিক্সেল
জ্যাকেট
সেনাবাহিনীকে
হত্যায়
সূত্রের
মুফতি
টুপি
জনসমক্ষে
নিছক
তাৎপর্যপূর্ণ
মাহমুদুল
কানাডায়
ক্লান্তি
গেমসের
উপস্থিতির
সাবধান
রূপরেখা
চেইন
পদাতিক
ঢাকনা
স্বায়ত্তশাসিত
মুম্বাইয়ে
গিয়েছেন
জাদু
আপলোড
কজন
সালমানের
মোকাবিলার
টেবিলের
ম্যাগাজিনের
সম্বোধন
রাজিয়া
বলেছিলাম
কমায়
বিশ্লেষণে
বিস্তর
দাবা
শখ
এখানেও
ডাকাতি
ক্যাডেট
ঘুমানোর
মতিঝিল
প্রযোজিত
মাশুল
ভিজে
বিনিয়োগকারী
সুখের
দুর্গম
তি
সেটিকে
থিয়েটারে
পোকা
লাহোর
কষ্টের
সার্জারি
ইরানে
পৌঁছানো
খুলনায়
##মেন
অক্ষম
অববাহিকা
হতাশার
বন্দোবস্ত
ফাটল
প্রামাণিক
ছেলেমেয়ে
শুদ্ধ
সংক্রমণের
ক্যাপ
মানানসই
প্রসব
এএফপি
অসমীয়া
ট্যাক্স
প্রশাসনকে
অপসারণের
চাঁপাইনবাবগঞ্জ
জানাচ্ছে
দাশগুপ্ত
কমল
গুড
সবশেষে
সহজলভ্য
সমতুল্য
ঝুলে
জীবনযাত্রার
মুখোশ
জোটে
প্রত্যয়
আর্থসামাজিক
পিপিপি
##করণের
চ্যাম্পিয়নশিপে
আক্ষরিক
খেলনা
সমর্থনের
তারপরে
মাউন্ট
কন
বিজ্ঞাপনের
পুর
ভয়ের
জলাবদ্ধতা
পরাস্ত
কতজন
চাইলেও
মাদার
লরি
##কলমে
হইচই
বাগানে
মেরিন
তুষার
শাকিল
পরিসর
সুইস
সাজানোর
সাভারে
একাধারে
কর্মশালা
আমলা
কারণেও
মোবাইলে
চত্বর
সিনেটর
মুরাদ
কোণঠাসা
কুক
পরিশোধের
লোকাল
কোণে
বিধবা
সন
চুয়াডাঙ্গা
সুইডেনের
বরাদ্দের
দ্বিমত
কেপলার
অনেকাংশে
শাক
সংকীর্ণ
গোপনীয়তা
##দুটি
বারডেম
দিকনির্দেশনা
ঐক্যের
রেলস্টেশন
যুক্তরাষ্ট্রকে
ঘটনাও
##াত
ঢুকিয়ে
নির্গত
ইউনিটে
বিলীন
যৌগ
ঝড়ের
মনি
কোষের
ওয়েন
বক্তারা
রিয়েল
আক্ষেপ
জুস
নিম্নমানের
সেটিই
পিক্সেল
জা
শেখা
যাত্রীকে
ফুটপাত
বেড়ায়
পার্থ
হট
এইচডি
ট্রলার
গুলশানের
##সো
প্রশিক্ষিত
পানামা
হ্রদের
দাঁড়াবেন
ডেস্কটপ
মোটরসাইকেলের
কপিল
ব্যতিক্রমী
সমস্যাগুলো
ম্যাচেও
বাধার
টুইটে
বন্যপ্রাণী
মধ্যরাতে
##ফার
জাতিসংঘে
দুজনে
প্রতিবেদনও
হেয়ার
লালবাগ
লালচে
আবাহনী
দিল্লী
ওয়াচ
আঙুলের
জনপ্রশাসন
আশঙ্কায়
মেহেদি
চালকদের
নাড়তে
পঞ্জিকা
রেজওয়ানা
ট
আঁচ
আব্দুর
বর্ষার
স্বপন
সনের
বিষয়বস্তুর
পড়ানোর
জমিজমা
মর্মে
উপসাগরীয়
সহকর্মীদের
এসআর
কিউবার
গোলাকার
রক্ষিত
খাতা
আরোহী
জঙ্গিবাদের
যন্ত্রে
অসত্য
প্রোগ্রামের
বিবেক
পুরানো
আবেগের
প্যারিসের
নিকোলাস
ইয়ং
ফিতর
স্
আজিজুল
সুফি
টোল
ছাত্রীরা
ঘটনাস্থলেই
চিপ
অক্ষুণ্ন
প্রান্তিকে
আফজাল
আতঙ্কিত
সিলেবাস
প্রস্তুতির
উক্তি
উবার
অন্যকে
কোরিয়ায়
প্লেট
আশাবাদ
আলফা
নির্বাচনকালীন
ভিতর
উত্তাল
##কর্মচারীদের
ভক্তরা
ফাতেমা
কীর্তি
সমাজসেবা
নিয়মের
##পাঁচ
ব্যাচেলর
শহরকে
মানুষটি
পাঠ্যক্রম
বাগানের
##নিক
চাইলেন
গল্পটি
ছাত্রছাত্রী
দুনিয়া
অসুখ
নৈতিকতা
ফরিদ
ঝকঝকে
গতিপথ
অত্র
দফার
ব্যুরোর
ব্রিগেড
ক্লিনিক
আনোয়ারা
থমাস
রক্তচাপে
##মুখ
পাশা
উদ্বাস্তু
ব্যবসায়ীর
সংহতি
সংঘের
অভিভাবকেরা
আর্দ্রতা
নির্দলীয়
শাহর
ছেলেরা
তিল
অনিয়মিত
আনন্দিত
বয়
নমনীয়
পুরু
নয়াদিল্লি
জসিম
লক
খাই
ওস্তাদ
দ্বিতীয়টি
তদন্তকারী
প্রয়োগকারী
শারীরিকভাবে
##রিন
অত
অ্যাপে
অবরোধের
অ্যাক্ট
##কম
বিবাহের
তারিখের
গরমের
শব্দটা
ধ্বংসাবশেষ
তাজউদ্দীন
##পন্যাসিক
ইয়েমেন
কর্মীরাও
ট্রাইব্যুনালের
ক্ষমতায়ন
নগ্ন
বিকল
নেশা
##র্জে
প্রতিবার
##হান
ডিগ্রির
দেখাচ্ছে
অনুপ্রবেশ
প্রতিকূল
স্টোন
##রক্ষক
চলাফেরা
দিদারুল
দূরবর্তী
কামান
বিনয়
জ্বাল
অর্থহীন
ওভালে
ইয়েমেনের
##রী
শিক্ষককে
আশঙ্কাজনক
দেশজ
জওহরলাল
বাদামী
মতই
জানত
মূল্যস্ফীতি
##বির
প্রভাবের
মৈত্রী
উত্তেজিত
নির্দোষ
ইসির
পরোক্ষভাবে
মজিদ
খুললে
নারীবাদী
##পর
ক্ষমতাচ্যুত
ডাটা
আপেল
নির্মাণাধীন
চিকিৎসাসেবা
যন্ত্রটি
চাইছিলেন
কাদা
সংবাদমাধ্যমকে
ড্যানিয়েল
সারিতে
কমপ্লেক্সের
আবহ
ফিল্ডিং
বাকিটা
শীঘ্রই
নির্দেশনায়
##বিজ্ঞান
সংগঠনগুলো
নবজাতকের
ত্বরান্বিত
##োস
পনির
সন্ধি
ব্যস্ততম
পীর
##বিল
সরানো
##শান
নিজাম
চুক্তিটি
ইয়াসমিন
ভাবছে
সুশাসনের
গ্রীষ্মে
##যুক্তরাজ্যের
প্রভূত
সাধনা
গোলটি
হরি
পারল
ছেলেটি
হাসপাতালেই
জায়গাটি
বিমানবাহিনীর
ঘটার
বিষয়টির
সৌভাগ্য
সাংবাদিকের
সেভেন
পারো
ইউনেস্কো
অমানবিক
ইং
ব্যানার
ব্যক্তিত্বের
ফ্রেম
গৃহযুদ্ধ
##হারা
বেকারত্ব
ফুটেজ
আংটি
বিব্রত
বৃটিশ
বিক্ষুব্ধ
প্রতিজ্ঞা
ভুট্টো
হুগলি
লেখকদের
সাধারনত
জন্মদিনে
ছুঁয়ে
চালাচ্ছেন
মীমাংসা
বিকিরণ
বোলিংয়ের
অষ্টাদশ
বৃদ্ধিতে
উপনীত
আন্দোলনকে
এসএমএস
শন
পূর্ণিমা
##থেকে
কাস্টমস
পুরাণে
##বাণিজ্যের
গার্ডেন
বসুর
রেজার
টানে
সার্কেল
মুক্তিবাহিনীর
লর্ডসে
মারি
বিছানায়
##োত্তর
মরিচের
ব্রাউজার
##দেশ
রাতারাতি
যথারীতি
ভূখণ্ড
প্রোফাইল
জনসভায়
পোশাকশিল্পের
থাকতেই
দৃশ্যত
অপু
সমৃদ্ধি
দমনের
ভয়ানক
মঞ্চস্থ
গর্ভপাত
রুমে
ধ্রুপদী
সারে
টিনের
এটার
অংশগ্রহণমূলক
লিখেছে
রোপণ
পঞ্চাশ
আছেই
মন্ত্রীদের
সম্পর্ককে
পূর্বেই
##সূচক
জঙ্গল
ডিএসই
বৈশাখী
তৃতীয়ত
সিইসি
বিজ্ঞানে
প্রতিবছরই
শচীন
অরুণাচল
ওয়াহিদ
শোর
বাহন
চশমা
রেলগেট
অভিনেত্রীর
লিবারেল
ট্র্যাক
অ্যাকাউন্টে
বৃষ
ম্যাচেই
মিশনের
বিজিবির
বেগুন
আগ্রাসী
সমাদৃত
মুস্তফা
তোলাটা
সন্ত্রাসীরা
প্রান্তের
উত্ত্যক্ত
লিটল
বেশিক্ষণ
বারান্দায়
ওয়ানডেতে
উৎখাত
সাপের
এদিক
দলবদল
বাদশা
হাউজ
ডার্ক
জান
সেটাকে
অনুভূত
বিজ্ঞাপনে
ডেঙ্গুর
##মেন্ট
##কালের
ঝেড়ে
নইলে
ত্রয়োদশ
##ওয়ে
গ্রে
ডায়রিয়া
বহনকারী
গোপালপুর
আহরণ
বিমানটি
জ্যোতি
অ্যানিমেশন
নিবন্ধনের
ল্যাঙ্কাশায়ার
নয়া
টিস্যু
সংগঠনগুলোর
নুসরাতের
খেলাধুলার
আশীর্বাদ
শৈশবে
মার্কেটের
জিডি
স্কাই
এটিএম
##সেল
ফ্রিডম
জনপ্রতিনিধি
##ষ্ট
কোম্পানিগুলোর
ইনিংসটি
বিসর্জন
সাদ্দাম
এলাচি
শাহবাগ
অবিচল
লিওনেল
ওয়ারেন্টি
প্রজ্ঞাপন
জুনের
জনমনে
সক্রিয়ভাবে
চাইলেই
বনাঞ্চল
##মত
##আলোচনা
ছবিটা
##শে
ভালোবাসে
কর্ণফুলী
অজুহাত
রচনায়
হুসাইন
কথাসাহিত্যিক
সায়
স্কটিশ
তিনটা
খ্রিঃ
দ্রুতগতিতে
প্রশাসকের
বৈরী
##বোর্ড
জনস্বাস্থ্য
তাপমাত্রার
পকেটে
প্রবর্তিত
জনপ্রিয়তার
মর্মান্তিক
##পূর্বাঞ্চলের
ডিপ
প্রতীকে
এরপরে
জিও
সঙ্গ
প্রজাপতি
গার্মেন্টস
চিঠির
দেশেও
প্রাপ্তির
সিরীয়
শক্তিকে
##বাড়ী
##কথা
দম
ভৌত
##স্বরূপ
আখ
ব্যবস্থাও
সমান্তরাল
জংশন
জোড়
হারাম
প্রতীকী
কেনাকাটায়
হাস্যরসাত্মক
লোগো
লতিফ
দামও
ইয়া
অসাম্প্রদায়িক
মাঝ
নাছির
ঘেরা
বিচ্ছিন্নতাবাদী
সান্ত্বনা
ফলমূল
সচিবের
আনুষ্ঠানিকতা
ইকবালের
সুড়ঙ্গ
শর্ট
যেখান
ট্যাক্সি
কোম্পানী
বাঘা
কর্মীকে
সাজ্জাদ
রংপুরে
দালাল
দাপ্তরিক
##খ্রিস্টপূর্বাব্দ
মাস্ক
গবেষকদের
দর্শনীয়
বোনাস
অ্যাম্বুলেন্স
বক্তা
সূচকের
বডি
জর্জিয়া
আর্দ্র
পদার্থবিজ্ঞানী
সর্বকনিষ্ঠ
##ঙ
দুর্লভ
পো
প্রয়োজনের
ঘেঁষে
মুনাফার
ইমন
সাময়িকীতে
##নীতি
স্টার্টআপ
ইমতিয়াজ
সার্বক্ষণিক
প্ল্যান
প্রত্যাশার
গুয়াহাটি
্যাঙ্কিংয়ে
নৌপথে
আস্ত
খাওয়ানো
ফেললে
বুশ
নিরিখে
##সংখ্যা
বাঁকুড়া
ল্যাবরেটরি
বিবিএস
আমদানিতে
সহিংসতায়
মিলার
রায়সহ
ছিঁড়ে
জ্বালানির
বালিশ
ফোনটিতে
সফটওয়্যারের
গ্রামীণফোনের
যাবৎ
যমজ
রাঙামাটি
অভিজিৎ
##ুজ্জামান
অনিবার্য
নথিপত্র
বেয়ে
নববর্ষ
সমমানের
ক্লাবটি
সঞ্চালন
আব্দুল্লাহ
ব্রণ
মালয়
ওয়ার্কার্স
আসক্তি
##কান্দি
বুকিং
নরসিংদী
ট্রানজিট
মালদ্বীপের
এগুলির
ঘটানোর
কিশোরীর
খুঁটি
##নির্বিশেষে
অর্থমন্ত্রীর
অস্থিতিশীল
বিভ্রান্তি
বুড়ো
রুখে
##দো
নাটকীয়
পরগনা
জু
আন্দোলনকারীদের
গ্রন্থটি
লোকে
পটভূমি
প্রাক্
গেজেট
ঘাড়
স্বজন
চলন্ত
ভাঙতে
লুটপাট
কমিটিকে
মুশফিক
যৌনতা
##এটি
আর্টিজান
উঠলেন
মারে
পাউবো
পায়রা
গার্লস
পরিচালন
লায়লা
ভিত
গাছপালা
তলার
ওড়িশা
##রিয়া
শরবত
স্নায়ু
হরণকারী
ধানমন্ডির
পর্বতমালা
##শিক্ষার্থীদের
নেত্রকোনা
বিজয়ীদের
ভেনেজুয়েলার
পোষা
ধ্বনি
স্কটল্যান্ড
হোয়াটসঅ্যাপ
আর্থ
মাহবুবুর
লাগলে
বোঝে
তু
জনপদ
পাকিস্তানিদের
সামাদ
বিদেশযাত্রায়
পক্ষই
শঙ্কর
জয়পুরহাট
##শক্তি
দরবার
সুইডেন
##ফুল
মহাভারত
জামিল
দেবার
ছাত্রাবাস
সংযোগের
সমুদ্রবন্দর
সঞ্জীব
টিন
মনমোহন
পেনাল্টি
মহারাষ্ট্রের
ঐক্যফ্রন্ট
বাগ
সাইটে
লোকসভায়
এফডিআরে
##গন
##একটা
ক্যামেরায়
##তর
জুয়েল
##ীদের
হিন্দুস্তান
স্তন্যপায়ী
##দেব
গুহা
লেজার
দরুন
জন্মদিনের
চেয়ারপারসনকে
কালা
ক্রীড়াশৈলী
##কাজে
ইটের
মুসলমানরা
টাওয়ারের
আলতাফ
তুই
ধনেপাতা
অফিশিয়াল
কায়দায়
ত্রিপুরায়
টিপু
মুদ্রায়
ইঁদুর
তাপস
ভাইরাসের
মোকাবেলা
ন্যস্ত
সয়াবিন
ডক্টরেট
সংবাদপত্রে
##বন
শোভন
সোম
প্রথমার্ধে
আরেকবার
কার্যকলাপ
সেকেন্ডে
ইভিএম
কৌঁসুলি
ইনস্যুরেন্স
পথচারী
নৃত্যশিল্পী
জর্ডান
ছিদ্র
আরাকান
##পাল
কাজও
বিশ্বযুদ্ধে
ঝুলন্ত
বেক
ভূত
##লেখক
প্রমাণের
শ্বেত
আত্মীয়স্বজন
আসীন
দেখভাল
জিতেছিলেন
##জেন
ইউক্রেনের
ডুবিয়ে
পুস্তক
মেনন
প্রত্নতত্ত্ব
কর্তা
শরণাপন্ন
যথাসময়ে
##প্রিয়
কিংস
মায়েদের
বড়দের
##ন্ড
ঘটিয়েছে
মারামারি
রেজিস্ট্রেশন
অসমের
খাতকে
##ঙ্গ
চিনতে
কেনেন
মধ্যভাগে
দাম্পত্য
ব্যাধি
মান্না
বেস
পাম্প
##িনী
রাগবি
সম্পর্কযুক্ত
ভূমিতে
ছাদের
আর্থরাইট
ধাপের
পূর্বদিকে
বোমার
নিম্নরূপ
রাষ্ট্রায়ত্ত
নিচতলায়
চেয়েছিলাম
দাওয়াত
বাহ্যিক
ট্রান্স
অংশই
স্টল
শুক্র
মাপ
ইচ্ছার
শিখে
সনদের
অ্যালায়েন্স
ভাবনার
বিজিএমইএ
চারুকলা
আহমদের
নিবাস
পুকুরে
সন্দেহের
উপত্যকার
বিশদ
নির্মাতাদের
আনাম
এমি
কিউব
ডায়েট
খাইয়ে
মায়ানমার
প্রভু
ইকোনমিস্ট
লেগেছিল
গাফিলতি
আরাফাত
লিভারপুলের
অ্যান্ড্রু
তুলছে
সুদে
বারান্দা
পড়ত
কর্মীও
হংকংয়ের
একেকটা
অপেরা
সত্যের
জামদানি
দুর্গন্ধ
অভূতপূর্ব
সামঞ্জস্য
কুইন
যাঁকে
পড়লেন
উচ্চশিক্ষার
বহুবার
বনভূমি
##মেয়ে
ফণী
পোহাতে
##পশ্চিমাঞ্চলের
এলইডি
অনুচ্ছেদে
স্তূপ
চেয়েছি
অধিবাসীদের
আনুকূল্য
বেকিং
গল্পটা
গণপরিবহন
জার
নিরসন
বিমল
অচিরেই
ভূখণ্ডে
পোশাকশিল্প
বরেণ্য
দলগুলোকে
ডানপন্থী
মেরিল
কাবাব
##দ্য
দুর্যোগের
নিত্য
বাদল
ময়নাতদন্ত
উত্থাপিত
থাকলেই
কৃষিভিত্তিক
পঞ্চ
##মালিকানাধীন
চীনকে
তিস্তার
লভ্যাংশ
মাখিয়ে
চলচ্চিত্রটিতে
গণতন্ত্রে
সাদেক
আত্মবিশ্বাসী
সেলাই
সন্ত্রাসবাদের
সামনেই
পটার
ভাষণের
পুরুষেরা
ধরলেন
ক্যাটাগরিতে
##আউট
সম্পাদনার
বিডি
পোল্যান্ড
ততক্ষণে
মাল্টি
সুব্রত
ধস
শাহাদাত
দাউদ
শিক্ষাবর্ষ
শাহের
কঠোরভাবে
দলিত
ব্রি
বর্তমানের
রিও
পলাশ
চতুর্থবার
নিরঙ্কুশ
আলোড়ন
জুনাইদ
শিয়ালদহ
স্ট্যান্ড
সিপিএম
বছরেও
##সম্প্রতি
অনুষদে
নীতিতে
শিক্ষাদান
দৃষ্টান্তমূলক
গতানুগতিক
পতাকার
অবিভক্ত
সর্বদলীয়
আদর
##আল
খোঁজা
ঘোড়ার
হলগুলোতে
বিবর্তনের
চার্লি
উইকিপিডিয়ার
সুষম
বহিরাগত
##কিশোর
অনেকবার
সাজাতে
শ্রীলঙ্কান
গর্ভধারণ
গেমটি
##সম
অগ্নিসংযোগ
হর
মেয়রের
ফোঁটা
ট্রি
##হাট
অলিম্পিকের
আবাসনের
পদার্থবিজ্ঞানে
অজুহাতে
অর্থনৈতিকভাবে
কোনটা
স্প্রে
আগমনের
মহম্মদ
গ্যালারির
ভেটেরিনারি
তকমা
টাওয়ারে
ব্লাড
ইলেকট্রিক
বেলুন
শ্বশুর
গতকালের
আপত্তিকর
পিং
তাইওয়ান
ইতালিতে
উচ্চবিদ্যালয়
অংশীদারত্ব
উদ্দিনকে
ভয়ভীতি
তুলবে
সংস্থায়
বৈদিক
দত্তের
উকিল
তরুণীর
##সিন
লিয়াকত
জানাজা
ঘটনাগুলো
প্রশাসনে
ফেয়ার
দিনাজপুরের
নেমেছেন
লীগকে
সিএনএন
পৃষ্ঠার
জন্মঃ
জেফ
##াবাদ
অতর্কিত
##ম্ত্শান
স্পষ্টভাবে
চোরাচালান
শরিফুল
ভোটকেন্দ্র
সম্পাদকের
ওডিআইয়ে
বিষণ্নতা
##েন্ট
সিএসই
নিখিল
বেবি
খ্যাতিমান
দেল
কচি
##ায়িত
ছানা
ধরলে
কিসের
নাসের
জীবিকার
মেডিক্যাল
ইলিনয়
সভ্য
সঙ্গীর
লেগুনা
মিরাজ
গর্ভে
মূল্যবোধের
##অনেক
একাত্তরে
মাদকাসক্ত
আত্মসাৎ
নিম্নোক্ত
ছাত্রের
ভিউ
আবৃত
ক্রেতার
মৌজা
বিষয়কে
সংলাপে
ক্ষেত্রের
সাংবাদিকেরাই
বিচলিত
এইচআইভি
ইভান্স
জাহানারা
অর্থনীতিকে
গুল
##হু
##সবুজ
অবতার
তত্ত্বকে
উত্তরণ
ফরোয়ার্ড
ব্রিটেনে
পাখিদের
দৃশ্যের
র্যা
অ্যামনেস্টি
জলাশয়
পাইপ
বিধায়
কপিরাইট
সংগত
মুদ্রণ
খেলাতেই
যেতেই
অভয়ারণ্য
মেশানো
রেস্তরাঁ
কষিয়ে
পাটের
সপ্তদশ
কিনেছেন
উপন্যাসে
হাঁটু
বিনিয়োগে
##ল্লা
ক্রুজ
রপ্তানিকারক
তারতম্য
কার্যনির্বাহী
বিন্দুমাত্র
##কর্মচারী
বিষয়েও
##ঞ্জ
চঞ্চল
প্রক্রিয়াকরণ
মডেলিং
চ্যাম্পিয়নশীপে
অবসরের
বিচারবহির্ভূত
গুন
ভবনটির
সিএনজি
কর্মজীবনে
গুজরাটের
ছদ্মনাম
ছাতা
এপ্রিলের
এনার্জি
ভগবান
বিশ্বজিৎ
বিনিয়োগকারীরা
গণেশ
কলম্বিয়া
বিক্রেতারা
এইচপি
বসন্তের
অপ্রত্যাশিত
চুক্তিভিত্তিক
প্রদানে
আলোচ্য
আমন
প্রার্থিতা
##র্দো
পেটেন্ট
মিলিগ্রাম
সমুদ্রপৃষ্ঠ
বিশ্লেষণের
বাবর
ট্রাইব্যুনালে
শাল
মুদ্রিত
মেরুদণ্ড
জায়েদ
হাইস্কুল
শিল্পকারখানা
ফারিয়া
মহাবিদ্যালয়
নক্ষত্র
বুদ্ধিমান
##টিই
মুক্তিযোদ্ধার
নথিভুক্ত
রহমত
পাহারা
পিচ
স্থানীয়দের
##দেশে
##ধর্ম
ব্যাগে
কিশোরের
ডিফেন্ডার
এলএনজি
চাঙা
সমাজকল্যাণ
উদ্ভাবনে
দ্বীপপুঞ্জের
ডিজাইনের
##কুমার
সার্বিকভাবে
শেয়ারিং
কর্ণধার
অত্যধিক
স্বনামধন্য
ঝরিয়ে
পরিচালকদের
##হো
##থা
##স্কি
গ্রামাঞ্চলে
বৌদ্ধবিহার
##নেট
চৌ
জীবের
এনডিটিভির
রাবার
অরণ্য
হেলমেট
ত্রিদেশীয়
ঐচ্ছিক
এদেরকে
শ্বেতাঙ্গ
মনো
উচ্চপর্যায়ের
বর্গফুট
পথেই
হায়
কারিনা
হাড়ের
ইন্ডাস্ট্রিজ
রিডিং
ইচ্ছুক
##চর
পাড়ার
টেকনোলজিস
ছোড়া
ভাষাকে
সাধু
প্লাবিত
নেতৃবৃন্দ
লিভার
হৃদয়ে
পরিবর্তনে
বিলে
বাদ্যযন্ত্র
বাইজেন্টাইন
পাণ্ডুলিপি
বাড়লেও
অ্যাটাক
কোট
নট
শাপলা
ডিপার্টমেন্ট
রাষ্ট্রভাষা
শ্যাম
জাফলং
পদটি
উদ্যানে
জিতেছিল
পঞ্চদশ
বাস্তবসম্মত
চলাচলে
খেলোয়াড়কে
মার্ভেল
সনাক্ত
সাম্প্রদায়িকতা
রেকর্ডিং
##পুত্র
##পথ
গিহা
শেষমেশ
মেরু
##মিন
পেশাজীবী
মেদিনীপুর
দীর্ঘতম
সংসারের
ক্যারিবীয়
দফতর
ইভেন্ট
##শুধু
##ন্দ
লৌহ
আইল্যান্ড
##ছড়া
জাভেদ
জন্মে
তৈলাক্ত
নেইমারের
##সেবা
উত্তেজনার
##ডেন
জুরি
মেদ
অ্যালান
সতেজ
বিবাদ
##দ্গে
সহানুভূতি
##পড়ুয়া
তিতাস
পদ্ম
নামকরা
##োন
রাজনীতিবিদদের
মক্কায়
বান
শান
##নেস
সিনেমাটি
রাজবাড়ী
এটুকু
অনীহা
কষ্টকর
মুভি
কাঁদতে
সিলিকন
রাসুল
দ্রুতগতির
স্যুপ
আরিফুল
একপ্রকার
মেরুন
রেলপথের
একচেটিয়া
ইন্ডাস্ট্রি
নির্বাসিত
ঠেকানো
ব্যাস
অন্ধ্র
বেকারত্বের
গাওয়ার
নিয়োগে
নজরদারির
বোম্বে
রিভার
সন্তোষজনক
গণিতবিদ
নবজাতক
কাটানো
শাস্তিমূলক
পরীক্ষার্থী
উদ্যানের
বোঝেন
##বাস
রিপাবলিক
##টায়
##সান
পৃথিবীকে
আগা
ব্যথার
আগরতলা
প্রতিবাদী
বিয়ার
সেভেনহিল
বোস
ইন্টেলিজেন্স
আবরারের
ইমারত
নারায়ণগঞ্জে
##িজম
উদয়
ওটা
লাভে
এমনি
##বাদের
পলিটেকনিক
বাসটি
বর্ণমালা
কায়েম
কোচবিহার
ইমরানের
পিটিআই
ঘেরাও
দরজার
ভূমিকম্পে
##সির
স্থানান্তরের
দৃশ্যে
পৌঁছালে
ফেস
রৌপ্য
সামঞ্জস্যপূর্ণ
সাদৃশ্য
সচিবালয়ে
##পাড়ার
সেবাদাতা
রায়কে
কণ্ঠশিল্পী
প্রস্তাবটি
##ওয়ার
এসএ
লিপস্টিক
ভাঙচুরের
ফেরেন
দরবারে
সিংহের
আইপিএলে
ইডেন
আইপিএলের
হাজী
যেমনটা
ঘোর
কৃতিত্বের
সংবাদের
স্বাদের
##বর
আদতে
নল
ব্রহ্ম
মেঝেতে
ইমেজ
দড়ি
উত্থানের
লরেন্স
ভাইবোন
যাপনের
নির্ধারণে
স্ক্যান
জাপানী
রো
যাত্রীর
কেমিক্যাল
ইয়ে
জুট
বিতরণের
কেভিন
কম্বোডিয়া
বিভক্তি
ছত্রাক
পিপল
মাইক্রোবাস
বিএসসি
ইয়াহু
ফ্ল্যাশ
##এক্স
সময়ও
শিল্পকর্ম
ভীত
##পুরে
##্ব
সীতাকুণ্ড
##িও
মমতাজ
ফরজ
##ারের
জঙ্গিগোষ্ঠী
ক্যাপিটাল
##স্ত
বর্ণবাদী
দীক্ষিত
উপস্থাপিত
প্রারম্ভিক
সিংহাসন
পর্বতমালার
সার্থকতা
সেক্টরে
ড্রাগন
শিক্ষাবর্ষের
জেতেন
অগ্রিম
ডিআইজি
ক্রাইম
স্টেটের
##ভেন
এন্টারপ্রাইজ
অপরটি
শাওন
নিরপেক্ষতা
মেঝে
প্রেসিডেন্সি
গণতন্ত্রকে
একুশ
অঞ্চলকে
রুটিন
ভেদ
বুখারি
রুচি
বাপা
অ্যাটলেটিকো
হিমবাহ
সিলভার
##ফু
কোর্সটি
নয়জন
জুভেন্টাস
সাবমেরিন
বন্ধুত্বপূর্ণ
দ্বার
সম্প্রচারিত
রাউন্ডে
কারন
বেলজিয়াম
##তত্ত্ব
মেজাজ
ফাইন্যান্স
মরিয়ম
##টের
নামা
বিছানা
চালিয়েছেন
উত্তরাঞ্চলের
ক্ষেত্রবিশেষে
চারজনকে
সাউন্ড
হতাশাজনক
ভূতাত্ত্বিক
##দাস
গিনি
##িশ
নামানো
চিত্রনাট্যকার
ম্যারি
ছাত্রছাত্রীর
রেস্তোরাঁর
হাওলাদার
গড়িয়ে
ডেভেলপার
মুখস্থ
গোনা
##ুস
##মাতা
সুস্বাদু
দেখাদেখি
দীর্ঘকাল
##ইউ
টেলিফোনে
আসতেন
পড়েছি
##রাজনৈতিক
##হ্
কেপ
তাইওয়ানের
বুড়িগঙ্গা
রাজপরিবারের
সালেহ
রিয়াদ
কিছুকাল
পরিবেশক
পেরেছিল
ডঃ
কর্মস্থল
বাহারি
আফরোজা
প্রতীকের
দিচ্ছিলেন
লাঞ্ছিত
আপেক্ষিক
##বাগ
মাউস
বদলের
ইউনাইটেডের
মোবারক
চমকপ্রদ
অর্পণ
কাই
অটল
স্নেহ
সমাজবাদী
লাগত
বাষ্প
ইশতেহারে
##লন্ডনের
সোবহান
সামন্ত
কথোপকথন
ছবিটিতে
লাইনটি
ধাওয়া
##ায়ন
মেগাপিক্সেলের
ব্রত
সাম
শোনান
জুলিয়ান
জাস্টিস
জাকারিয়া
নিয়তি
অজিত
ওঠানামা
কালার
যুবককে
##বাংলাদেশে
##দ্পাল
দৃষ্টিভঙ্গির
##উল্লাহ
স্বল্পদৈর্ঘ্য
ঘোষের
##এল
কারিকুলাম
বিস্তীর্ণ
জামানত
কাটিয়েছেন
##এবার
আইপিএল
দাতা
চালালে
মুর্শিদাবাদ
পার্কিং
বাচ্চুর
অ্যাপস
সাবিনা
সুরক্ষায়
নিরুৎসাহিত
আত্মজীবনী
আলিম
সিন
বিক্ষোভে
মন্দা
##প্রথমবার
মেঘের
তাজমহল
##ফিল্ড
লোকবল
সর্দি
লাগান
##র্গ্যা
ফেব্রুয়ারির
রূপবিশেষজ্ঞ
আনু
অপশন
ধর্মনিরপেক্ষতার
সংগ্রামে
জঘন্য
উচ্চপদস্থ
লোহা
চাচাতো
সত্যায়িত
উদ্ধারে
পালাতে
গলে
বেরেস্তা
ঝাল
জামাত
ইহুদিদের
ন্যাটো
পৃষ্ঠপোষকতায়
##সকল
সড়কপথে
রাজাকার
বাস্তবতায়
নিউক্লিয়াস
ফান্ডের
স্টোরি
শূন্যতা
বাড়িয়েছে
সাদিক
বুঝানো
নফল
অঙ্কন
আবাসস্থল
বুট
মেহেরপুর
মূলে
পর্নোগ্রাফি
গোপালগঞ্জ
ভাষাতে
কাঠামোগত
অ্যালুমিনিয়াম
অ্যাড
বিশেষজ্ঞের
ভূগোল
প্রযুক্তিপণ্য
ইভেন্টে
প্যানে
অর্থেই
##নোর
রাশ
ক্যাম্পের
অগ্রহণযোগ্য
আদমশুমারী
চারজনের
##কিন
যোগাযোগব্যবস্থা
কর্মের
বাইক
বাজিয়ে
অচেনা
আপনা
কণ্ঠস্বর
##বিশাল
ক্রোম
ভরি
সন্দেহজনক
আসুক
চলত
অবিচ্ছেদ্য
পর্যবেক্ষণে
ম্যালেরিয়া
ইমরুল
উড়তে
ক্যা
শফিক
সম্প্রদায়কে
মিম
সেলিনা
জাহালম
প্রথমটি
বিবেকানন্দ
টেলিগ্রাফ
তাঁত
তদুপর
পদোন্নতির
লিবিয়া
খিচুড়ি
ড্রাইভার
নামও
দেশবাসী
প্রয়োগে
পোস্টের
ছোটগল্প
তীর্থভ্রমণ
টিকিটের
সমাজতন্ত্র
##লিয়া
য
ফাঁদ
অনুপ্রবেশকারী
সুরমা
শৈলী
বড়ো
বঙ্গোপসাগর
##নিয়া
জন্মস্থান
সেগুলোকে
অদ্যাবধি
ভুলের
আটটা
সিদ্ধার্থ
কষ্টে
জলিল
সদিচ্ছা
ভিআইপি
##ওয়াল
সত্তরের
চিকন
মুল
##কন
গোড়ায়
ভিডিওর
কলম্বো
##স্ত্রী
থিয়েটারের
সুসংবাদ
প্রাণিসম্পদ
সিকিম
রাজকুমার
কর্মজীবনের
ফিউচার
##বাই
বিএসএফ
জাতীয়তাবাদ
মৌ
বক্সে
ক্যাডার
গু
গণমাধ্যমকে
মহারাজা
সুন্দরভাবে
রহস্যময়
হিটার
মাদারীপুর
জাকাত
জুতার
আলোকপাত
কাদির
দাবিও
ওয়াসিম
থ্রিডি
ধাবিত
চৌধুরীকে
লিন
অংশকে
রাষ্ট্রকে
মোংলা
ঘ
হ্যাম্পস্টেড
নৌপরিবহন
হরিয়ানা
বইমেলা
চক্ষু
মনোভাবের
সিক্স
দিকটি
রয়
খোলামেলা
আন্দোলনকারী
ত্যাগের
মেরামতের
এসডিজি
রাসেলকে
কারিগর
##পদ
নাইম
নাগরিককে
বেশকিছু
দগ্ধ
সংস্থাকে
নির্মল
সমাবেশের
সিগারেট
দূতাবাসে
পুত্রের
দিয়েছিলাম
মনজুরুল
##াইন
সাক্ষাতের
মিল্ক
সন্তোষ
ব্যাটালিয়ন
বাঁকা
রাজাদের
যোদ্ধাদের
নির্বাহ
অ্যাল
আপডেট
সেমিফাইনাল
নাদিম
ওয়াশিংটনের
ডো
তৌফিক
ওপাশে
বাটন
একাডেমিতে
সেভ
অংশবিশেষ
স্থাপনার
রাজউকের
মরিস
দেবতার
##েজ
##কোর
ব্যায়ামের
স্পেনে
##নীয়
হায়াত
##দী
মাহাথির
##ব্যবস্থায়
##তখন
পেশাজীবীদের
##পু
##ডু
খাঁটি
শনাক্তকরণ
সালমা
কারচুপি
দ্বিতীয়ার্ধে
##শিল্পী
তির
জলজ
টেলিকম
এক্সিকিউটিভ
নারাজ
এমসিসি
হেপাটাইটিস
সাখাওয়াত
মস্কোর
কিশমিশ
আসরের
টিকেছে
কাসেম
জাগে
মতলব
নানাবিধ
##নদী
উপেক্ষিত
অগণিত
উদ্ভাবনের
গোয়া
মুজিবের
কিনলে
##সবই
কর্মজীবী
আরোপিত
শসা
##ংয়ের
টানাপোড়েন
অরবিন্দ
টয়লেট
বিজয়ে
ওয়াজেদ
স্টুডিওতে
রোগীরা
দুধে
রিপোর্টে
পাঁচবার
স্বভাব
নেটওয়ার্কে
অধ্যাপনা
অ্যাট
এনবিআরের
##পাতা
আশ্রম
বনানীর
সইতে
প্যারা
করিয়েছে
মহৎ
ঠিকভাবে
লেখিকা
##জাতিকা
সোডিয়াম
মইনুল
আদিবাসীদের
ইউএসবি
জুলাইয়ের
হও
রসুনবাটা
অনায়াসে
কেবলই
অ্যাভিনিউ
##াদি
##য়াল
রেফারি
তিশা
ডিস্ট্রিবিউশন
সহস্রাধিক
গৃহায়ণ
সর্বশ্রেষ্ঠ
আলফ্রেড
অবকাঠামোগত
ধর্মাবলম্বী
সুবীর
জাভা
নবায়নযোগ্য
ক্লিনটনের
গ্রেপ্তারি
এমএস
মদন
সৌন্দর্যের
গোলা
বেঙ্গালুরু
চাদর
উপদ্বীপে
দূষণের
বেলাল
স্যালাইন
ভাস্কর
অজ্ঞাতনামা
এন্টারটেইনমেন্ট
সাজান
বাহক
কর্মশালায়
এস্টেট
সরানোর
নাসার
সম্পাদকীয়
কমন
সেকেন্ডের
সরকারবিরোধী
ভেক্টর
মাহবুবুল
বোঝাই
কয়েকজনকে
রাজত্বকালে
নীচের
বার্সা
সমূহের
মাতৃ
মেমোরিয়াল
প্রক্রিয়াজাত
##মালা
জহিরুল
ইয়র্কশায়ারের
নাৎসি
প্রতিবেশীদের
আমিষ
সুগার
অভ্যর্থনা
আমানতের
জিলা
যুদ্ধাপরাধের
এলেই
বাফটা
পূর্ণদৈর্ঘ্য
সীমানার
জ্যামিতিক
##বাসীর
বগুড়ায়
কনস্যুলেট
মগ
ঘড়ির
ভাইদের
রাখায়
পরিদর্শনে
##স্থান
মহকুমার
টাইমসের
সারদা
পুঁজিবাদী
সদরে
##বাবাকে
এগুলোকে
##পাই
কমিশনারের
অভিশাপ
মাঝেই
ভাটা
ডিএসইর
স্বীয়
বর্ষায়
ওমান
মানবাধিকারের
সিদ্ধ
অনুসারীরা
ইন্দ্র
দিবারাত্রির
উসমান
পরস্পরকে
অধিকৃত
বিরিয়ানি
ধর্মনিরপেক্ষতা
ঠোঁটের
##বরিস
খেললে
মাইন
ফিল
উজ্জীবিত
সংখ্যাও
ধুলা
এটিও
ত্রিনিদাদ
উইং
##পরে
মুঠোফোনের
সন্ত্রাসবিরোধী
বিশ্ববাজারে
শাহ্
পরিচ্ছন্নতা
তাদেরই
দলাই
##তামিম
##স্ক
##রাব
তুচ্ছ
মিডিয়ায়
পেয়ারা
নির্বাচক
বলত
পক্ষকে
গুণের
খোদাই
জামে
ভাতের
##লির
বিপর্যয়ে
লবণের
সিরিজটি
বাড়িতেই
সার্বভৌমত্ব
গুহ
##রুশনারা
আনুষঙ্গিক
কমার্শিয়াল
ইন্টার্নশিপ
জানতাম
পুনর্বিবেচনা
সাইন
##িয়াম
হত্যাযজ্ঞ
কৃষ্ণা
সরাতে
অ্যালকোহল
আন্ডার
ঝোল
শৌচাগার
গণিতে
পর্তুগাল
চার্লসের
বাঁশি
গুণী
অ্যাসিস্ট্যান্ট
অ্যাপোলো
বিমানবাহিনী
গৃহযুদ্ধের
মোস্তাফা
পরীক্ষণ
এয়ারলাইনসের
দৈহিক
শুনলে
ফাহাদ
তৎপরতার
নার্সিং
ওয়াসা
শাসকেরা
যৌতুক
সর্বোত্তম
আজহার
তপন
থামাতে
দুর্গাপুর
ডেনিস
সিনা
স্থাপত্যের
বাজানো
সন্ন্যাসী
মাঝি
আনছে
ভরপুর
ঠেকানোর
নিয়ন্ত্রন
সুবিধার্থে
পারলেই
স্বীকৃতিস্বরূপ
তুললে
নাগরিকত্বের
ভ্রাতা
জেরেমি
মহাজোট
আবশ্যিক
লক্ষ্যবস্তু
##বুক
বিঘ্নিত
যেগুলি
কিলবার্নে
স্কার্ট
নিট
শুটিংয়ে
মিলি
##জির
নালা
হাসিনাকে
অনুপাতে
ছন্দ
নেপালি
রক্তপাত
রুদ্র
##মাস
##কলেজ
পুনর্নির্ধারণ
##সামাজিক
অন্তর্নিহিত
বুঝায়
সালাহ
পরীক্ষামূলকভাবে
বিদ্বেষ
এআই
মিরপুরে
ক্ষয়ক্ষতির
বিঘ্ন
সম্মুখ
ফিল্টার
অসামঞ্জস্যপূর্ণ
আরেফিন
বামহাতি
উত্তরণের
##মোহন
অক্টোবরের
ভারতীয়দের
বৈচিত্র্যময়
পরনে
কাঞ্চন
ঝরনা
মিশ্রিত
পরিচয়ের
##বাগান
বগি
শংকর
হিসাবের
মুস্তাফা
ডেনমার্ক
সর্বনাশ
উড্ডয়ন
মিটিং
পূর্বাঞ্চলীয়
##ঙ্ক
প্রসাধনী
উপনির্বাচনে
##ানি
হরতালের
মহেশখালী
বর্ষাকালে
সাংহাই
একাকী
প্রযোজনায়
করদাতা
সাইজের
নৈরাজ্য
ময়েশ্চারাইজার
জেন্ডার
রাজ্যসভায়
পত্রপত্রিকায়
প্লেয়ার
বিনষ্ট
রুপালি
জান্নাত
ফারাক
##দেশীয়
গির্জার
মোটরসাইকেলে
দেওয়ানি
আইসক্রিম
অধিভুক্ত
মাদ্রাজ
পাম
লীলা
কনের
গ্রামবাসী
কোরিয়ান
উচ্চবিদ্যালয়ের
নির্বাচনটি
দেখেছিলেন
চ্যাপলিন
আকবরের
জাতীয়তাবাদের
নির্বিচারে
তেলুগু
গ্রাউন্ড
##লাইন
প্রক্রিয়াকে
ইনস্টিটিউটে
সাতটার
ভদ্র
পক্ষেই
লাউ
সংঘবদ্ধ
উড়ান
শু
আইপ্যাড
ফরেস্ট
হীরা
পরিমান
গাই
প্রামাণ্যচিত্র
আকতার
মহাকাশযান
দাসের
##কল
তঁারা
স্নান
ভুট্টা
মঞ্জুরি
টিআইবি
তামিলনাড়ু
ভুগতে
মহাকাশে
হাস্যকর
বরাতে
তীরবর্তী
গ্রিল
সিট
জিমি
##কিউ
উপসহকারী
কপাল
উর্বর
রেজিমেন্ট
##েশ
##ইল
দুল
লাফিয়ে
মারাঠা
এড়ানোর
আয়ন
সরবরাহকারী
ঘাতক
গাজা
স্কেলে
অক্সাইড
দায়দায়িত্ব
স্যুট
মহেন্দ্র
প্রাক্কালে
অসাধু
জ্বালা
বয়সসীমা
ত্রুটির
নির্বিঘ্নে
দায়বদ্ধতা
দক্ষিণাঞ্চলে
শর
প্রিয়াঙ্কার
এডিপি
শিক্ষাবিষয়ক
কাঁঠাল
বেচাকেনা
প্রাণবন্ত
বদর
স্টিভেন
আতঙ্কে
পদার্থবিজ্ঞানের
পড়লেও
তালে
দেখেনি
ইউনিভার্স
সিএনজিচালিত
কোথা
ফরমাশ
স্যাম
সীমার
সিগন্যাল
বেনাপোল
মেহের
থাইল্যান্ডে
অশ্লীল
জেমি
ইসলামিয়া
##য়েড
##ভাগ
অ্যালার্জি
ক্ষোভের
প্রশ্রয়
এক্সচেঞ্জের
##ভাবেই
ভিক্টোরিয়ার
অ্যালবামটি
কোষ্ঠকাঠিন্য
##িভ
বিক্ষোভকারীদের
ভাষাগত
উঠেন
এজাহার
বসবে
দাবিদার
লামার
নির্মাতারা
ক্যারিয়ারে
##ণে
জাজ
প্রশংসনীয়
আইনানুগ
বড়সড়
হিব্রু
অসম্পূর্ণ
সঞ্চয়পত্র
ক্রিশ্চিয়ান
নীতিনির্ধারকদের
বইটিতে
##পাঁচটি
সৃষ্টিকারী
দেশবাসীর
নির্মান
বজলুল
লোহিত
মারধরের
টেক্সট
এক্সচেঞ্জে
চেলসি
ছোটদের
##বলে
ব্যবস্থাকে
বিদ্রোহীরা
নরওয়ের
ববি
শান্তিপূর্ণভাবে
পালানোর
##াহ
চাচ্ছে
প্যাকেটে
খাওয়াতে
ক্রিস্টোফার
খাদ্যে
প্রেমিকা
বেলজিয়ামের
ফরেন
আলুর
ব্লো
মক্কার
##রাউন্ডার
ক্যানসারে
উড়ালসড়ক
উৎক্ষেপণ
প্রতিমা
যুক্তিসংগত
জিল্লুর
সম্মানসূচক
##কায়েদা
আব
আবরণ
##মন্দ
চৈত্র
ল্যাপটপের
গেমের
প্রকল্পগুলো
দিনগুলো
ইয়াসিন
উদ্ভাবিত
প্রতিস্থাপিত
বিশ্বনাথ
কর্মচারীকে
লিলি
পরিমাপের
কুন
অংশেও
আমন্ত্রণে
জেরুজালেম
উপলক্ষ
বুদ্ধিমত্তার
পদ্ধতিটি
##লেও
কোম্পানিকে
বুধ
মহাসাগরে
সমকালীন
নওয়াজের
প্রাণহানির
বঙ্গীয়
বাঁধে
সহযোগীরা
টিউলিপকে
মদদ
##ফল
লিখতেন
ধোয়া
মিড
সাধারন
তনুশ্রী
রেশ
প্রতিপাদ্য
##ঙ্গাগ
ভূখণ্ডের
আজিম
শক্তিতে
ফার্ম
জাস্টিন
কার্গো
ইরফান
উৎপাদক
জাসদ
সহযোগীদের
সকলেই
ডিস্ক
কেনাবেচা
কেজিতে
পোর্টাল
ফিলিস্তিনিদের
পাইপলাইন
শ্যামল
দীক্ষা
ক্রীড়াবিদ
##নামা
তাড়িয়ে
জিন্নাহ
লাহোরে
বৎসর
পাল্টাপাল্টি
বসাতে
ভিড়ে
টিউমার
মেট
লিপিতে
ওঠানো
বেজে
##বর্তমানে
বিআরটিসির
অলাভজনক
সমবেদনা
বিব্রতকর
##ব্স্তান
বৈশাখের
##ন্
##আমেরিকান
গৃহকর্মী
##কায়েদার
বিনামূল্যে
সিলেবাসে
নামানোর
ব্যারিস্টার
শ্রেষ্ঠত্ব
পূর্বপুরুষ
বোলারের
মূর্তিটি
অনুলিপি
কারি
##মূল
সভানেত্রী
গুদামে
অর্থবছর
##ম্ত্শো
কয়েকজনের
নোয়াখালীর
নিউজিল্যান্ডে
স্বস্তির
হিমালয়ের
টুল
দুটিতে
হাদীস
ধারণাকে
রাজ্যপাল
আবেদনকারীকে
খাতায়
বর্বর
দায়িত্বরত
ঐতিহ্যগত
জাগ্রত
##শতক
আয়ে
স্বৈরাচার
মরা
গ্রামটি
ক্লার্ক
##বাটা
কঙ্গনা
কিশোরদের
সুরের
নবায়ন
নজিরবিহীন
এফবিআই
হাওরের
##ইয়ের
বরুণ
মিস্টার
হানে
মুনির
মেডেল
উইকিপিডিয়ায়
বিভাজনের
বিবেচ্য
লিচু
বাজি
অনুচ্ছেদের
##কামিজ
অ্যালেন
##শ্রমিক
ঐতিহ্যগতভাবে
আশু
চিত্রকর্ম
##চিত্র
প্রস্তাবনা
বার্লিনে
শ্রোতাদের
তঁার
ইসলামাবাদ
ফুরিয়ে
ইউনুস
ব্রাদার্স
শাস্ত্র
প্রজন্মকে
ফুটপাতে
মির্জাপুর
প্রতিকৃতি
এজেন্সির
চিত্রগ্রহণ
পাটকল
##লিং
##সাত
জনৈক
প্রিমিয়াম
দুয়েক
ছবিও
খ্রি
উচ্ছ্বাস
টাটা
ছাপানো
কুকুরের
সামাজিকভাবে
ইসলামীর
ঘুচতে
স্টুয়ার্ট
জন্মায়
স্বায়ত্তশাসন
কৃষ্ণাঙ্গ
অনুসন্ধানী
অনুসারীদের
আগলে
ইহা
খেত
জড়ানো
মৌলবাদী
ক্রিকেটাররা
খাদ্যাভ্যাস
মহিলার
মিশনে
শৈল্পিক
পাত্তা
আদিম
জিহাদ
কুড়ি
সমঝোতায়
সোনারগাঁও
ফেরাতে
পরিগণিত
এয়ারলাইনস
ডেমোক্র্যাট
বার্মা
জয়নাল
##কর্ম
চরে
কুষ্টিয়ার
প্রতিভার
গৌড়
সতর্কতার
গ্রাফিকস
কোণ
অপরিসীম
চার্টার্ড
নাটকটির
##সাতজন
রেস্টুরেন্ট
স্বর্গ
প্রতিপন্ন
আবহাওয়ায়
##বের
অনুপম
পেমেন্ট
ইউক্রেন
থে
অক্ষত
অন্যভাবে
স্বপ্নে
সুন্নত
গ্যারি
পৌরসভায়
অচলাবস্থা
মনোরম
ভাবুন
মানসিকতার
অনড়
ফেলি
নতুনত্ব
জুমার
সপরিবারে
ছড়ানোর
জনসভা
লেনিন
তীরের
বেইলি
##ছা
ইয়েমেনে
##ানন্দ
বাজেয়াপ্ত
ইফতেখার
ব্যাঘাত
সাইফুজ্জামান
পুষ্টিকর
করাচি
##ন্স
গ্রাউন্ডে
অতটা
পারছিলেন
অভাবের
খাওয়ানোর
নীরবে
সাইমন
বেগে
ভুগছে
রীতিনীতি
গুলোর
মিনারে
সুবিধাবঞ্চিত
একদা
কামরুজ্জামান
ততক্ষণ
টিপ
যুদ্ধবিরতি
মেইন
##পুলিশের
সাধক
##চীন
ক্যাটরিনা
কন্যার
সরকারও
আমেজ
নাসা
ছ
ইনডিপেনডেন্ট
##কেন
পত্নী
বৃহস্পতি
সুদহার
মুন্সিগঞ্জ
খ্রিষ্টপূর্ব
রেশম
সম্মিলিতভাবে
অ্যাঞ্জেলেস
##নারী
ফুসফুসের
বঙ্গোপসাগরে
সহিত
গেমিং
উড
##অ্যা
ট্রিলিয়ন
খণ্ডকালীন
আলেপ্পো
আইস
দহন
শাসনে
ট্যানারি
নরওয়ে
প্যালেস
##ঘ
ব্যাটারির
সিরামিক
পয়েন্টের
ক্রান্তীয়
নাশকতা
##বদ্ধ
মেসেঞ্জার
##মানের
ছক্কায়
নিরাপত্তায়
জুডিশিয়া
শ্রেণিকক্ষে
##ভূমি
কেউবা
ডাকাতির
ছয়টা
এএসআই
ভক্তি
অচেতন
গলি
প্রতাপ
অ্যাডাম
নেলসন
নাকের
কবরস্থানে
চালনা
গ্রীষ্মের
সাহারা
পাঠ্যপুস্তক
সার্কাস
ভ
টানবে
দূরত্বের
##মাকে
শেষভাগে
ক্যামেরন
বয়কট
নামবে
থেরাপি
ব্লেন্ড
গণভোটের
যত্নে
হারিয়েছিলেন
আসলাম
উড়োজাহাজের
সুই
ফ্র্যাঞ্চাইজি
ভদ্রলোক
ইন্টারফেস
হাসির
কাবুল
শক্তিধর
রথ
সুযোগও
জয়েন্ট
সারাক্ষণ
শরণার্থীরা
জার্সিতে
##পূর্বক
##ভাব
ফিশ
বোনকে
সাঃ
আধুনিকায়ন
ওয়াশিংটনে
সহপ্রতিষ্ঠাতা
মেট্রোরেল
বন্দি
বসের
রাঙ্গামাটি
আমাজনের
গুহায়
মারাত্মকভাবে
হাজি
ভান
দত্তক
ভারতবর্ষের
জিনগত
##ছিলাম
দুরবস্থা
দুর্গের
বীমা
রোমাঞ্চকর
অধিবর্ষ
গণরুমে
চায়নি
ক্ষিপ্ত
পুষ্প
বইমেলায়
অনুশীলনের
ঢাকাসহ
সেঞ্চুরির
নিহতের
উদ্দীপনা
আমদানিকারক
খাজনা
##্ত
বিচারাধীন
##আপনি
অপরাধীরা
নিরাপত্তাহীনতা
পিয়ার
মনজুর
মন্ত্রীরা
হোস্টেল
পটভূমিতে
সিআইডি
মিলল
##খানা
এগোচ্ছে
পাড়ায়
বদ্ধ
হাঁড়ি
অহেতুক
হেমিংওয়ে
পাশ্চাত্যের
বিলম্বিত
##ন্ট
##কেন্দ্রে
বিটিআরসির
ভাসানী
ডিজনি
সম্মানের
মিটারের
দোহাই
রেলস্টেশনের
পাদদেশে
রাজনীতিকে
ইনিংসটা
ওয়াল্টার
পরিবেশনের
বার্সেলোনায়
রানওয়ে
##্যে
চাবি
চিলড্রেন
জানাচ্ছেন
মহাজোটের
লেস
ঠা
অনেককে
অস্ট্রিয়া
ডাউন
ঈদগাহ
রোনালদোর
নীতিনির্ধারকেরা
উইন
আর্সেনাল
##অন্যদিকে
##অক্সিডেন্ট
ক্যান্টনমেন্ট
##বলের
ফাঁসের
##প্রায়
ডায়াবেটিসের
হ্যাটট্রিকের
বিশ্বায়নের
হিজরি
অনির্দিষ্টকালের
গ্রামগুলো
রজার
ইনসুলিন
নিশ্চিহ্ন
কন্নড়
পৃ
ঘষে
ত্রুটিপূর্ণ
জানায়নি
দুইটার
মওদুদ
এসকল
##ণাত্মক
থ্রিলার
সহজাত
মাফ
একদমই
ছাত্রসংগঠনের
মেধার
জ্যাকসন
সম্ভাব্যতা
ইসলামে
মাত্রাতিরিক্ত
বনু
বিশ্বকোষ
অন্যায়ের
পেছনেই
অভি
মিডল
সংগ্রামী
ছোড়ে
কমিউনিকেশন
ফিল্মস
সিডনিতে
একচ্ছত্র
ধর্মগ্রন্থ
দর্শকসংখ্যা
##অধ্যুষিত
অবহেলার
ছাত্রদল
সংশ্লিষ্টতা
পার্টনার
দেখেননি
লিপির
হলি
আলবার্ট
হ্যাট্রিক
অবহেলিত
হামলাকারীদের
ইশতেহার
তদারক
শিকদার
মূলনীতি
বিস্ফোরিত
ফেললেন
ছড়াতে
তরমুজ
##ছেলে
##কালো
বাড়াবাড়ি
##খান
আলজেরিয়া
আচমকা
প্রেরিত
জুটির
কর্মপরিকল্পনা
সেদিনের
স্লিপ
স্কুলটি
কেস
লেবেল
নির্দেশিত
গ্রীষ্মকালে
##টিক
প্রবাল
মৌলভীবাজারের
টইটম্বুর
দিকটা
মহাবিশ্ব
স্ট্রিং
বিবিসিকে
উঁচুতে
স্কোয়াডে
##নিকাশ
বদলানো
মধ্যযুগের
বিহারে
##ষ
প্রতিটা
সার্বজনীন
নৈতিকতার
বসেছিল
চল্লিশ
তারকারা
বাহার
রামচন্দ্র
দীপক
বৃত্ত
##বার্গ
ফ্যাক্টর
বেড
দার
অভিব্যক্তি
##পাকিস্তানের
বাক্সে
কংগ্রেসকে
মিট
রুখতে
থমকে
ফিতা
পিবিআই
বায়ার্ন
##িজ
মালভূমি
নান্দনিক
কামার
প্রচ্ছদ
খামারে
মাও
রেওয়াজ
ওয়াং
ক্লাসের
স্বভাবত
জাতিগোষ্ঠীর
উৎসে
পৌঁছাবে
তালেবানের
বাঙালিরা
সানডে
ফটোকপি
ত্রিমাত্রিক
##বেল
জিতবে
##ঞ্চ
শিং
বিষ্ণুর
##সাধারণ
ছাত্রসংগঠন
ফ্ল্যাটের
পান্না
অনুভূতির
উপসাগর
নির্ণয়ের
জেলেদের
বাগদান
রান্নাঘরে
নিষ্পত্তির
মেরেছিলেন
কাপ্তাই
কোরআনে
প্রতিযোগিতাটি
ওপারে
পোলাও
ইসরাইল
জলপাইগুড়ি
বঙ্গবন্ধুকে
মূল্যবৃদ্ধির
দেশটিকে
##দিনটি
সিকদার
বাঁক
বোঝাপড়া
সীমাহীন
অনাস্থা
কিতাব
সুফিয়া
যুক্তির
ধনে
নিতান্ত
প্রতিভাবান
##স্থল
মান্যতা
আমান
নিশ্বাস
রূপান্তরের
ক্রাইস্টচার্চে
বিশ্বখ্যাত
টেলর
ক্রিয়ার
মাহফুজ
পাড়ুকোন
আড়তদারেরা
##মারা
ফেল
দিবসটি
রেকর্ডের
অস্ট্রিয়ার
সিদ্দিকুর
দুশ্চিন্তার
অনুরাগ
থেকেছে
শিলিগুড়ি
অ্যান্ডি
ছেদ
ব্রুস
পুকুরের
নিউটন
অজস্র
আত্মসমর্পণের
কেনিয়া
গ্রিস
কেন্দ্রীভূত
বাড়াবে
শিলালিপি
প্রবন্ধে
সিএমএম
অনুকরণ
চ্যানেলটি
গণভোট
##কাম
##সরকার
চন্দন
দোকানপাট
ফিজিও
পাত
হিন্দুরা
উইলসন
অনিশ্চয়তার
নির্বাচকমণ্ডলী
নাটোরের
মুখ্যমন্ত্রীর
সিদ্ধান্তকে
আসক্ত
যক্ষ্মা
মিত্রদের
সিপিএমের
দমে
গৃহিণী
শিশির
কেনাকাটার
ইউরোর
অনুপস্থিতি
অভিধান
ছয়টার
পরিকল্পিতভাবে
রাজনীতিবিদেরা
বাল্যবিবাহের
ইত্যাদিতে
##মামলার
কায়েস
রাজন
এমনিতে
মম
সার্বিয়া
মহেশ
আইপি
পুষ্টির
##ন্দা
মঈন
উচ্ছ্বসিত
বর্জনের
ব্যাডমিন্টন
এলজি
দুর্বলতার
ভঙ্গুর
##থি
পড়তেন
প্রণালী
বড়দিন
কর্ণ
তিনটায়
চূড়া
উদ
প্রাবন্ধিক
অটুট
সাসেক্স
অনুষ্ঠানমালায়
কার্লোস
##শো
প্রিয়া
উৎসের
অলি
মিঠুন
বৈ
##গতভাবে
সেমাই
স্ক্রিপ্ট
ইংরেজদের
ইন্দোনেশিয়ায়
সুদৃঢ়
হাইব্রিড
বলো
আগষ্ট
হাউজিং
এগারো
ব্যাঙ
সৌদ
আঠারো
বিপত্তি
স্থূলতা
কৃতজ্ঞ
অ্যালেক্স
অপো
##জীবন
কমতি
মরহুম
##লাস
অঙ্কিত
উইঙ্গার
##ঢাকার
যাচাইয়ের
টপকে
দ্বীপটি
টিলা
সিজার
দাপট
হৃদয়ের
স্বর
##শূন্য
রবীন্দ্রসংগীত
গতিবেগ
ব্যাপ্তি
ছাত্ররাজনীতি
##তান
আত্মসাতের
মিলনায়তন
ইভান
সাইড
নয়টা
সিরিয়ান
অসন্তুষ্ট
##লাভ
রোগমুক্তি
জুবায়ের
অফিসিয়াল
পেশাদারি
চাষে
লেখাপড়ার
বুলেট
বায়ুর
উৎকর্ষ
বোঝানোর
রিসোর্ট
ফারাজ
জর্জরিত
বেদ
চু
জেটি
তুলছেন
গৃহবধূ
পরিনত
জনসমর্থন
আটটায়
জিয়াউল
অধিবাসীরা
যেমনটি
সমন্বয়ের
মানুষজন
##সিলেট
ব্র্যাকের
সরকারব্যবস্থা
শৌখিন
স্থগিতাদেশ
কোতোয়ালি
মহসিন
অটোমান
মারাঠি
মহাকাব্য
সৈকতে
বেহাল
সিআইএ
ভালোবেসে
সিরি
বাস্তবিক
মিশরে
##য়েন
নিশ্চিতভাবে
খাদি
চেহারায়
তল
মসলার
পৃথকভাবে
দিকগুলো
টানেল
ভারতী
##যার
##িরা
তারুণ্যের
মতবাদের
জমিদারি
বলিভিয়া
ফুসফুস
ভৌমিক
বানু
কলকারখানা
খোন্দকার
দক্ষিণাঞ্চল
প্রেসক্লাবে
কেনিয়ার
সেপ্টেম্বরের
কোনোটাই
##সী
##যেখানে
বাচ্চারা
প্রবাসীদের
পিএসসি
ভিত্তিহীন
বিলুপ্তির
গবেষণাপত্র
সুলতানের
চিলির
তথ্যপ্রমাণ
দ্বিপাক্ষিক
আদিত্য
জীবদ্দশায়
গঠনতন্ত্র
সহযোগে
##ানো
গণ্ডি
স্পষ্টতই
গণফোরামের
নাইন
রন
##চ্ছে
সুষমা
পুনর্বাসনের
এবিসি
আরেকজনের
মহাজাগতিক
কমেনি
বিশেষত্ব
শীষ
জোলি
বাচ্চার
নাগ
নিউমোনিয়া
সুপারস্টার
হাজিরা
স্পিনাররা
এফসি
প্রস্তর
ভোগেন
মোহাম্মাদ
শিকারে
ছক
শিরা
সর্বস্তরের
সংক্রামক
ভেতরেই
ডিস
পোড়ানো
প্রশান্তি
উল্টাপাল্টা
গ্রিসের
সহনীয়
ত্রিশ
হিম
কাউন্টির
অবকাঠামোর
পত্রিকাটির
প্রাইমারি
আলীকে
##তুর
মোড
ব্যাংকক
শুঁটকি
নড়াচড়া
বাৎসরিক
তরুণকে
রক্তক্ষয়ী
থাইরয়েড
প্রটোকল
সদা
রহ
ব্যাপারেও
কায়রো
রিপন
শোনেন
ধারাবাহিকের
হরমোনের
ইউজার
পটাশিয়াম
প্রস্রাব
উড়োজাহাজটি
##পুরের
লেবানন
কলাম্বিয়া
ভোক্তাদের
##কিশোরদের
আবে
কিমা
জরুরী
হিমাচল
জৈবিক
অলরাউন্ডারের
প্যাটেল
হইতে
শিরীন
ভিক্টর
শিকারী
জোহর
গাল
##পরিচয়
##গাছ
অন্তর্ভুক্তি
পাঠাগার
পেঁপে
খাসোগির
ইন্টেল
কায়সার
ভুলতে
স্থাপনে
##ভে
##বোন
রাস
হিটলারের
পুনর্নির্মাণ
সমস্যাটা
মৃতের
ততোধিক
##বিদেশের
ফিরতি
কলম্বিয়ার
##ওয়েল
উদ্বৃত্ত
ফিলিপাইনে
সারের
তথ্যচিত্র
ভর্তা
শয়তান
##ছয়
পার্ল
এতগুলো
মাওবাদী
হিটলার
পরশু
রুপ
কাতালান
##করা
ডাবের
প্রাণে
করিডর
মিনা
ভৌগলিক
রেজিমেন্টের
সুদূরপ্রসারী
ইতিপূর্বে
জুলফিকার
জেনেও
ঝোঁক
নয়টায়
বুনো
বেঞ্চে
তরঙ্গের
গাউন
দূর্বল
ফারসি
ফারমার্স
বোপারা
দর্শনে
ব্রিফিংয়ে
তাকালে
সপক্ষে
ফটকে
##কিছু
রুনা
মান্ধাতার
পদবী
অঙ্কে
##পদ্ধতি
ক্যারি
দালান
বিবাহবিচ্ছেদ
সংস্কারকাজ
তৃতীয়বারের
হানাদার
মোর্চার
গোর্খা
লিবিয়ার
ভঙ্গিতে
যেটুকু
বসেছেন
শেষবার
বিছিয়ে
ভেষজ
যুগান্তকারী
সমার্থক
কুমারী
কাঠগড়ায়
ডায়মন্ড
আর্থিকভাবে
মিলের
শিক্ষাক্রমের
পথচারীদের
বলয়
গলফ
জরিমানার
আড্ডায়
নায়েক
উবারের
রান্নাঘর
দার্জিলিংয়ে
যুদ্ধক্ষেত্রে
##েবল
ধুমধাড়াক্কা
পিঠের
দেখলেই
হাফিজুর
ইফতারের
##সাথে
তিক্ত
মিউজিয়াম
ফড়িয়া
ছাত্রছাত্রীরা
ঘনিষ্ঠতা
সংখ্যালঘুরা
সাইদ
আফতাব
কতখানি
তখনও
হেলেন
ভ্যালি
পাপের
ম্যাজিক
ফজল
হুইপ
ব্লগার
পুরুলিয়া
প্রত্যেকে
উষ্ণতা
ট্রাস্টের
জলাভূমি
সাধিত
ঠোঁটে
ইউনিভার্সিটিতে
দর্শনার্থীদের
##স্থানীয়
প্রবাহের
নীতিমালায়
জেলি
অস্ত্রশস্ত্র
ক্ষীণ
পরলে
রসদ
জাফরান
তথাপি
ম্যান্ডেলা
পেট্রলবোমা
##াব
অংশগ্রহণকারীদের
আরএসএস
বায়েজিদ
যোগী
পরিবর্তনশীল
সলিমুল্লাহ
প্রাসাদে
গড়িয়েছে
ক্যাথরিন
লাওস
বিআরটিএ
দলনেতা
##ভাই
হাওরে
গীতা
##সমূহকে
অশান্তি
মেসেজ
ব্যাংকগুলোকে
কার্যদিবসের
##বলা
কালোটাকা
মতবিরোধ
টুডে
এবি
দেশপ্রেম
কাজই
কাবা
ওসমানী
রাধা
ড্যান
কিরণ
প্রাসাদের
লুঙ্গি
কার্যকরভাবে
মন্ত্রণালয়কে
##ধা
ইরানকে
##িটি
অলৌকিক
সাক্ষর
##স্তা
##প্রধানমন্ত্রী
জল্পনা
উন্মোচিত
মাৎস্যবিজ্ঞান
অবিবাহিত
##িট
অধ্যয়নরত
##বেশি
##সমর্থক
জানাল
এফবিসিসিআইয়ের
শেড
মহাদেশ
যশোরে
ইনি
প্রকল্পটির
পাকিস্তানিরা
পোলো
বাক্
আনেনি
হ্যাটট্রিকও
দেশগুলোকে
##মার্ক
অপরাধমূলক
করবার
মোরশেদ
##যুক্তরাষ্ট্রের
অনুপযোগী
কিশোরীকে
হাওয়ায়
বর্ণনায়
চেয়ারে
অধ্যক্ষের
##ুক
ঢল
গুলশানে
জ্যাকব
পুঁজিবাজারে
##মিঠুন
গেইল
কক্ষকে
পৃষ্ঠায়
##দাবাটা
ট্রাস্টি
স্কি
দিগন্ত
আটা
জায়গাতেই
##কাটা
##মাল
বারে
ছোঁয়ার
গেঁথে
নিয়োগপ্রাপ্ত
খালেক
দেশপ্রেমিক
বেড়ানো
পাপুয়া
##নীল
ঘনিষ্ঠভাবে
##ূ
ব্যবহারকারীকে
সুতার
জট
এগিয়েছে
চেম্বারের
সন্ত্রাসবাদী
পরগণা
উজ্জ্বলতা
শবে
ফরিদপুরের
নিরপরাধ
##পানি
তাসকিন
ওয়ে
বাছাইয়ের
আইকন
গালি
প্রযুক্তিবিষয়ক
প্রশ্নই
সিনড্রোম
এড
শম্বুক
একবারে
হান্নান
উপভাষা
মেলবোর্ন
সোফিয়া
মুম্বই
আর্মেনীয়
মারমা
স্প্যান
মরণোত্তর
ব্যঙ্গ
ধ্বংসাত্মক
গুঁড়ো
সরকারই
##শিক্ষক
আড়তের
ওলন্দাজ
কাকা
মিহি
কামড়
ডিজেল
কোয়া
পেট্রল
##দ্বয়
গণধর্ষণের
##কাশ্মীরের
পদ্মার
এফএ
আগ্রাসন
কর্মক্ষম
টিমের
আয়না
ভীম
স্রষ্টা
ইনজেকশন
স্বল্পোন্নত
শঙ্কিত
হেনস্তা
সেজে
কেনেডি
অবমুক্ত
##ওয়াই
বহর
অঙ্গরাজ্য
কৃষিব্যবস্থার
চলেন
##কাটাকাটি
ধারক
প্রসারের
বেড়াচ্ছে
এইডস
কম্পিউটিং
##লস
বৌদ্ধবিহারে
ক্রিসেন্ট
গুঁড়িয়ে
বেড়ানোর
কেইন
নির্গমন
ফেরদৌসী
সুইচ
ছেড়েছে
ঘাটতির
কনসার্টে
প্রগতি
অলংকার
##ড়ি
জিনিসের
যানবাহনে
বাস্তুচ্যুত
ধর
বার্ড
পোল্যান্ডের
এলাকাবাসীর
শিক্ষাক্ষেত্রে
খালে
অদক্ষ
মাঝেমধ্যেই
##ভের
বাক
জোয়ারের
এসোসিয়েশন
পোকামাকড়
ভিজিট
আবাহনীর
##ল্ড
##য়ন
নামকরণের
##টেন
অপরাধীর
তুঙ্গে
##সিটি
সচিবালয়ের
কানাডীয়
ধোনির
শরিফে
পালি
গৃহবধূর
শনি
সার্থক
ওএস
ইঞ্জিনের
কোমরে
কর্মচারীরা
গোসলের
সাইনবোর্ড
গিল্ড
##গেট
##টোয়েন্টিতে
আংশিকভাবে
স্লো
##ভান
মনোবিজ্ঞান
ক্রিস্টাল
মসলিন
দাঁড়িয়েছেন
সন্দ্বীপ
স্মার্টফোনটি
রাকিব
খুঁজছে
চকরিয়া
সংবেদনশীলতা
মতের
ড্রাগ
বনি
লক্ষাধিক
মেন্ডিসকে
বশির
বেলে
রসায়নে
সম্মানী
##যেমন
খড়
পিতামহ
সংস্করণটি
চালিয়েছিল
ট্রেলার
ট্রাম
সিমেন্টের
গিল
পাঁচজনকে
চারিত্রিক
ডিভিএম
দৃষ্টিনন্দন
গরমমসলা
ফিরবেন
লোশন
সিপিডি
বজ্র
##হীনতা
কাহিনীর
ডেভিস
বিষয়গুলোর
রেখেছি
গাজীপুরে
ধাতুর
ডিউক
নবাগত
নির্জন
উদ্যাপন
মেন্ডিস
পরেছিলেন
কালীগঞ্জ
অভিযোগও
অনেককেই
লিগা
সার্ভে
মেন
অঙ্গরাজ্যে
##ধ
##জী
লেকের
##নাল
করছিলাম
চূড়ায়
লেজের
##জ্ঞান
##কারি
চতুর্দশ
##াক
প্রস্তুতকারক
পন্থায়
সংগ্রাহক
##প্রশ্ন
##আরও
টেপ
মিলস
##িদের
ব্রাজিলে
পুঁজিবাজার
কাদেরের
প্রতিবেশীর
সামিট
সন্দিহান
নায়কের
জহুরুল
বান্ধবী
ফ্রেড
পরিভাষা
নাসরিন
টেররিজম
ঢাকাগামী
য়ে
সহজভাবে
জলাধার
ফ্যাশনের
খাদিজা
জাকারবার্গের
##জিন
##ক্
বরফের
অনেকখানি
রুদ্ধ
জেতে
সিদ্ধান্তটি
গোপনীয়
শা
শিমুল
তুললেন
নাড়ুন
সৃষ্টিতে
দিছি
পিংক
পরিবহনে
প্রসারে
নববর্ষের
পুষ্টিবিদ
স্বৈরাচারী
অপারেটরদের
অজ্ঞান
##ভরা
ছোলা
ব্যবসাসফল
তোয়ালে
অর্পিত
অসমাপ্ত
তিমুর
মেরুকরণ
ভোরের
##াইল
পেয়েছিলাম
##নির্ধারিত
উপমন্ত্রী
নিশ্চিতভাবেই
মিলনের
গঙ্গার
খেলানোর
সান্তা
প্রসবের
চিরস্থায়ী
এলাম
খ্রিস্ট
বেরিয়েছে
জুটিটা
নজরুলের
উম্মে
দিনেও
গ্রেস
ফোকাস
অযথা
দারুণভাবে
নরক
মানবজাতির
দামেস্ক
##দ্
হিন্দ
এএফপিকে
এতটুকু
অপকর্ম
শাহিন
মির
উৎকৃষ্ট
জনশ্রুতি
বৈবাহিক
নামাঙ্কিত
এলিট
##আবর্জনা
রেকর্ডটি
তথ্যে
সুদান
##তুল
সঙ্গীতশিল্পী
জানালার
ব্রেক্সিটের
প্রতিক্রিয়ার
ভাষাভাষী
তাজ
সাম্রাজ্যে
অভিমুখে
প্রশিক্ষণে
আলা
অ্যালগরিদম
মিশ্রণে
গঙ্গোপাধ্যায়
জেনিফার
রেফারেন্স
ভোগে
বরকত
বিসিসিআই
জোনাস
উত্তরাঞ্চলে
দলটিকে
আরবী
গিয়েও
মধ্যপ্রদেশ
আটকের
##উড
##বছর
##পতি
প্রা
শিক্ষাজীবন
কুদ্দুস
ফয়েজ
মুক্তিপণ
রাষ্ট্রপ্রধান
চিজ
ফিদেল
স্যামুয়েল
মেলাতে
সুখে
তাজুল
বৈষম্যমূলক
জনে
সুনির্দিষ্টভাবে
্যাঙ্কিং
আফসোস
লাস
লগ
উঠছেই
ভাষাটি
রমজানে
কেওয়াটখাল
মার্বেল
পূর্বশর্ত
উধাও
হেয়
শিক্ষাকে
দেবতাদের
সমাগম
আদর্শিক
প্যানেলের
পর্যটকেরা
কোটার
ভাঙ্গা
অবাস্তব
ধ্রুব
##দেবী
বিষ্ণুপুর
আইনস্টাইন
বাহরাইন
অক্ষ
আদর্শে
সাঁওতাল
কয়
হ্যাশট্যাগ
দুর্নীতিগ্রস্ত
##আবেদনের
যোগান
শেফিল্ড
দাঁড়াল
ঠেকিয়ে
অ্যাম্বুলেন্সে
পরিমিত
আন্দোলনকারীরা
##হর
##িম
তাজিকিস্তান
কমান্ডো
দুর্গাপূজা
দরপতন
উপকমিশনার
গ্রাহাম
##উদ্দীন
ইঞ্চির
চ্যাট
ইকো
ফটোগ্রাফি
বেদান্ত
ফাজিল
পাখা
জীববিজ্ঞান
ভা
##সময়
ভাসিয়ে
##ন্ডা
##লান
গ্রাহককে
চলাচলকারী
কলিন
জিন্নাহর
ড্রাম
হটিয়ে
সেলস
##ীন
জেলেরা
আওয়ার
ভাড়াটে
প্রযোজনার
মহাখালী
মদিনায়
শ্রাবণ
মাখা
নিরূপণ
তিমি
প্রাণঘাতী
পপলার
স্বতঃস্ফূর্ত
ডেন্টাল
পদকে
ড্রাইভিং
##াকার
অধ্যায়ে
দৌলতপুর
##সুলভ
উড়োজাহাজে
কাউন্সিলে
##়
ফেট
##ইউরোপীয়
সীমানায়
রাডার
সামার
পদার্পণ
বাস্কেটবল
থাকলেন
ইউকে
প্ল্যান্ট
সময়টায়
##ভাষী
নামাতে
চুন
বিটা
মোড়ক
টিউব
সম্পর্কেও
সর
নিলেই
সঙ্গীতে
বেত
বাহু
##হাই
##লেট
করেছিলো
হানাহানি
ইস্তাম্বুলে
চাষাবাদ
লোভনীয়
উপাধিধারী
স্থানীয়রা
নাইট্রোজেন
হিরোশিমা
চালককে
লিউ
মণিপুর
মেরেছেন
গেটে
প্রতিবন্ধীদের
নৌপথ
কামিজ
মহিলারা
অর্থায়নের
সিএ
রসিকতা
মরুভূমি
কেন্দ্রবিন্দু
বয়সীদের
হলোঃ
মহারাজ
কেজির
নগণ্য
প্রিন্সিপাল
##শু
পৌছায়
##বর্তী
দীপু
ককটেল
মতোদিন
নথিতে
এধরনের
বাটিতে
হবু
মহাদেশীয়
বিরোধিতার
কারণগুলো
##দাতা
আর্য
ডিভিডি
সেনানিবাস
প্রলেপ
বুফে
##এরপর
প্যা
##মেদ
আয়শা
এসেই
হরণ
সম্বলিত
##ইংরেজি
অন্ত
অভিমান
খোয়া
সফট
হত্যাকারীদের
রউফ
বশে
ফ্যামিলি
হেমন্ত
ওড়না
##গণের
উদ্যোগকে
রাষ্ট্রবিজ্ঞান
স্টাডি
জর্ডানের
বস্তি
মুখার্জী
ক্ষতিগ্রস্থ
জামালকে
উইঘুর
নাদিয়া
মডেলে
খন্ড
মোর
চারটায়
##কৃষ্ণ
হেপবার্ন
সিলভা
মিরপুরের
দুর্ভোগের
নাট্যধর্মী
উমা
কর্মক্ষমতা
বিধিবিধান
কাক
ভেবেচিন্তে
অনিরাপদ
আবর্তিত
উপনিষদ্
আহার
বড়জোর
জনমুক্তি
কেন্টের
ভিক্ষু
উত্তাপ
এরদোয়ানের
প্লাজার
##অনুষ্ঠানে
ব্লাউজ
ওয়াটসন
শেন
চলল
পারস্যের
##খোলা
অটোরিকশার
গোড়ালি
মনিটরিং
তাণ্ডব
আবদার
হস্তান্তরের
রাখব
কামড়ে
ছাতকে
তথ্যাদি
গয়নার
অনির্দিষ্ট
নামীয়
হেনা
কবুল
##সরকারি
অনবদ্য
ঝড়ে
নৃতাত্ত্বিক
তানিয়া
চাঁদে
অসংগতি
ফাহিম
অ্যাকাউন্টের
##লতা
##মোর
নাগালে
সদরদপ্তর
ধ্রুবক
সুস্পষ্টভাবে
সার্ভ
ভেড়া
পুঁজির
সত্তর
অঘটন
ফারহানা
বেজ
ক্রিয়েটিভ
বিরক্তিকর
ঘনীভূত
##ষা
কনে
বকুল
নিউজের
তলোয়ার
ক্ষতিপূরণের
পাসও
মাহে
##জিয়া
ঘটিয়েছেন
মেরুকরণে
সরস্বতী
প্রথার
নিম্নে
##ীরা
##লোক
জুম
মালিককে
বরগুনার
ফোর্ট
হ্রাসের
ইয়ো
কইর
##ীত
দীন
বিস্ময়ের
মোশন
##শেস
ওয়াইড
কোষাধ্যক্ষ
ইনপুট
বিনিময়ের
যাত্রাপথে
##ণী
সাজিদ
দূরপাল্লার
পোলিশ
কাবুলের
হার্ডি
আতিকুল
টস
কিসিঞ্জার
স্বার্থেই
সন্তুষ্টি
কেঁদে
সঞ্চিত
##দেরকে
পদবি
ইল
তামিলনাড়ুর
কন্ঠ
##যোগে
ব্যস্ততার
মালি
বলাই
অবিশ্বাস
মোহ
ফায়দা
মিশা
সভাপতিমণ্ডলীর
কল্প
##মতো
জগ
শিক্ষিকা
পেঁয়াজে
##সাদা
জীববৈচিত্র্য
হুবহু
স্ট্যানফোর্ড
অগণতান্ত্রিক
ফোর্ড
বাঁকানো
ক্রাউন
তেজস্ক্রিয়
লবঙ্গ
হিসাবেও
ত্রিভুজ
লেবাননের
আসিয়ান
জিপিএস
চকচকে
আইনজীবীর
লাস্ট
##চতুর্থাংশ
##নিরীক্ষার
##শিক্ষার্থীসংখ্যা
মনোনয়নে
উত্তরপ্রদেশ
জটিলতায়
ইহুদী
##াতে
অ্যাকাডেমি
চাক
দানব
উপনির্বাচন
শুধরে
ওয়াইল্ড
রাজনাথ
বৈশাখে
শাসনব্যবস্থা
দায়িত্বভার
বিচারকেরা
এসো
খাচ্ছেন
ভিসার
শৈশবের
টাচ
রামায়ণ
প্রোডাকশন
অ্যানি
পার্সি
সাম্য
অতিষ্ঠ
সায়েন্সেস
জাপা
প্রদক্ষিণ
হালদার
আইনসভা
ফাঁড়ির
সাদিয়া
মিসেস
মুজাহিদ
তালিম
হোল
মিসাইল
এরিয়া
তাকাতে
পরমাণুর
ফ্লাইটে
##বর্তমান
সদরঘাট
##িনা
কাটবে
পিতামাতার
খায়ের
##মনে
উপপ্রজাতি
ইয়র্কের
ইনভেস্টিগেশন
ঘোরাঘুরি
চিরায়ত
চেনেন
স্যানিটেশন
স্যান
অলিম্পিয়াড
ব্যাচের
সুদর্শন
দক্ষিণপন্থী
কোটায়
ধোয়ার
লায়ন
প্রাচ্য
ডাকনাম
সংগে
ইনভেস্টমেন্ট
##িকে
ডেনমার্কের
গৌণ
উজাড়
ডগলাস
অবিরাম
তামা
##নিত্যপ্রয়োজনীয়
বুঝবেন
সজল
হারুনুর
শবনম
আকর্ষণের
খেসারত
গবাদিপশু
চাকরিজীবী
মনটা
পুরোহিত
সাক্ষাত
খিলান
সিঙ্গেল
গুনাহ
ভে
হামলাকারীরা
সেক্স
অপহৃত
অস্বাস্থ্যকর
নিয়ামক
সারোয়ার
##যদি
পেরু
জ্যাম
ফেলেছিলেন
প্রবেশদ্বার
##ার্ড
প্রেক্ষাগৃহ
##বী
পেরি
পিলার
ধারণক্ষমতা
রেস
##ক্ষেত্রে
বহুমাত্রিক
রেসলিং
থার্ড
পর্তুগালের
চিত্রনায়ক
ক্ষমতাবান
ফেরে
সময়টাতে
আয়ারল্যান্ডে
ওয়ার্ক
কয়লার
শিরিন
সংহত
সোলার
ফারুকী
শখের
##সাম
মেশিনের
বসলে
স্রোতের
বট
হচ্ছি
খীসা
এন্ট্রি
নু
শঙ্খ
জরায়ু
রুটের
##র্ন
স্পট
আন্তরিকতা
রাব্বানী
চরমপন্থী
ভূমধ্যসাগর
সমভূমি
ট্যুর
সরকারপ্রধান
কার্যদিবস
অবস্থানকালে
তোয়াক্কা
লাইমহাউ
ভেবেছিলাম
সিকিউরিটিজ
কার্যদিবসে
অবমাননা
ছন্দে
মর্যাদায়
ডাঃ
চেতনায়
##ক্ষেত্র
খোলস
ভেন্যু
জোন্স
ইটভাটা
##ক্যাল
দানের
অমূল্য
##ল্ট
শপ
দুইটা
##দর্শন
মনুষ্য
লার্নিং
সচেতনতার
মুমূর্ষু
খাদ্যশস্য
আলোচক
থেকেছেন
মূসা
কণার
সংবাদে
মকসুদ
বাকির
কুইজ
চালকেরা
বিরক্তি
উল্লেখযোগ্যভাবে
ইচ্ছেমতো
সিক্রেট
মানবাধিকারকর্মী
বিশৃঙ্খল
##অল্প
##ফে
শ্রমজীবী
বার্ষিকী
গ্রাম্য
গামা
খুঁটিনাটি
টে
লোড
নিউট্রন
শরীরচর্চা
অবাধে
##ীকরণ
তরুণীকে
পোষাক
খুশকি
সংরক্ষণে
এককথায়
জুয়ার
বাথ
##জল
সেদিক
ভোগান্তির
বিদ্যাসাগর
সাম্প্রতিককালে
স্পা
নবগঠিত
তীক্ষ্ণ
ফ্রম
চৈতন্য
অন্যজন
মোর্চা
বাংলাদেশসহ
কল্যাণের
##য়ি
রেলপথে
মুহূর্তেই
নাওয়ার
পচা
ক্রোয়েশিয়া
কিক
ট্রফিতে
শাহনাজ
পাবার
বিধ্বংসী
এলিফ্যান্ট
জন্মভূমি
ওভেন
হিস্যা
হকিং
পর্যালোচনার
##খ্যাত
মাঠপর্যায়ে
গণনার
শরীয়তপুর
উপাধিতে
আদনান
ফ্ল্যাটে
লিড
ঈর্ষার
গিয়েছি
মাহমুদউল্লাহকে
গিয়াস
বয়ান
রাজপুত
সঞ্চালক
কথ্য
সওদাগর
হাহাকার
হাইটেক
স্টলে
##বাজারে
ঝোলানো
ন্যানো
দ্রাবিড়
রাহুলের
##ম্ব
সেদিনই
শাড়িতে
সীমারেখা
মায়েরা
কুলি
##গাল
##র্ধ্বমুখী
##ৌ
কারচুপির
সমৃদ্ধির
আশি
সহকারে
ইচ্ছাকৃতভাবে
টার্মিনালে
ফলক
পয়সায়
অনগ্রসর
শুক্রাণু
নিহিত
ইনটেল
প্যাভিলিয়ন
আজিজুর
পেপ্যাল
রাবেয়া
জমান
আর্টিস্ট
অপ
ফুলকপি
সতর্কবার্তা
যুক্তিতে
মানস
সুদূর
টাইটেল
সাংবাদিককে
জিদান
##চাড়া
লিডার
ম্যাট্রিক
তড়িঘড়ি
সর্দার
##ব্লো
দেবনাথ
জমাট
গ্রন্থি
ফে
এমবিএ
পলিথিন
নেতানিয়াহু
কেরি
জনপ্রতিনিধিদের
অা
ফর্মে
##শত
ফাল্গুন
আনারস
নিম
গর্তে
শ্রমের
ঢোল
প্রাইভেসি
লোকটি
খাইবার
বানায়
##ধর
শিকারের
পাঠ্যবই
খাসির
ধসের
##ুল্লাহ
যশ
##সংস্কৃতি
##সবাই
##কলেজের
##সচিব
ম্লান
ভোটাভুটি
আনুশকা
দুর্দশা
মীরা
সুপারহিরো
শত্রুতা
নাজিব
মানুষগুলো
সহকর্মীরা
সের্গেই
নিরন্তর
প্রত্যাখ্যাত
অধিবেশনের
##নির
##বর্ণ
ল্যা
টেলি
লাসা
অশ্বারোহী
##কুচি
নেত্রীর
হিন্দুধর্মের
জাদুকর
হাউ
মহাপরিদর্শক
কাঠামোতে
##াঙ্গ
মিঃ
এপি
ইনু
স্টোরে
তৃপ্তি
##হালকা
রাজত্বের
অপারেশনের
সফটওয়্যারটি
রেখার
জীবনবৃত্তান্ত
কাটছে
মাশরুম
কক্ষপথে
চাও
প্রতারিত
সুসংহত
ভূপাতিত
এমবিবিএস
নামলে
টেক্সাস
্যাপিড
পুনরুদ্ধারের
বাঁচানো
##বিষয়শ্রেণী
প্রবাদ
লিফট
ম্যা
তাহলেও
ওমানের
হিউ
##দহ
##ড়ে
পদপ্রার্থী
অনুপ্রেরণায়
যুগল
এসিআই
যৌনতার
সরফরাজ
উত্পাদন
##তাম
##পেশার
খঁুজ
লাগেনি
পাল্টেছেন
সমালোচকেরা
তাদেরও
বুদ্ধিবৃত্তিক
হলঃ
চলো
হাঁটুর
কদম
বন্ধুবান্ধব
নিউক্লিয়ার
মাহমুদুর
##কাস
মেশিনে
অপার
আক্তারের
রাজতন্ত্র
হেফাজতের
ধনীদের
##গ্রাগ্স
অনুমিত
ক্রোধ
নাজমা
অমৃত
মোখলেছ
আকুতি
মুখোপাধ্যায়ের
আঙুর
সাইপ্রাস
মিটিয়ে
কিউবা
বিলুপ্তি
##ফোর্ড
প্রতিবারই
ভ্রান্ত
মন্তব্যে
ডালের
রজনী
শীষের
তাস
##েন্দ্র
ল্যারি
আইএলও
শ্রেয়
চার্চের
ডাকনামে
জানাবে
ভবিষ্যতেও
পরিশ্রমের
##রপ্তানি
জিএম
বাঙ্গালী
শোকের
আইটেম
মুন্নাফ
ক্যাম্পেইন
ট্রান্সপারেন্সি
আমৃত্যু
নিয়ন্ত্রণাধীন
অ্যাপার্টমেন্ট
ম্যালওয়্যার
রেন
আহমেদকে
পরিভাষায়
গভর্নমেন্ট
বনগাঁ
রিয়ালের
চলচ্চিত্রকার
স্বত্ত্বেও
বস্তিতে
রায়পুর
করপোরেশনে
ডেভ
##মাতার
##ীকৃত
ভেনিস
নিত
দুর্নীতিবাজ
সময়সূচি
স্মিথের
ধর্মকে
দুরন্ত
পিরামিড
স্তব্ধ
##বীর
সাধুবাদ
উন্মাদনা
শরীরকে
পেঁয়াজকুচি
##শ্রী
আভা
ভাগ্যে
জেসন
স্থায়িত্ব
পুন
বার্ল
অভিভাবকের
দুষ্ট
সাঁথিয়ার
চড়
উপাসনা
খেলাটা
##এখানে
##উদ্দেশ্যপ্রণোদিত
ঘাঁটিতে
গাবতলী
আহা
সাং
##আওয়ামী
যুবকদের
দেউলিয়া
প্রকাশনার
বাটার
সামান্যই
গিগাহার্টজ
বৈপ্লবিক
অমর্ত্য
লোম
সোডা
ষাট
পিয়া
যাও
বাগদাদ
গুহার
গ্লেন
নগরীতে
রোশন
অবধারিত
পূর্ণতা
বাঁশখালী
##লিক
##বিভিন্ন
জেনেভা
টেল
নিমজ্জিত
সংগতিপূর্ণ
কটাক্ষ
উচ্চশিক্ষিত
##জাকের
গোলাগুলি
মানচিত্রে
বন্
ছিনতাইয়ের
কারসাজি
স্মৃতিতে
##বালা
মকবুল
##িনি
চেহারার
ডেম
উজবেকিস্তান
হাওয়াই
লিভ
উৎপাদনশীলতা
শামসুর
উত্তরবঙ্গের
##ক্ষমতা
গুচ্ছ
খণ্ডে
আইইউসিএন
পায়খানা
##িয়ায়
জাবেদ
কালভার্ট
ধ
##বাবরি
দিনভর
স্কাউট
মোড়কে
আরেকটিতে
কম্বল
কার্ডে
##প্রকৃতি
মাহমুদের
আনলে
ফিনল্যান্ডের
পিপি
শ্রোতা
ছেড়েছেন
অনুবাদক
রূপপুর
নারকেলের
আহম্মদ
তোলপাড়
কয়টি
মাপকাঠি
খরা
নিচেরসারিতে
ভাগ্যবান
কৃষির
বলবৎ
##পর্যন্ত
আমূল
এলপিজি
ঘূর্ণন
পবিত্রতা
পোল
স্যান্ডেল
মুনীর
শেখর
খাট
সক্ষমতার
##তাকে
দাড়ি
বাল
চলক
রুবি
সুইজারল্যান্ডে
##চু
কলামে
হৃতিক
জনসাধারণ
##কেউ
##সারা
বৈশিষ্ট
যেতাম
দেখালেন
সিরাজগঞ্জের
হরেক
শাওমি
##দলের
রাফাল
নির্ভরতা
##শিশু
##কারীর
##খ্রি
ওভারেই
অস্থি
অলস
বর্ষণ
টেকনাফের
যিশুর
##রান
পরিসংখ্যানে
ইন্ডাস্ট্রির
উপজীব্য
বিবাহবন্ধনে
কল্পনার
চুপচাপ
অস্বস্তিকর
অতিমাত্রায়
শুকানো
গদ্য
সেফটি
সাতকানিয়া
সেটিংস
নির্মমভাবে
অনার
সূচকটি
লড়ছেন
বানিয়েছেন
##ভিন
বাইসাইকেল
একবিংশ
ডুবো
##ডাঙ্গা
অ্যাডামস
নব্বই
আর্মির
ফটিকছড়ি
হাতা
##রায়
তবেই
স্কোয়াড
ইভ
ইসলামপন্থী
নেইমারকে
কেরোসিন
রিমান্ডপ্রাপ্ত
##মিলিঅ্যাম্পিয়ার
##বাড়িয়া
প্ল্যাটফর্মের
পেশি
আসানসোল
মহানবী
বামন
##িতা
পরিষ্কারভাবে
মাহি
তালিকাটি
মন্ত্রিত্ব
ওয়েল
এফএম
মিথ্যাচার
জবাই
জেরা
তিব্বতে
প্রত্যেককে
মূর্তির
ক্লিনিকে
সাদামাটা
উর
ট্রিপ
কন্টেইনার
বলিষ্ঠ
বধ
কনডম
ভিয়েতনামে
লিওন
ওয়াকার
##খালি
আশিক
নিয়মটা
হয়েছিলাম
জার্সির
##ল্লি
ক্ষুদ্রতম
##কাজ
অবজ্ঞা
সারওয়ার
গার
বিষয়টিতে
দিশা
কর্মসূচী
ক্যাফে
মধ্যযুগে
কর্মশালার
লক্ষ্মণ
বাটি
সাহার
ডানে
আবেদ
স্বভাবের
ঘুরেফিরে
হাতেখড়ি
সন্ত
জমিদারী
উপচে
##পান
পিট
মৃত্যুদণ্ডের
ফ্লোরিডা
অতিথিরা
দুঃখিত
##করে
গ্রহণকারী
কাশ্মীরি
ব্রাজিলীয়
##জানা
কালচার
দরখাস্ত
ভাবছি
ঝাঁপ
##্টি
কলি
##প্রদানের
মুলত
##্সের
উপদ্রব
হাতবদল
ডাক্তারি
ওয়াহেদ
গ্যাং
ব্যাচ
স্বাচ্ছন্দ্য
ব্রাজিলিয়ান
জানাজানি
ঘন্টার
সিরিয়াস
ভাইবোনের
গর্বের
কুরআনে
সুখকর
ইকোনমি
সমর
ইতিকাফ
শায়েস্তা
নির্বিকার
যথাসম্ভব
অদম্য
বিভব
কানাডিয়ান
বায়ুদূষণ
নুডলস
কাঠি
একেকভাবে
##ইতুন
প্রতিকারের
দলগত
ব্যাটেই
ওয়াট
মিসরে
আইনী
শর্মার
সংগীতে
জননী
সৌজন্য
ঝুড়ি
আমর
##কোট
মদ্যপান
আধিক্য
গর্ডন
গুরুত্বারোপ
পেঁচিয়ে
ইমামের
ছিলনা
যেটির
সুতির
ফোরজি
অবক্ষয়
ফ্যাক্টরি
ডক
পূর্বাঞ্চলে
গুগলে
বৌদ্ধধর্ম
বরাবরের
ব্যাবহার
অস্থিরতার
কুলাউড়া
শাহেদ
সেবাটি
লঙ্ঘিত
নেহেরু
ক্যাপসিকাম
শিল্পপতি
জাসদের
ফেসিয়াল
নামমাত্র
সংস্থান
উপকারিতা
মৌজায়
জমিয়ে
সাম্যবাদী
জিতলে
##র্
সাক্ষাৎকারের
ভিনেগার
প্রাদুর্ভাব
তাপে
ব্যাঙ্ক
চেরি
মতামতকে
বাঁধার
ইলেক্ট্রন
যাজক
বেলুচিস্তান
টিআইবির
প্রতিযোগীদের
##ভূক্ত
উপলব্ধ
বাংলাদেশিরা
এক্সপো
চারদিক
বাঁধতে
তহবিলে
এফবিসিসিআই
স্টেডিয়ামটি
সম্ভ্রান্ত
অণুযায়ী
ভুগছিলেন
রোমা
অর্থবহ
পরিদর্শনের
বইগুলো
জাহিদুল
বেড়াচ্ছেন
আতঙ্কের
কবিতাটি
স্টপ
উদ্বোধনে
গ্রাফিক
ভাগ্যের
জলীয়
দাঙ্গার
ফোর্সের
##ীতে
লাদেন
হাড়ে
সেগুলোতে
কিংবদন্তী
পরিপূরক
ফ্যাকাশে
মন্দার
আপাতদৃষ্টিতে
ব্যবহূত
##জিৎ
আফ্রিদিকে
অনিয়ন্ত্রিত
মেটানোর
ডিভাইসের
অনুশীলনে
##উস
ব্যাগের
দিচ্ছিল
অবস্থাটা
শান্তিচুক্তি
মাধব
ফির
বর্ণবাদ
আশঙ্কার
নদে
পররাষ্ট্রনীতি
জুড়ি
ব্যবস্থাটি
উঠবেন
কেন্দ্রস্থল
খিলাফত
অনস্বীকার্য
কর্নফ্লাওয়ার
##লুগ্স
নাড়াচাড়া
স্যান্ডার্স
শাসকের
আন্দোলনরত
বীরভূম
প্রকৃতিতে
অসহযোগ
ওনার
জ্ঞানী
##নির্বাচন
ট্রাই
পরিহিত
তিব্বতি
নওয়াব
##রাষ্ট্র
সমালোচনায়
##মির
রাজেশ
ভেস্তে
অরক্ষিত
বেনজির
নীতিনির্ধারণী
ডায়ালগ
ভারতবর্ষে
স্বর্গীয়
উইকিলিকস
নিক্সন
##হাম
কর্মক্ষেত্র
##আট
মসুর
উমাইয়া
মুড়ি
ছে
শরৎ
শক
বিচ
প্যাড
আব্রাহাম
যত্রতত্র
আর্জেন্টাইন
ইন্ডাস্ট্রিয়াল
ভাষ্যমতে
ছেঁকে
পাঠিয়েছিলেন
শীর্ষস্থান
আইডিয়া
##যাওয়া
তত্ত্বাবধান
রেহমান
জেএমবির
কাওসার
বাড্ডা
টটেনহাম
##সিয়া
অঞ্জন
মতভেদ
ব্লকে
থা
প্রজ্ঞা
##সেখানে
##হলুদ
সিস্টেমস
ঈশ্বরদী
মোল্লার
করিমের
শুনলাম
অসহনীয়
সর্পিলাকার
যোগব্যায়াম
##স্টিক
ব্যস
সংগঠনে
বেষ্টিত
উন
পঞ্চাশের
গণভোটে
কিস্তিতে
ঃ
মাদ্রাসাছাত্রী
আবি
গ্রীষ্ম
সংস্কৃতিকে
ইউনেসকো
বিচি
সেক্ষেত্রে
##সুবিধার
শিশুসহ
অভিষেকে
সাজাপ্রাপ্ত
করিয়া
নানামুখী
পূর্বাঞ্চল
রাব্বি
##স্বাস্থ্যমন্ত্রী
ফিন্যান্সিয়াল
ওভেনে
দৈত্য
বিন্দুতে
পথচলা
তাঁবু
মনোরোগ
##সিস
জীবনযাত্রা
ধারন
সংযুক্তি
ট্রেন্ড
মুক্তা
##জনের
দুতার্তে
বাড়ী
মুসলমানের
ট্রেডিং
আনন্দময়
মঞ্চনাটক
লেখাটি
আন্দামান
##জুন
আর্নেস্ট
কলেজিয়েট
খোলেন
আরবদের
##পল
স্পিড
জামাই
দায়ভার
ক্ষমতাসীনেরা
মাওয়া
কয়েকদিন
নাস্তিক
##ৃ
সাবধানে
মোর্শেদ
##দিক
সংকোচন
গণভবনে
শেফ
সম্প্রচারের
আমিরাতে
স্বৈরশাসক
তেজ
অর্থোডক্স
ফিরছিলেন
চিত্ত
হিস্ট্রি
অভাবনীয়
বাহাত্তর
জোগায়
ক্রসিং
ধনাত্মক
বামফ্রন্ট
হত্যাকারী
##ভো
ধারাটি
এ্যা
কুটির
কৃষিকাজ
কমলাপুর
টেরি
ষোলো
নাইজেরিয়ার
##েন্স
আলবেনিয়া
ঐকমত্য
রাঙ্গুনিয়া
আইনসভার
বিমূর্ত
গবেষণাগার
সংখ্যাগরিষ্ঠের
ড্যান্স
ছাড়িয়েছে
সেসবের
সহজতর
রাফায়েল
চিন্তাধারা
আচ্ছা
তত্ত্বে
জীবনানন্দ
জনবসতি
নাইজেরিয়া
জয়পুর
রোডস
সবল
মিয়াকে
পেশাদারী
##আপনার
##প্রাথমিক
খাওয়াদাওয়া
রুই
জলবিদ্যুৎ
টঙ্গী
আসুস
বহিষ্কারের
প্রোটন
পুরোদমে
কাউন্সেলিং
বুদ্ধদেব
মজিবুর
স্মৃতিসৌধ
গড়েছেন
স্বদেশ
ধারণের
হেফাজত
ভয়াবহতা
##তী
দখলদার
ফর্মুলা
সুইং
হতাশায়
জীবনটা
সিলেক্ট
ড্রপ
গবেষণাটি
রাখলেও
নোমান
আনোয়ারুল
রসায়নবিদ
জবানবন্দিতে
বোট
একার
ক্লাবটির
##গিরি
শহরটিতে
নলকূপ
ফ্লাইওভার
ফরেনসিক
দ্বিতল
রিলিজ
বাঁধাকপি
অপর্যাপ্ত
##ব্যাপী
এমপিওভুক্ত
বালুর
শত্রুদের
তরিকা
সুবর্ণ
সুবিধাও
বেড়িবাঁধ
##জীবনের
ইচ্ছায়
বুলগেরিয়া
পিএসজির
##ফোন
সুবিধাভোগী
লিখিতভাবে
ফ্রাই
ফরমান
ফ্রিল্যান্সার
##শিল্পের
মশলা
##নগতকাল
ম্যাজিস্ট্রেটের
রক্ষার্থে
প্রজাপতির
ইয়াকুব
সহকর্মীর
কমলার
মোস্তাফিজ
বেচে
স্মারকলিপি
হর্ন
##সুর
সমন্বয়কারী
সঞ্চয়পত্রের
মোবাইলের
##টিভ
জ্বলন্ত
আশানুরূপ
মিচেল
##গুলোতেও
বখাটে
লোভে
মূল্যায়নের
তুলুন
তন্তু
দাবিদাওয়া
##ফেল
কাব্যগ্রন্থ
মিছিলের
যাদেরকে
রানার্স
গৃহে
বিসিক
সুগম
গাঙ্গুলী
ডটকমের
সপ্তাহেই
রেডিওতে
##রহাট
খাবে
সাময়িকীর
ইস্তফা
ভেনেজুয়েলা
##অক্সাইড
উবুন্টু
ফ্ল্যাগশিপ
মনোজ
বিশ্বাসযোগ্যতা
ফাহমিদা
বাংলাকে
ডাক্তারের
ক্যাডারের
ফেলবেন
জেনারেটর
টেকনোলজির
শাসনকালে
অলোক
পিতামাতা
পরিসংখ্যানই
##বিজ্ঞপ্তি
লিখা
ভিক্ষুর
হোমো
মাধুরী
কটন
মহামারি
রাজপুত্র
ওভাল
সাশ্রয়
পনেরো
তদানীন্ত
আউয়াল
পড়লাম
বর্মণ
##গ্
কলঙ্ক
##াইয়া
চাকার
নিউজিল্যান্ডীয়
অনুপ
এয়ারপোর্ট
দুইয়ের
সুন্দরবনে
পাঠ্য
চিত্রে
চুমু
##প্রশিক্ষণপ্রাপ্ত
পুনর্গঠনের
কোকো
অপূর্ণ
##য়িং
জামাতা
এলাচ
গুণে
মতাদর্শ
সূচিত
ক্লিন
মিলেমিশে
অন্তিম
সমাজকর্মী
বেগবান
##য়েস
বিক্ষোভকারীরা
মানববন্ধনে
ছায়াছবি
শহরতলি
ছিটমহল
স্টার্ট
আশ্রয়কেন্দ্রে
তুহিন
সর্বদাই
যুদ্ধজাহাজ
ছুরিকাঘাতে
মিসরীয়
##পদের
##ফাটকা
নাশকতার
বর্ণিল
ক্ষমতাসম্পন্ন
সৌমিত্র
মহাকর্ষীয়
চৌদ্দ
গণজাগরণ
প্রিন্সেস
ঈসা
ম্যাগাজিনে
পল্লি
##েক
আবেদিন
ময়দান
জাতিসত্তার
উপার্জনের
নেক
##ানা
বন্ধনী
##্ন
বসবেন
সার্ভিসে
নিরস্ত্র
প্রকৌশলীদের
ধর্মভিত্তিক
নোঙর
ব্রডব্যান্ড
কিলোমিটারে
শ্বাসপ্রশ্বাস
জান্নাতুল
হেল
অ্যাডভেঞ্চার
ঝালকাঠি
আস্তানা
হ্যান্ড
পৌছে
উপমহাদেশ
বেষ্টনী
সম্মুখে
অন্তরায়
কাব্যের
##য়েল
বৃত্তের
##ড়ার
স্থবির
পারফর্ম
ফিরোজা
ফোটে
মিষ্টান্ন
ম্যানিলা
পছন্দসই
জলবায়ুর
রোজাদার
এয়ারলাইন্স
সময়কালের
কিনছেন
অভিষেকের
ফিফার
শামসুজ্জামান
ঘাটের
মধ্যরাত
সংকর
সেশন
বইমেলার
##শী
শাজাহান
বিছানার
এটিতে
পানিশূন্যতা
ফেবারিট
প্রতারক
আব্দুস
বিদ্যালয়টির
মোজা
ছড়িয়েছে
লিখন
দেখো
একাকার
ছাত্রকে
সংগঠনকে
নেম
হামাস
অপপ্রচার
শিখা
##ফাইনালে
গাঁজা
প্রকাশনী
সাফল্যে
হেনস্তার
চো
মৃত্যুদন্ড
স্মৃতিচারণা
ক্ষতিকারক
সহানুভূতিশীল
জেনেটিক
ফিন্যান্স
বক্তৃতার
##ত্তা
কেন্ট
নখের
##ডের
পর্যালোচনায়
দোহা
##িয়াস
বিকেলের
গ্র্যাজুয়েট
##দ্বিতীয়
হাঁসের
চেনে
ঝা
পরিস্থিতিকে
শুল্কমুক্ত
ছাড়বে
দেশগুলোয়
এনেছিলেন
সম্পৃক্ততার
ইদ্রিস
সাঁতারু
ফিনল্যান্ড
সুস্থতা
প্রজা
ইসলামপুর
হায়দ্রাবাদ
ছাঁটাই
দায়মুক্তি
##য়াস
পেরুর
ওয়্যারলেস
সুউচ্চ
##ণ্ড
কিন
সেতুতে
রিড
সখ্য
সবুজের
ক্লে
চট
পিকআপ
##কাশি
রাজপথ
ছয়টায়
সংমিশ্রণ
পসার
রাউজান
##তির
কুড়িগ্রামের
পৌঁছার
চিং
বঙ্গোপসাগরের
শয্যার
সানা
ডাকেন
##একই
রুমা
##দুর্নীতি
মিজোরাম
সিরিয়ালের
জবস
রাফি
##বাইরে
কঙ্কাল
লাই
অহিংস
পড়ালেখার
কলোনি
অলিভ
কৃষ্ণনগর
রূপায়ণ
গির্জায়
গৌরী
কেবিন
ভিন্নভাবে
ফিরলে
ভীষণভাবে
আফিফ
বিশ্লেষকদের
স্মার্টফোনটির
##শার
সৈনিকদের
##দিকে
চালাবে
পথিকৃৎ
ছোটাছুটি
উপসচিব
উপনদী
আনান
##তাহলে
##টেল
পৌরসংস্থা
সিসিটিভি
আইনত
অপ্রাপ্তবয়স্ক
সাহিত্যকর্ম
ডিগ্রিধারী
টনের
পুনর্
অপব্যবহারের
নিরাময়
দৌরাত্ম্য
চট্টোপাধ্যায়ের
##ুম
তাকেই
এভারেস্ট
##রাস
অশ্রু
##এগুলো
সমাজতন্ত্রের
মঙ্গলের
##ইট
এডি
প্রচন্ড
গুপ্তচর
পড়াশোনায়
বাগ্
সংক্রমিত
বেদনাদায়ক
মওলানা
ফ্যাট
দীর্ঘক্ষণ
রণ
বন্দুকের
বসেছিলেন
জেনেভায়
উত্তরাঞ্চলীয়
আইএএনএস
চাচ্ছেন
গানটা
শ্লোক
অবস্থাও
তাগিদে
কাউন্টারে
আশ্চর্যের
প্রশ্নগুলো
সহনশীল
স্মৃতিস্তম্ভ
গীতি
ন্যাটোর
শাহি
পরিচালনাকারী
পাউন্ডের
বাসনা
পটুয়াখালীর
অনবরত
খাঁচা
বেরি
দিদি
হারাবে
উপড়ে
পক্ষপাত
চালাতেন
ইত্তেফাক
কচুয়া
অক্ষরে
সিনে
##কুন
টিকতে
##তাত্ত্বিক
##প্রক্রিয়ায়
##মধ্য
কেট
গুণাবলি
##অর
লালা
##তাঁর
বায়ো
কওমি
লুকাস
সৃজনশীলতা
আদমি
ওঠায়
হেরফের
হদিস
সংযত
সুবেদার
গড়ায়
জিএসপি
নিষ্কাশন
রামের
চিকিত্সা
চাইল্ড
মার্চেন্ট
যাহোক
##ব্যাক
এসসি
সাফাই
বাক্যের
নিবন্ধটি
দলও
##বতী
মিশিগান
তৎপরতায়
##াকে
পাগলা
কুমিল্লায়
বিক্রিয়ার
লুসি
যুদ্ধাপরাধ
ফাতিমা
এমপির
আখড়া
##ন্না
টেকনাফে
গড়পড়তা
রাকেশ
দেশভাগের
##কিয়া
জেলের
##ীয়া
রুপার
নোটিফিকেশন
অঞ্চলটির
##গ্লিং
অপুষ্টি
বিজেপিতে
ব্যাবস্থা
আত্মগোপন
পদ্ধতিগত
##প্রক্রিয়ার
বিহারি
লিজ
মসুল
তিনেক
মনু
##ফোর
মিনারের
প্রেমবিষয়ক
চাইতেন
আশ্রয়ে
স্টাইলে
মায়ানমারের
পরিচালকেরা
ইব্রাহীম
রেনেসাঁ
প্রায়শঃ
পিএমএল
মার্গারেট
বোলাররা
অভিযোজন
বিধির
কুর্তা
ওক
ফাদার
ফেলল
দুর্বৃত্ত
কর্মে
এলাহাবাদ
অবস্থানকে
মানুষটির
করাতেই
##ভারতীয়
ন্যাপ
টুইটারের
সিনেটের
আবরারকে
সাকিবকে
গারো
দাসত্ব
স্মার্টফোনটিতে
বলেনি
অধিবর্ষে
পদত্যাগপত্র
ছড়াচ্ছে
পঙ্কজ
আচ্ছন্ন
এন্ড্রু
শুনিয়েছেন
হিজরত
সেকেন্ডারি
টুটুল
নাজমুলের
পীরগঞ্জ
##তিনটি
##শিস
সদস্যসচিব
বিশপ
চার্জার
##টস
মোড়ানো
এনওয়াই
লঞ্চের
ভার্জিনিয়া
ড্রামা
ইয়র্কশায়ার
পাখনা
গম্ভীর
যাত্রাবাড়ী
জ্বালানী
লার্ভা
##মুখে
রিভ
##সাংস্কৃতিক
ওয়ারেন
অগভীর
ডায়াপার
বিলোপ
জেনারেশন
গণি
খেলবেন
জন্মগত
পপি
##ষ্ঠাবার্ষিকী
দণ্ডবিধি
ক্রিয়াকলাপ
অস্থিতিশীলতা
শ্রীনগর
ইংল্যান্ডকে
উদাসীন
লজ্জার
চাষিরা
বক
হায়দরাবাদ
পাপড়ি
##গরম
ব্যাটিংয়েই
চেঞ্জ
##যুদ্ধ
ভালবাসা
হওয়াটা
হারাচ্ছে
নির্বাসনে
মালিশ
তোড়জোড়
দিশেহারা
ব্লুটুথ
ধর্মান্তরিত
উড়াল
পিকচার
খাসোগিকে
ব্রুনাই
##নাস
ডাচ্
বসলেন
জিনের
খলিল
অগ্নিকাণ্ডে
##মনি
অ্যাম
##ত্ত
##তন্ত্র
নির্ভুল
পানের
ওয়াশিং
আইবিএম
ক্যাব
পেটানো
বাইবেল
সরকারদলীয়
রীতিতে
স্টেজ
পশতু
##সভাপতি
কুয়ালালামপুর
ফারহান
ঘূর্ণিঝড়ের
মহাদেশে
ক্রিস্টিয়ানো
সাইফুর
ধুম
গোয়ালন্দ
লাইসেন্সের
শ্রদ্ধাশীল
আমীন
বয়েজ
মেগান
ব্যাং
পুনর্জন্ম
উপকরণের
রাবণ
কাবুলে
পিক
পিৎজা
চিত্রটি
চম্পা
শীর্ষস্থানে
শাশুড়ি
স্প্রিং
নবীজি
##ম্বা
ঢোকা
ধানমন্ডিতে
প্রিসাইডিং
কোষে
যুক্তফ্রন্ট
ফারেনহাইট
জালালাবাদ
ব্লেড
মঙ্গোল
চ্যাম্পিয়ন্স
##প্রসাদ
তান্ত্রিক
জেরুজালেমের
স্ট্রিমিং
মাসব্যাপী
নির্দিষ্টভাবে
গোলাপী
মনোয়ার
ইউনিসেফ
##সশ্রম
ব্রহ্মা
নেপথ্যে
হংকংয়ে
ট্রফির
প্রতিরোধী
কৈশোর
স্ট্যাম্প
উট
##মেইলের
ট্রাভেল
রিসেপ
##ডাল
মধুসূদন
পাথুরে
ওম
হুগলী
সাইদুল
সময়েও
এজেন্টদের
হ্যাকাররা
হোপ
ঢাক
কাজকে
##মারি
ইউরেনিয়াম
ইজিবাইক
ছুরিকাঘাত
কাঠমান্ডু
##মাংস
প্রলোভন
পার্টিকে
উখিয়া
নেমেছিল
##পথে
##গ্যাস
বার্সার
##পের
কাস্ত্রো
##যন্ত্র
##দীন
ফালি
নিরবচ্ছিন্ন
##কায়
##রিক
ফিরিস্তি
প্রত্যর্পণ
নাউ
বসন্তে
এমরিত
ধারাভাষ্যকার
নাটকীয়ভাবে
যন্ত্রপাতির
অধি
লাকী
##বিন
রাশিয়াকে
শিডিউল
দ্রব্যের
কিডনির
##এফ
প্রসূতি
নবীনগর
লিও
সেবক
গুলিস্তান
ডাব
ফতুয়া
ফতোয়া
ম্যাসাচুসেটস
লোকসানের
পানিপ্রবাহ
চৌম্বক
পিয়ানো
কোরিয়াকে
আলাইহি
ফরমালিন
##বৈদেশিক
সোয়েটার
দারুল
স্টেইন
সেটের
কৃত
রাত্রি
মালিকানার
কলের
##সত্ত্বেও
সিনেটে
পুঁজিবাদ
টরন্টো
মিলিয়নের
গতিবিধি
বেইজিংয়ের
মোহনা
##র্ধ্ব
ব্যাটম্যান
কাপালির
কোনোটিই
##ডেল
যীশু
হোঁচট
জেসমিন
শিম
উভয়ে
স্বাস্থ্যগত
ফাটকা
সুফিয়ান
ছুটতে
ডিসপ্লের
এসএমই
বাঁধন
সাধনার
কমরেড
কোলেস্টেরল
ঘের
প্রশংসায়
রপ্ত
ব্যা
রান্নায়
শ্রদ্ধার
##েশ্বরী
মৃত্তিকা
বিভাগটি
##সকে
সেনার
##স্বাস্থ্য
শিহাব
##ত্তি
সংকল্প
হতবাক
কমলেও
গেটের
##্ক
মাল্টা
হককে
করতোয়া
##জেল
রেঞ্জ
ইসহাক
সামর্থ্যের
একইসাথে
আবুধাবি
তরকারি
পাটনা
জাজিরা
রু
ইনডেক্স
আশ্রয়কেন্দ্র
##জ্ঞ
##উইন
ফ্রান্সিসকো
সিম্ফনি
নক
কিট
এনডিএ
ফুটো
রিক
অভিবাদন
লিবারেশন
আফরিন
লাগাতার
স্ট্রিপ
সরষে
বায়তুল
পরিমণ্ডলে
প্লেটো
মসজিদটির
উপসাগরের
জগন্নাথপুরে
আক্রমণকারী
সারাহ
হাসানকে
হাব
বোনা
প্রবেশপথ
কিশোরীদের
পিচে
সহমর্মিতা
আহোম
##গ্রুব
বর্ণমালার
ভঙ্গের
অসাংবিধানিক
লাহোরের
মঞ্চনাটকে
##শাহ
খুঁড়ে
##বিজ্ঞানী
শিখর
উজান
বিবিধ
অপরাধীকে
ইউয়ান
রেকর্ডস
সিংকে
জিএস
ব্যাটালিয়নের
হিংস্র
ফাইন
ততটাই
দিনক্ষণ
বিএসইসি
##সদৃশ
ব্যান্ডটি
##্যান্ট
ব্যবসায়ের
লস্কর
##নির্মিত
উচু
পৌষ
##উপাচার্য
##বোঝাবুঝির
সিদ্ধান্তই
কামালের
উত্তরায়
জমিদারদের
ক্রয়ের
রাষ্ট্রপক্ষের
ইসরায়েলে
এসেক্স
এনজাইম
পরাশক্তি
পর্নো
পরানো
প্রোগ্রামে
গর্ভাবস্থায়
হুসেন
চেন
ক্রোমোজোম
এলাকাজুড়ে
হানি
যোগাযোগমাধ্যমের
প্রমিত
সফরকালে
প্রণয়নে
লেদার
ছেলেটির
##দুর
নকিয়ার
সৌদির
চরের
অভিবাসনের
জাপার
সেজন্য
##আবার
খানিক
সচেতনতামূলক
প্যাটার্ন
হাশিম
উত্তরার
ভেবেছিল
খাঁর
ড্রিম
উপজাতীয়
অগ্নিনির্বাপণ
ফ্রেশ
একতা
ভালোবাসায়
মার্কা
তফাত
কনফারেন্সে
হলফনামা
আশ
সিএনএনের
গামছা
মায়াবতী
তিউনিসিয়ার
ক্রসফায়ার
শিল্ড
শিল্পমন্ত্রী
চাঁদাবাজির
##উপ
ব্র
কিঃমিঃ
মরিচগুঁড়া
জানলাম
নিয়মতান্ত্রিক
অসম্মান
আইনপ্রণেতা
ভিক্ষা
সাও
##োয়া
কাঁচ
লুণ্ঠন
##োপ
গাছগুলো
##প্রতিনিধিত্বকারী
##দ্ধ
্যাশ
ঝামেলায়
গোপনীয়তার
উড়িষ্যা
আজহা
রাকাত
ছায়াপথ
দেড়টা
পেরোতে
হ্যাপি
আছড়ে
ভীতিকর
প্রাত্যহিক
সুপারভাইজার
হাফেজ
ধীরগতিতে
বদলেছে
সংবলিত
নেতাজি
শহরগুলোর
শেখে
প্রত্যক্ষভাবে
হ্যাট
ইপিআর
আইনগতভাবে
কবরস্থান
রূপক
একশ্রেণি
দূর্দান্ত
দেশটা
গ্যারান্টি
অমানুষিক
বাজাতে
নির্বাক
ব্রা
ট্রেজারি
সিরাপ
চক্রবর্তীর
##পরিকল্পনামন্ত্রী
বিএসএমএমইউ
##াজ
কারখানাগুলো
আফরোজ
হাঁপানি
প্রস্তুতকারী
কুতুব
##অন
বিশেষণ
##লিপি
ডকুমেন্ট
মতন
##উনের
সরকারগুলো
বহরে
উপাদানগুলো
##গ্রন্থ
সমকামিতা
মুজিবনগর
কাজেও
অগ্নিকাণ্ড
কোটিপতি
স্যারের
ববিতা
আচ্ছাদিত
উইকিমিডিয়া
চালিকাশক্তি
স্পনসর
বহনযোগ্য
হ্যারির
আলমকে
ক্রো
বোল
নারীবাদ
জার্মানী
সাতক্ষীরার
শীতকাল
আদার
##যাত্রা
কঙ্গো
স্টিকার
ক্ষেপণাস্ত্রের
শিবগঞ্জ
##মুসলিম
সদস্যসংখ্যা
বহুকাল
পুরস্কারটি
সচ্ছল
জাগরণ
আরজি
বিধানের
রায়চৌধুরী
বেকারি
##কল্পে
স্বয়ংসম্পূর্ণ
সাইফউদ্দিন
ভার্সন
পূর্বসূরি
ব্যারেল
ঘাড়ের
##তরুণী
রবিবার
এলো
শ্রেণিকক্ষ
দুর্গত
শহিদ
##আলোচনার
চিত্রা
উত্তরাংশে
সুদীর্ঘ
##ট্রি
দাউদকান্দি
গাইবান্ধার
হ্যাকার
রবির
কর্নার
আম্মা
নাজনীন
পাণ্ডব
কান্নাকাটি
জনঘনত্ব
ঢোকানো
অভ
কুসংস্কার
ভিতরের
পথটি
কুইন্সল্যান্ডের
মনোহর
ধার্মিক
ব্যাখ্যার
##ওয়ার্ড
চাপায়
জাকার্তা
কনক
ট্রান্সপোর্ট
সামষ্টিক
গোলাবারুদ
ম্যালকম
ওয়াদুদ
সুদীপ
ফারাক্কা
##প্রো
স্বল্পতা
ইলেকট্রিক্যাল
বলকে
টো
কালক্রমে
বাঁচে
প্রতিমন্ত্রীর
নাবিক
ভাসতে
রুক্ষ
রোমে
কেন্দ্রস্থলে
নোয়া
গ্লুকোজ
অ্যাকর্ড
পোলিং
ভাবনায়
সভাপতিকে
হয়না
জীবনধারা
##রায়াদ
তদবির
আগ্রাসনের
সাজের
জঙ্গলের
কোনায়
অবসাদ
রিকশায়
ডিভাইসে
আবির
পুর্ব
প্রাগৈতিহাসিক
সুবিশাল
আম্পায়ারের
কূপ
অ্যালবামে
শিশুশ্রম
##এইচ
ফ্লাওয়ার
আগারগাঁওয়ে
প্রত্যাবর্তনের
##শিয়া
রক্ষক
ডোর
মেডিকেলে
সাহসের
জেএমবি
ঢলে
প্রস্তুতিমূলক
সাথেও
বর্তনী
প্রতিশ্রুতির
মূলক
প্রবেশে
একাত্তর
আতিথেয়তার
নির্ভরশীলতা
দৃষ্টিশক্তি
##লেই
ফরিদা
ভার্চুয়াল
উপকূলবর্তী
আতিকুর
নটিংহ্যামশায়ার
সিয়েরা
বদরুল
হতদরিদ্র
ভোল্টেজ
বৃত্তাকার
প্রতিনিধির
সমুদ্রপথে
পাড়ের
##প্রবাসী
অপেক্ষার
##পক্ষে
##পুরা
ভক্তের
##ল্
অভিযাত্রী
গোষ্ঠীকে
ছাউনি
অব্দ
মেনেই
দায়বদ্ধ
জনসচেতনতা
হস্তশিল্প
শশী
গবেষকরা
গোয়েন্দারা
অন্যায্য
জিহাদি
বুথে
পাঁচটায়
মশিউর
ভ্যালেন্সিয়া
পরাভূত
##সরকারের
গফুর
ডুব
রীতির
আসমা
গিয়ার
গোলদাতা
কিশোরকে
স্টোকস
সহনশীলতা
##তেন
ওয়্যার
খেয়েছেন
খা
অনন্যা
ইন্টার্ন
রৈখিক
নবদ্বীপ
নিয়মনীতি
সততার
##স্ত্রীর
আনন্দবাজার
##াংশ
চলচিত্র
সীমান্তরক্ষী
বিশ্বায়ন
পুরা
##ফের
মেথি
লেয়ার
সুস্মিতা
রেলস্টেশনে
##কলা
##হল
ইয়ুথ
##ভিল
শিল্পকে
##প্রযুক্তি
##বিশ্ববিদ্যালয়
খেলাগুলো
##হক
ডিপো
জানাননি
জেরুজালেমে
রিজ
##আলী
ভিসি
নবাবগঞ্জ
ফেলেছি
##কর্মীর
স্টুডিওর
মানুষগুলোর
অদ্বৈত
টেকেনি
##দ্জিন
নেহাত
খেয়েছে
আঘাতপ্রাপ্ত
গেজ
প্রাকৃতিকভাবে
জেনারেলের
কুমির
সুবিচার
একতলা
মরুভূমির
ভরণপোষণ
##ডন
করাচিতে
ফ্রিল্যান্সিং
##দ্বীপ
যোদ্ধারা
লড়ে
ব্ল্যাকবেরি
##প্রণালি
গোড়াপত্তন
সালতানাত
মাজহারুল
শুভকামনা
আল্লামা
##নকে
অলিভার
সোল
নিগ্রহ
আড়ং
আলেম
বুয়েটে
উঠতি
করুণা
মজুরির
একাংশের
গণধর্ষণ
ভঙ্গি
চরণ
রাজী
কোরো
আয়াক্স
সেনানিবাসে
অখিলেশ
ডাকটিকিট
তালেবানদের
অবমাননার
ডোরা
আবেদনকারীর
বার্তার
পট
ভাতিজা
##মস
মং
পদ্মশ্রী
কষ্টসাধ্য
মাছরাঙা
##পোর
বিশ্বাসঘাতকতা
ওয়াসিফ
##মূর্তি
জমতে
##থু
শোনে
আর্মেনিয়া
রাজারা
ইতালিয়ান
##শ্রমিকদের
ডগ
শেখানোর
জুমা
অ্যাঞ্জেলেসে
অগাস্ট
খোঁচা
##কারক
##পরি
তুলি
##যোগ্যতা
##ছড়ি
শাবানা
ইকুয়েডর
তদারকির
বস্তির
মেটানো
পরিবেশবাদী
তেহরিক
রক্ষণ
ন্যায়বিচারের
তলে
স্বাবলম্বী
ক্যারিবিয়ান
তথ্যভান্ডার
ছেলেধরা
রোনাল্ড
দায়িত্বও
কোস্ট
ক্লায়েন্ট
পিংয়ের
##পূর্বাঞ্চলীয়
হলদিয়া
নগরবাসীর
মুভমেন্ট
টকদই
শামস
প্রহরী
কড়াইয়ে
গ্রাফ
ভরের
উৎকণ্ঠা
হুকুম
হানতে
কর্মকান্ড
ক্যালেন্ডার
##বাজ
ডানায়
রেয়াত
গনি
অ্যানালিটিকা
প্ররোচিত
বিরুদ্ধাচরণ
অতুলনীয়
ম্যাসাজ
অরেঞ্জ
বন্দুকযুদ্ধ
বর্তায়
তুরাগ
আসবাবপত্র
##মাত্রই
##চ্ছ
ফিরলেন
সমাহার
অ্যাওয়ে
##্শ্বপ্রতিক্রিয়া
ইন্সপেক্টর
বাড়িঘরে
মেঘলা
মৌমাছি
##দানের
অভিযোগপত্রে
##বাম
##কস
উন্নয়নকাজ
ফ্রন্টের
সেইন্ট
প্রাচ্যের
##কোটি
##টিং
টলারেন্স
অ্যাডমিরাল
বহুলাংশে
বুল
বিশ্বরেকর্ড
জিমেইল
বিভ্রান্তিকর
যাযাবর
এনআরসির
পদার্থবিদ
অবিচার
জাতীয়করণ
গায়
##তলী
গোলার্ধে
ফো
আলেপ্পোর
লাগালে
ওমরাহ
গণফোরাম
##িনের
অধিদপ্তরে
সৃষ্টিশীল
মুলা
এহেন
পাখিরা
ঢোকে
গ্রেগ
মাইনর
আকাশপথে
মালদা
আয়োজকদের
ক্ষমতায়নের
সংকলিত
সোলায়মান
মেয়াদোত্তীর্ণ
ক্যাপসুল
ঝাড়খণ্ড
সিদ্দিকা
ক্রিমিয়া
খাদ্যতালিকায়
অবসানের
সুপারি
করেছ
ব্রড
খুজে
উন্নয়নমূলক
বর্ষপঞ্জী
খরচও
আঁকার
অ্যাফেয়ার্স
মাত্রই
সাদাত
কোনোটি
ভু
জাতিগোষ্ঠী
বিনোদ
শৃঙ্গ
যুবরাজের
##কর্মচারীরা
বিস্তারে
দ্বীপপুঞ্জে
টীকা
খাস
পিল
ক্যারেট
গান্ধীকে
কুষ্টিয়ায়
ব্য
বিন্দুর
চিকিৎসাবিজ্ঞানে
মহাকর্ষ
সার্জিক্যাল
পুনরুত্থান
বেলি
আত্মরক্ষার
ওয়াইন
রেলমন্ত্রী
দখলদারি
ব্যারন
সংস্কারে
চালকল
ভিয়েনা
রাজকন্যা
বর্ন
বন্ডের
বাসাবাড়ি
জলদস্যু
ক্ষমতাকে
হামজা
তারহীন
নিয়া
জনপ্রতি
তথ্যগুলো
হাঙ্গেরি
স্বীকৃতির
ধ্বংসপ্রাপ্ত
##বিশ্ব
##মী
বিভিন্নতা
##ভাষা
ভ্যাকসিন
##ম্যানের
আওতাভুক্ত
মজুদ
ছা
প্রফুল্ল
নামটা
সুবিধাটি
মূল্যছাড়
এন্টি
নবীর
মশারি
ভাস্কর্যের
শার্টের
আন্তরিকভাবে
রদবদল
##সম্পদ
বাধে
চন্দ
থাকতো
পলাশী
##ঙ্গো
গভর্নরের
ভাটার
আগ্রা
মারিও
মরতে
সক্রিয়তা
##ঝ
দখলমুক্ত
অশান্ত
##তঃ
পাথরঘাটা
রঞ্জিত
সহাবস্থান
দশজন
কাইফ
আড়াইটা
কোয়ালিশন
বিটকয়েন
বক্সের
আবদেল
##ডব্লিউ
##ম্প
ছাগলের
শিখেছি
রোমের
স্বাস্থ্যসেবার
কেন্দ্রবিন্দুতে
মেড
##ার্থে
পুনরুজ্জীবিত
ঘটনাই
কিচেন
খাতুনের
মহাদেব
আর্ক
বেদনার
প্রবক্তা
অনুকরণে
মেল
অবয়ব
##মাই
পর্যটকের
শুভ্র
সহায়
সুকুমার
ধামাচাপা
ফিঙ্গারপ্রিন্ট
দিঘি
বিপাশা
শিশুতোষ
গার্হস্থ্য
চিড়িয়াখানা
##যখন
ডিভিশনের
ড্রেস
ফৌজ
হোল্ডিং
পিকচার্স
##মধ্যে
আফগানদের
বাজ
ভিটা
অপরিশোধিত
অ্যান্থনি
নঈম
বিবর্তিত
সুভাষচন্দ্র
সাইদুর
স্বাস্থ্যসম্মত
সল্ট
স্ফটিক
দৌলতদিয়া
লাগাম
রাস্তাটির
হিন্দুত্ববাদী
##বিট
ঝলমলে
মারল
হোসে
সওজ
শিকারি
##বাবু
নয়াদিল্লির
##ক্রম
আব্বাসীয়
ক্যাট
কৃষিজমি
গণপিটুনি
কিমের
রামু
কার্যকলাপের
ইসলামাবাদে
অন্তর্ভুক্তির
আইজিপি
আমড়া
দুবাইয়ে
চাষি
পাহাড়ী
##চক্র
##দ্বয়ের
সমতার
হাঁটাহাঁটি
বানিয়েছে
উৎসবমুখর
টিএসসি
পার্বতী
উচ্ছেদের
মার্ক্সবাদী
ময়না
কার্ট
মুখর
টার্মিনালের
বহুজন
ধন্য
পুরুষকে
আবিদ
সবুর
বক্সিং
চর্চায়
নৃত্যের
গুরুর
বেতনে
পুঁথি
ক্লিপ
জন্ডিস
হলিউডে
##রার
শাস্ত্রী
শেঠি
ম্যারাথন
হোটেলটি
হোস্ট
ট্রাকটি
নড়বড়ে
প্রায়োগিক
সমীকরণের
কাহিনির
দেখিয়েছিলেন
ধরনা
অধিগ্রহণের
তুলবেন
রিটের
আর্মেনিয়ার
অকাল
ভুনা
স্বাক্ষরের
হালদা
##শিপ
বহিঃ
প্রতিশব্দ
গিয়েই
ফুলবাড়ী
দুর্ভোগে
নুন
ইজতেমা
শহীদুল্লাহ
কূটনীতিকদের
ক্যানটিনে
প্রভিন্স
খাটিয়ে
অবাঞ্ছিত
হাতেনাতে
কাবাডি
উপহাস
দিনটা
নিশাত
রাজকুমারী
##ক্রমে
বহুসংখ্যক
লেগেই
ধ্রুপদি
উপক্রম
মালালা
প্রকৌশলীরা
বোরকা
জেদ
মর
##ডিন
হ্যাকিংয়ে
বিজ্ঞ
টায়ার
পরিহাস
এলাকাকে
ভ্যাটের
পত্তন
প্রাচীনকালে
লুকানো
মৌসুমেই
অনুগ্রহ
বোর
কিল
মসিউর
গ্রীন
ক্ষান্ত
ভাড়ায়
রাজ্যসভার
ইউটিসি
আরিফুর
চিত্রনায়িকা
ভাড়ার
ইস
পক্ষান্তরে
লেখালেখির
চলেছি
আয়ত্ত
##স্ক্যা
যৌতুকের
দলীয়করণ
লাখেরও
অব্যাহতভাবে
##ভেল
স্রোতে
ফ্রেমে
স্লোগানে
প্রবণতার
নিয়েছিলাম
আন্দাজ
পাইন
সূচি
খেল
সাইটের
একনেক
মহাসড়কটি
##বেলা
হারালে
ব্যবসায়ীকে
##গুন
নও
##িয়ন
হারিকেন
জব
লাথি
বিপদগ্রস্ত
##সূত্রে
##জিত
বাঁচবে
ছিটানো
মাঝপথে
কানিজ
ক্রেস্ট
ভ্রূণ
ঘটত
পাত্রের
##যুদ্ধকালীন
স্থূল
মধ্যবিত্তের
রাজ্যকে
আপা
##রাজধানীর
লাগায়
ফিরেছে
মেয়াদী
এলোপাতাড়ি
ট্রে
সেনাসদস্য
গল
ব্রহ্মপুত্রের
নিত্যনতুন
অধিকাংশের
আটকানো
ব্যাটারিচালিত
আখের
মজুমদারের
বাসদ
##লাই
মধ্যপ্রদেশের
##বার্তা
সাধ্য
নিঃস্ব
পার্শ্বে
গাড়িচালক
ঢেউয়ে
জ্যোতির্বিদ্যা
নিপীড়িত
বারি
তৎ
ভুট্টোর
নেহা
সাথী
স্থাপনায়
রাষ্ট্রপক্ষ
ট্র্যাজেডি
জিতেন
মন্ডল
ফ্লোর
আমিরুল
চাইব
অদূর
দিব্যি
গবেষণাগারে
গোলাগুলির
আলমাস
বিন্যস্ত
সহশিল্পী
ওসব
##বন্ধু
রদ
এশিয়াটিক
রেজিস্ট্রি
বিচারহীনতার
ইন্তেকাল
সংযোজিত
ধর্মপ্রাণ
খাটে
##ষ্ঠ
নিও
##সাই
##রাতে
কাটায়
মাঘ
হলদে
##ইয়েপ
চাকুরী
আমিরের
কারখানাটি
কম্পাঙ্ক
মওকুফ
##রির
অ্যান্ডারসন
হাওয়ার্ড
সামিটে
স্টার্ক
মেলবোর্নে
বেঙ্গালুরুর
মহাযান
চুড়ি
গড
##বর্গ
উঠলেও
চিত্রকলা
হুয়ান
বৃক্ষের
আমলেই
পরিচয়পত্রের
তারকাকে
মধ্যপন্থী
অহংকার
##পাত
হেডফোন
খিলাফতের
মালিকানায়
আমলাতান্ত্রিক
পরামর্শদাতা
শহরেই
কাঁটাতার
সদস্যবিশিষ্ট
পরিসেবা
লাকি
এসডি
##্রি
মানাবে
##গেন
পরগনার
গৌরীপুর
পারিপার্শ্বিক
##সমর্থকদের
##াঞ্চলীয়
ইউএন
পেশী
##সেস
আউটসোর্সিং
ডিসকাল
মোমিন
মহাবিদ্যালয়ে
আন্তোনিও
প্রবর্তক
দৃঢ়তা
শরৎচন্দ্র
খাতিরে
হাশেম
খামের
দন্ত
মাছে
পর্যটনের
সিভি
নিঃসঙ্গ
আর্কাইভ
##াপ
জীবনমান
##ত্বের
করদাতাদের
মেসার্
শিয়াল
প্রোটিনের
পর্বতে
অভিপ্রায়
মুদ্রানীতি
এলাকাগুলো
অংশটুকু
কক্ষগুলো
যত্নের
মিষ্টির
শ্যামলী
দ্
বার্গার
নিজেদেরকে
রাহমান
ইনোভেশন
অপটিক্যাল
##গুরু
ভূরাজনৈতিক
আইথ্রি
অ্যান্টিভাইরাস
চিত্রকর
পার্থক্যের
কোম্পানীর
ট্রিপল
তারুণ্য
মেক্সিকান
শাহাবুদ্দিন
শিখেছেন
ফান
কেলি
মতৈক্য
পশ্চিমাদের
পদক্ষেপে
সংগ্রহকারী
গুল্ম
নিবন্ধের
কুশল
##বৃন্দ
শিল্পপ্রতিষ্ঠান
##চাকরিতে
বেজা
কার্পেট
##ফিন
সুবাস
মঙ্গোলিয়া
এমিলি
সদ্ব্যবহার
চ্যালেঞ্জিং
স্টিলের
একবারও
আঙ্গুল
দুর্গে
উদ্ধারকারী
গৃহহীন
বিচ্যুতি
##সংবাদ
ওয়াক
কারুকাজ
রেকর্ডে
ইবরাহিম
নর্দান
আলীবর্দী
ভবিষ্যত
মালবাহী
বেঁকে
বদিউল
মাধ্যমেও
শোষিত
আহ্
সেকশন
গোর
প্রশ্নও
এনেছিল
জাদুর
মিডলসেক্সের
অ্যানা
##জাই
অনাথ
ভালোমতো
##মিয়া
বিএসএফের
কোনা
দুস্থ
খলনায়ক
হাজারে
##বাল
যোগসাজশে
বরের
উত্স
ডারউইন
প্রবীণদের
ধরপাকড়
মর্নিং
চিত্রগ্রাহক
কর্তাব্যক্তিরা
ঝ
খ্রিষ্টীয়
প্রোডাক্ট
আইনটির
ন্যাচারাল
মানলে
সফররত
রহিত
তাকওয়া
ফিচারটি
বায়ুদূষণের
একাত্মতা
সয়া
অধিকারে
##যেকোনো
##ধারা
ধ্
চর্মরোগ
রোগটি
শাস্ত্রে
বোস্টন
##শের
##্সোদ
হ্যারিস
##প্রবণ
কাত
ডলফিন
হেরিটেজ
##মোহাম্মদ
আষাঢ়
প্রমোশন
ইপিজেড
চাকরিচ্যুত
আলাপকালে
##তাল
নামী
পাথরে
তেরো
##পরিচালক
লেফট
ছবিটিকে
মৃৎশিল্প
মিং
গুণাগুণ
কলেরা
বলকান
চলচ্চিত্রগুলো
ভালভাবে
মূল্যস্ফীতির
সাজার
##ট্রাম্প
ছবিই
ভিত্তিতেই
লিফলেট
ডাকার
ত্বকী
হাস
বসছে
স্টুডেন্ট
নাব্যতা
অবিস্মরণীয়
তাড়াহুড়ো
প্রায়শ্চিত্ত
রূপকথার
পুনে
ফরিদগঞ্জ
অযোধ্যায়
লজ্জাজনক
পাঠালে
আদ
##খাল
বেধে
হয়তোবা
আহাদ
উইক
হ্যাম
মনোবিজ্ঞানী
পরিশেষে
নন্দ
যতবার
ভ্রু
রোদের
অফিসারদের
##ঙ্গি
নদীয়া
কারণটা
বার্মার
মুন্সী
অশালীন
নড়েচড়ে
পাটোয়ারী
বেশীরভাগ
খোরাক
##রশিদ
ব্যাপী
অন্তর্
শির
শিবপুর
প্রবাসে
বাট
##দাম
রোবটের
##এত
ক্রা
##যাঁরা
আইনজ্ঞ
প্যাট্রিক
বজ্রপাতে
দ্রুতগামী
মলিন
ডাইনোসর
##চাল
প্লাসের
##যান
রাখেননি
ডেনিম
থ্রিজি
ভারি
##ত্
ম্যাট্রিক্স
হ্যালি
সিএসইতে
বর্গমিটার
একদলীয়
সীতা
জুলুম
হস্তক্ষেপে
শরণার্থীর
স্পাইডার
লঘু
প্রতিচ্ছবি
পুনর্গঠিত
চিরন্তন
অভিভূত
শাহবাজ
উভয়েরই
মজাদার
হাবিবুল
তেহরান
পরীক্ষিত
ব্রডওয়ে
পরিণতিতে
নক্ষত্রের
রাজাকে
কক্ষপথ
তোমায়
অধ্যায়ের
ব্রান্ড
##ন্ডি
তাসমানিয়া
##অফ
মোরগ
সির
ভাইয়েরা
স্ক
চুল্লি
অর্ণব
হাস্যরস
সাফা
আশুগঞ্জ
বেণি
##কবি
##মেট
ফারাহ
##ৈ
##পরিচ্ছন্ন
শাহী
পুণ্য
অবলোপন
অসদাচরণ
চিমটি
গিনেস
##্ম
চামড়াশিল্প
##উই
সাবের
##নাম্স
##স্তি
বিদ্রোহে
ঝলক
রাখত
ভেঙেছেন
বার্তাটি
চকবাজারের
##লাইট
গ্রেডে
আচরণগত
অপবাদ
বিড়ালের
সহযোদ্ধা
##রেখা
হ্যালো
##ইস
মধ্যভাগ
বাঁচাও
দুঃসংবাদ
চৈনিক
রাজেন্দ্র
##ধি
ইতোমধ্যে
কমান্ডের
##টিন
ফসলি
বাপ
##বিএনপি
কপার
রুপে
ব্রিকস
আর্টিজানে
খনির
উইন্ড
অস
পরিণাম
শহরগুলোতে
##তল
যাদবের
ল্যাপটপে
প্রচারক
গৌরবের
##সমাজ
##হিল
ভারতবর্ষ
টেড
আশ্রমে
নৌবহর
নাসরীন
ভ্যানিলা
ডাকতে
রকি
গজল
সার্ভারে
জ্যা
নেচার
নির্বিশেষে
পবন
শিক্ষাব্যবস্থার
##সাইড
রসের
কুয়েতে
মুন্সিগঞ্জের
ইউপিএ
বীর্য
সিদ্ধান্তগুলো
পারদ
পরিমাণও
প্রাচুর্য
মামার
মাদকাসক্তি
অন্যায়ভাবে
প্রোগ্রামার
পুরস্কারপ্রাপ্ত
ভাবতেই
থি
তিনতলা
গোলক
গেমে
এমা
ছেলেবেলা
ইয়ু
মন্ত্রীকে
ফলিত
রেক্স
##্রিস্টপূর্বাব্দে
কনস্ট্রাকশন
ফোড়ন
দ্বারপ্রান্তে
বখতিয়ার
বুঝলাম
মোটরযান
প্রকাশন
নুরুজ্জামান
লিখুন
প্র্যাকটিস
জ্বলছে
সুলভ
এরশাদকে
পোড়ামাটি
চ্যাপলিনের
বর্ণাঢ্য
আল্লাহ্
জামায়াতকে
গ্যা
ক্রেন
আপনিও
মিত্রের
প্রাঙ্গণ
গণপরিবহনে
পৌঁছেছেন
গোমেদ
থর
ফুটবলারদের
ধর্মগুরু
শহীদের
স্টাইলের
গুজরাটি
গাড়িগুলো
##গের
##ন্দ্র
পারফরম্যান্সের
গন
সংবাদদাতা
প্রিন্টার
রজনীকান্ত
আইনকানুন
পুজো
শার
রামপুরা
নেপথ্য
মতপার্থক্য
দ্রুততা
কিলোগ্রাম
ধারণায়
কিন্ত
চিত্রায়িত
ইরানী
খ্রিস্টাব্দ
বেরোতে
যজ্ঞ
উজানে
সকলে
##উজ
সামগ্রীর
সালফার
সমর্পণ
##বাড়িতে
হাতাহাতি
দেখাচ্ছেন
ডিক
রূপের
সুশৃঙ্খল
চোপড়ার
ঝু
শোয়ার
ক্রিসমাস
রানু
নার্গিস
তৎক্ষণাৎ
বিবদমান
মারপিট
অঙ্গনের
ডেইরি
মোজাফফর
নোবেলজয়ী
বিকট
সেলে
গ্রাফিক্স
দাদি
চরমপন্থা
জেএসসি
সবিশেষ
মহিষ
কিন্ডারগার্টেন
মডার্ন
সহযোদ্ধাদের
##উদ
দেখেছিলাম
থাকো
মিত্ররা
হল্যান্ড
সমান্তরালে
মহাসচিবের
কামরূপ
##ৃত
রমেশ
কর্মচারীর
ঘন্টায়
ধর্ষক
ফলেই
##ঠ
সিঙ্গার
রসায়নের
বিপ্লবীদের
ইনজুরি
দর্শনার্থী
থিওরি
আত্মীয়স্বজনের
ডুবুরি
বহুগুণ
প্রভৃতির
কৃষককে
##সৈয়দ
জার্নালে
গেড়ে
বাড়ল
মটরশুঁটি
ছত্রভঙ্গ
ডালপালা
হোসনে
দৌড়াতে
আউটপুট
বিআরটিসি
উচ্চাভিলাষী
প্রিন্টিং
বাড়িভাড়া
ইচ্ছামতো
অনুন্নত
স্টাম্প
জোগাতে
ফিল্ডার
অনেকাংশেই
সবটুকু
সমতায়
##নানা
##ছিটিয়ে
সাতটা
মিথিলা
বেশিসংখ্যক
খিদে
সনদে
শূন্যস্থান
পরিবারটি
কর্মপরিবেশ
নিয়ন্ত্রণরেখা
বেজোস
লাইব্রেরী
জীবাণুর
ক্যাডারে
ধাওয়ান
ফাটা
অ্যাওয়ার্ডস
এজেন্ডা
অমল
বিচারকাজ
কম্বোডিয়ার
অদক্ষতা
দেখল
তিলাওয়াত
কবিদের
ফেলোশিপ
পেতাম
অন্যান্যদের
মাপা
নিশ্চিতকরণ
ব্লা
পরিবেশনাকারী
সরাইল
ভৌতিক
খ্রিস্টাব্দের
শহরগুলির
##প্রাপ্তির
নজরদারিতে
##িদ
##নায়
ওয়েডিং
গাধা
হিজড়া
যাদবপুর
গ্রিড
বাদক
অঞ্চলগুলি
##গুণ
তওবা
উপপাদ্য
মধ্যস্থতা
##বঞ্চিত
ক্যাজুয়াল
রিপোর্টার
আরামবাগ
##ফেন
সুযোগের
জয়ন্ত
মানার
ডিউটি
প্ররোচনায়
কাভার্ড
শুক্লা
##কবলিত
এক্সপ্রেসের
প্রজন্মে
জীবনযাপনে
সোনম
রাজতন্ত্রের
বিশ্বাসকে
পরিকল্পনাকারী
ডিজে
##বার্ট
কমিকস
##ারস
ডুবোজাহাজ
ইংরেজির
দাশের
বর্গফুটের
হাটগুলো
রাজ্জাকের
রামনাথ
তেলেঙ্গানা
##পেন
রহস্যজনক
লেনোভো
হলুদগুঁড়া
আন্তনগর
দেবের
কার্জন
##মুলক
নির্মাতার
অপকর্মের
প্রখর
আলিঙ্গন
অস্টিন
পাউরুটি
উত্সব
জেরি
এ্যান্ড
##র্গ্যাস
##আদালত
আবিস্কার
কোরআনের
সুবর্ণা
আধান
মার্কস
##প্
ড্রাফট
ম্যান্ডেলার
ক্রয়ক্ষমতা
শটে
সাধ
দুয়ার
তুষারপাত
আশ্বিন
কল্যাণী
মেলানো
গৃহবন্দী
খাদ
পরবেন
কষে
সমীক্ষার
চাপাতি
ছয়বার
অবিচ্ছিন্ন
##ঞ্জি
গ্রন্থাগারের
ফারুকের
##ত্র
মানবতা
সংস্থাগুলোকে
উইন্টার
লিংকে
আবেগপ্রবণ
ছেলেমেয়ের
জোরালোভাবে
নেভি
ইউনিসেফের
মানবদেহের
পলক
উইকি
অঞ্চলগুলো
ব্যতিরেকে
রিয়্যালিটি
শামসুন্নাহার
জমায়েত
শূকর
আরোগ্য
ট্রান্সকম
গুপ্তচরবৃত্তি
হাতিয়া
বাত
নেভানো
লম্বাটে
রেবেকা
দেখালে
কর্মবিরতি
ইউপির
হয়ত
প্রফেশনাল
ইস্টার
এয়ারবাস
বাহুবলী
ভেঙেছে
আবর্তন
ছেয়ে
ডিমে
রাঙামাটির
##নস
রেড্ডি
পিসিবি
##থে
কচ্ছপ
প্রসেসিং
গড়ন
উঠি
সীমাবদ্ধতার
মোদী
লোন
ছবিসহ
দিনাজপুরে
ধরনে
আশঙ্কাও
জনজীবন
##সন্তান
শৈবাল
বাইবেলের
পেয়ার
##ত্বিক
বেটে
অক্ষমতা
প্ররোচনা
নাগপুর
খানা
দিনমজুর
অমুক
প্রজ্ঞাপনে
কৃষিমন্ত্রী
ঘুষের
নারদ
মালদহ
বদ্বীপ
##পরীক্ষা
প্রতিষেধক
ইন্টারমিডিয়েট
অর্ধশতাধিক
দেখতাম
ক্যালকাটা
ইউজিসি
গণশিক্ষা
লিথিয়াম
রশি
গুঁড়ি
সাইকোলজি
##ক্কা
তৃষ্ণা
##মিটার
কমলগঞ্জ
##পীড়ন
ডালে
##ন্দি
পরীক্ষার্থীদের
##্যু
কৃষিতে
##ক্ষ
আকাশি
বর্ম
##সামরিক
হাইস্কুলে
ভিআর
ধরছে
##নেওয়া
গোমেজ
নামগুলো
স্বরাজ
##ুদ্দিন
তফসিলি
পিতৃ
##ভাল
অক্ষরের
সাথেই
অপ্রীতিকর
আবজাল
##মুন
সাবধানতা
কুশন
চন্দ্রশেখর
গনী
জামাতে
বৈরিতা
খ্রিষ্ট
##সং
অভয়
উদ্দেশ
রাজিব
##আন্তর্জাতিক
##উইকেট
##বিএনপির
##মিডিয়াম
ব্যাংকগুলোতে
আছ
পানিসম্পদ
প্রভাস
##ইয়ার
নেক্সট
শহরটিকে
গ্যাসক্ষেত্র
ঝর্ণা
বন্দুকধারী
রোজগার
স্ট্রিটের
ঘনিয়ে
ইউনিভার্সাল
উপস্থাপনায়
ধীরগতির
আগ্নেয়গিরি
মহামান্য
সম্যক
অবতারণা
চাঞ্চল্যকর
সানস্ক্রিন
এজাহারভুক্ত
বেকায়দায়
অন্ধ্রপ্রদেশ
##সবার
##পুল
চরিত্রটির
গ্রন্থাগারে
পুদিনা
ভেড়ার
বাঁচা
রুহানি
ফিরবে
ডেকান
হেই
তিরমিজি
এনআইডি
##ানোর
জ্ঞাপন
##ণখেলাপি
ভিন
জ্যাকি
##আগামী
##ষধি
চিরকাল
গবেষনা
##াইজড
সেতুটির
লেট
ড্যানি
##মানুষ
##বাগানের
অ্যাপটির
নোটের
##পর্ব
##কষাকষি
নায়িকার
দোল
উইন্ডো
আযম
উপস্থাপনার
গুজরাটে
কুস্তিগীর
মিরসরাই
কটা
সেচের
আব্বা
ক্ষেত্রফল
সম্মিলন
##ওদিক
অমীমাংসিত
অবনমন
সংকটাপন্ন
ডুয়েল
প্রতিশ্রুতিবদ্ধ
আলামিন
ভাঙে
উপাখ্যান
আশ্রয়ের
বিক্রিত
হেলিকপ্টারে
বঞ্চনা
হাঙ্গেরির
মুহাম্মদের
##ম্নী
গ্রামবাসীর
ডার্বিশায়ার
##কলেজে
দিনরাত
##্টন
অমূলক
অব্দে
মেসিকে
কংক্রিট
হিজরী
উঠত
গানও
সাংবাদিকতায়
দশটা
ব্রাহ্ম
চিনে
শাঈখ
স্কোয়াড্রন
সুসজ্জিত
নাগরিকপঞ্জি
ধরাছোঁয়া
##জাল
আনিসুজ্জামান
প্রক্রিয়াধীন
ইংরেজরা
কোল্ড
ভাবলে
কাতালোনিয়ার
সংখ্যাটা
সুপ্ত
নামছে
মরু
##ঠিকানা
হাবীব
সৈন্যবাহিনী
বিদ্যুৎস্পৃষ্ট
বিনাশ
অপারেশনে
##বোঝাই
##রকম
দ্বন্দ্বে
##গ্রা
ওসামা
খেলেও
ট্রান্সফার
স্থিতি
নাগা
সুনজর
রম
অট্টালিকা
বহনের
##ন্ডার
রিকশার
ফলো
উছমান
আশুতোষ
ইমানুয়েল
চিত্রাঙ্কন
পরিশোধন
মনোরঞ্জন
বামহাতে
সুশান্ত
##ওয়্যার
এভিয়েশন
দেনজামাল
##ক্যি
##উপব্যবস্থাপনা
মার্কো
প্লেস
জলপ্রপাত
বিভক্তির
ছকে
সমাপ্তির
পলিমার
তনু
চত্বরের
দুজনেরই
শিট
আটকাতে
উড্ডয়নের
সংশ্লিষ্টরা
ভ্যালু
হোস্টেলে
ইনকা
নেশন
নীতিনির্ধারক
নিকটস্থ
সুমাইয়া
এন্টার
অস্ত্রধারী
ওডিশা
কুপার
স্ট্রবেরি
##ম্ছোগ
অপেক্ষমাণ
দুর্ধর্ষ
ব্লকবাস্টার
ডিসঅর্ডার
বিক্ষিপ্ত
##্তি
ম্যাকবুক
নেটফ্লিক্স
পারদর্শিতা
উচ্চতম
থাকতাম
আর্চার
##রাজা
মেট্রোর
হজে
সিআইএর
বসনিয়া
স্টেক
মেলানিয়া
খাদে
হাটবাজার
গিরি
সর্বত্রই
গুণফল
ইলেক্ট্রনিক
যুক্তিযুক্ত
##সনের
গুলিয়ে
মার্ক্স
দোকানদার
মাতাল
সম্মাননায়
রাজবাড়ীর
রাউল
কাস্টম
ছবিকে
আমায়
পর্যটনকেন্দ্র
ধনাঢ্য
জইশ
ভ্যানে
অব্যবহিত
সংবিধানসম্মত
তামার
ভাবলাম
##ারী
মিন্টু
##লুং
অপমৃত্যু
গেটম্যান
হাতুড়ি
কর্মকার
ভেদে
##কির
শেখেন
পার্বতীপুর
লাক্স
ভিত্তির
নেতারাও
ব্যবহার্য
রক্ষণভাগের
ধর্মঘটে
প্রজেক্টের
কাঁকড়া
আপ্যায়ন
শিপ
##সমালোচনা
##অবশ্য
মেকার
টিক
মানবজীবন
##দশ
প্রস্রাবের
অধীর
ফরম্যাট
উঠা
##রুম
বিকৃতি
##প্রাণ
ঘটনাবলি
দামোদর
রেফ্রিজারেটর
বাংলালিংক
জড়িতদের
জিপ
বাবুর
জাদুঘরটি
##সংস্কৃতির
অডিট
বেঞ্জামিন
রক্ষাকবচ
আনুপাতিক
আবগারি
স্ন্যাপড্রাগন
বোয়ালখালী
সেশনে
কাটাচ্ছেন
সন্দেশ
কোঠায়
গর্ভকালীন
শান্তিরক্ষা
##স্কা
পরদিনই
পলায়ন
##জেলা
গ্রহাণু
##রঞ্জন
ট্রেন্ট
দাঁড়িয়েছিল
##লিস
##স্ব
প্রকৌশলে
অপেশাদার
##পির
রক্তচাপের
শিল্পবিপ্লব
টনক
নিত্যদিনের
ওয়াজ
কণিকা
তাহার
মগবাজার
ধরবে
করলো
বিষণ্ন
মন্থর
ব্রেড
সৈকতের
দুর্বিষহ
পরিযায়ী
মোশারফ
খেটে
কনজ্যুমার
বদনাম
নিবদ্ধ
নিবৃত্ত
মৃধা
বৈশিষ্ট্যগুলি
ফিউশন
বার্বাডোস
ময়ূর
##বাহিত
মুনিম
অনুসরণে
লিবিয়ায়
সুইডেনে
পিছন
আইনস্টাইনের
ইস্পাতের
প্রতিক্রিয়াশীল
##দক্ষিণে
প্রতিষ্ঠানটিকে
উদ্বাস্তুদের
সেলিমের
মাংসে
বণ্টনের
হাওলাদারকে
রাখেনি
##হাত
##থার
টানাটানি
রুমানা
ভোগান্তিতে
##তাদের
গুলজার
শাসনকর্তা
ঢুকেছে
জায়ান্ট
মাইক্রোওয়েভ
সেমিনারের
অ্যাংলো
পূর্ণবয়স্ক
লিখছেন
গাজার
সম্মেলনকক্ষে
পয়োনিষ্কাশন
রাষ্ট্রব্যবস্থা
আঙিনায়
রিয়াজুল
ফিজিক্যাল
মুগাবে
ফুসফুসে
সৃষ্টিকর্তা
এপ্রিলব্যবসায়ে
ভেঞ্চার
কাউন্টিতে
রেঞ্জের
মুখার্জির
জোনে
##প্রতিদ্বন্দ্বী
ফুলেল
##জেনারেল
ড্রাই
ব্যর্থতায়
বাস্তবের
রোহিঙ্গাকে
হাসিল
প্রসেস
অনুদানের
কানা
বোতলে
গরিবের
রুলস
দুর্গার
বাচ্চাকে
শিল্পকলার
রাসূল
সামি
সী
পাঠশালা
গলিয়ে
শিন
কুয়াশা
ইম্পেরিয়াল
সুপেয়
এতো
গিয়াসউদ্দিন
গেয়েছিলেন
জুয়েলার্স
ছদ্মনামে
নদীকে
গল্পগুলো
##শেখ
চিকিৎসককে
পেনড্রাইভ
চেন্নাইয়ের
বঙ্গের
কাউন্সেলর
কূটনীতি
শিল্পীকে
##করন
##পালন
জাহ্নবী
যুগান্তর
ঘাসের
হনুমান
আন্না
নওগাঁর
নেওয়াজ
##ণপত্র
সবখানে
কুর্দিদের
ফিড
নয়াদিল্লিতে
বারাণসী
টেন্ডুলকার
ফরিদপুরে
শ্বশুরবাড়ির
জড়
বেগমকে
বরেন্দ্র
##নবী
বদলির
প্রেসিডেন্সির
পরিবারগুলোর
সহস্র
##কণ্ঠে
অগ্রদূত
কাজুবাদাম
নামীদামি
অ্যানড্রয়েড
আর্টিলারি
নালন্দা
ওয়ারউইকশায়ার
পুঁতে
দাহ
আমলকী
মূল্যবৃদ্ধি
নবাবের
পেকুয়া
##র্ক
কাঁথা
##ভাবনা
শ্রীরামপুর
ভাগবত
আঙ্গিকে
নরসিংদীর
রাশিচক্রে
লেটার
##চেয়ারম্যান
##্তা
সরেজমিন
সমালোচনামূলক
তেমনটা
অভিনেতাদের
##তরুণীদের
##পরিজন
মুক্তার
##যদিও
স্বরে
কারণও
আইএ
ফুয়াদ
যেতো
ধরেছিলেন
অফিসারের
করমুক্ত
আর্কিটেকচার
টসে
খোঁজাখুঁজি
ফার্নিচার
বিভাজ্য
লজ্জিত
সিপাহি
অপ্রাসঙ্গিক
ব্যবহারই
পশম
আধার
নাসিরনগর
পাইথন
রিয়া
ডিএনসিসির
মঞ্চায়ন
ইউনিটটি
ষোল
পরিসীমা
ইউটিউবের
স্বাধীনতাবিরোধী
দরদাম
##শ্
রাস্তাঘাটে
মহোদয়
দুর্যোগে
হরিপুর
গুনে
পাঠকেরা
পিছ
বন্দুকযুদ্ধের
চাইনিজ
মরক্কো
হানার
আধ
পাখিটি
ছলে
সুযোগটা
দৈর্ঘ্যে
বিবৃত
ওয়ার্কিং
##জাজিরা
আসনসংখ্যা
সফলতম
চাকুরি
##ালি
নাট্যদল
ঘনত্বের
##োভিচ
কেজরিওয়াল
শরীফের
স্তম্ভের
সরণি
পরিণতির
##মেলা
ঘেঁটে
গৃহপালিত
অনুসৃত
ছড়াছড়ি
ঘনফুট
লিওনার্দো
পদচারী
##লং
উপর্যুপরি
ইশতিয়াক
কার্টার
বিআইডব্লিউটিএ
নিতেই
হিন্দুধর্ম
ইমোজি
খসে
লোপ
খুঁজছেন
সহযোদ্ধারা
সরবরাহে
খাম
দীপা
উলফ
শীতাতপ
ক্যান্সারে
আগ্রহে
স্নো
বাছাইয়ে
খালা
##প্পা
##বাকী
হরফ
শাস্তিযোগ্য
##কত
বিদায়ের
ক্যারল
লেমন
সিডনির
এয়ারওয়েজ
শীতলক্ষ্যা
চিপস
কনা
মধুপুর
ধ্বংসযজ্ঞ
ছয়জনের
অনাদায়ে
স্যান্ডউইচ
বাড়াচ্ছে
ঘনবসতিপূর্ণ
হায়াৎ
অপর্ণা
##গোষ্ঠী
অব্যবহৃত
শিপিং
বৈকি
ইন্দোনেশীয়
গ্র্যামি
##ব্কা
জঁ
মৌজার
বিচ্ছিন্নতা
##ছোট
##শৃঙ্খলা
সাঁকো
রবিনসন
##জয়
গোয়েন্দাদের
ফুটেজে
অন্তরঙ্গ
কংক্রিটের
সাফারি
সংগতি
ছেঁড়া
আরবিতে
অ্যান্টার্কটিকা
হালে
সান্নিধ্যে
##দুল
ফেমে
সমারসেটের
টেন্ডার
উগ্রপন্থী
##নদীর
ডাউনি
রুমাল
বামপন্থীদের
কর্ন
বিচ্ছিন্নভাবে
##শেষ
এমআই
আর্মড
মেঘে
রয়্যালস
বুলি
দেবাশীষ
নামটির
ওরচেস্টারশায়ার
##োল
সুফিজম
গোর্খাল্যান্ড
ইয়েল
নিচ্ছিলেন
উন্নতমানের
হিলিয়াম
এসএম
সঙ্গম
শিক্ষকতার
তামান্না
নার্সারি
বঙ্গাব্দ
##রুপ
ফেলুদা
##চো
##মণি
##অভিনেতা
সিজন
হাতিরঝিল
##কিশোরীদের
গ্রহে
দীপ
পদ্ধতিকে
ক্যামব্রিজ
এলি
মহামারী
##ন্ন
ধনকুবের
এভারটন
বিক্ষোভকারী
প্রশিক্ষণার্থী
খেলাফত
মণ্ডলের
ুমায়ূন
বিক্রেতাদের
তিরস্কার
হাজীগঞ্জ
সিবিআইয়ের
ভালোবাসতেন
মুমিনুল
অ্যাসাঞ্জ
##ইয়ে
মহানগরীর
এডিসন
সাহায্যকারী
সংসদকে
অস্ট্রেলিয়াকে
##স্টোন
ইচ্ছাকৃত
এইড
নেত্রকোনার
স্টাডিজের
থাকবেই
##যোগ
মতাদর্শের
##ভোগ
লক্ষ্যবস্তুতে
দক্ষিণাংশে
দেওয়াটা
ডেস্ক
জনস্বার্থে
##অন্য
বিশেষ্য
তৈমুর
সুইট
পরিসরের
ফ্রিকোয়েন্সি
##ফিল
##নান
গাছটি
স্টে
ছদ্মবেশে
##বাচক
আর্ম
বসত
বেড়ান
মাঠপর্যায়ের
ধর্মাবলম্বীদের
##স্তান
ঘুরপাক
ঘোরাফেরা
অধিকন্তু
ওপরেই
ভেটো
দাহ্য
মোক্ষম
মুঠোয়
মাইকিং
বাড়া
রদ্রিগো
জানাব
পৌঁছেছিল
প্রসঙ্গটি
অ্যারন
##অর্ডার
রাজনীতিই
লুপ
##ঙ্গার
লাইনচ্যুত
টানার
যমুনার
শ্রমিককে
চিলমারী
##গল
বিবাহবিচ্ছেদের
টেলিস্কোপ
রাষ্ট্রদূতের
##তিয়া
ওয়ালটনের
একপাশে
নানক
কৃতি
ওসমানের
অপরূপ
থু
তৈল
##সেতু
চিঠিটি
সঞ্চালনায়
নিশ্চুপ
খুরশীদ
অগ্নিদগ্ধ
সমধিক
অবস্থানকারী
রোগনির্ণয়
ক্রুদ্ধ
স্বল্পমেয়াদি
শ্রেষ্ঠাংশে
খবরও
ওয়ালেস
ডুয়াল
ধোপে
ব্যানার্জি
সেক্যুলার
দেখেছিল
প্রত্যাবাসনে
খের
ধরি
##সামগ্রী
ছবিগুলোর
কমিক্স
সুরেশ
##েত
বীরত্ব
মোছা
উচ্চমানের
আচরণকে
বেলের
হোমস
সবটাই
বেহালা
লাম
ওয়াশ
##বিতর্ক
রূপসা
পর্বটি
কারেন্ট
মেম্বার
##হরি
সেলের
কর্মকর্তাসহ
দমদম
হৃৎস্পন্দন
সুজি
ব্যাজ
ইনফিনিটি
##াদ
সিপিইউ
হার্ভে
রিমোট
তিথিতে
পরিশোধিত
দৃঢ়তার
দলমত
মডিউল
অসার
চ্যান
হইবে
কুইন্সল্যান্ড
তাসলিমা
ডোজ
নেশায়
ড্রেসিং
##টক
##বাহিনী
হালকাভাবে
সদৃশ
ইঙ্গ
মস্কোতে
অ্যাশ
##সাগর
লর্ডস
সাক্ষীর
##বিদ্বেষ
ব্যাকটেরিয়ার
রাঃ
সেন্টিগ্রেড
জানো
##চরণ
আহবান
প্যারাসিটামল
মর্মাহত
সর্বাধুনিক
নেপোলিয়ন
শিনজো
চামড়াজাত
মাহফুজুর
বেহাত
নিরাপত্তারক্ষী
চিত্রের
নিঃসৃত
##সিল
সমাবর্তন
বিনোদনমূলক
নিবারণ
##াকৃতির
ইবাদতের
শর্করার
ভিলা
হাঙর
##প্রতিষ্ঠাতা
দোতলায়
অন্যরকম
কল্পকাহিনী
##াসের
অটোরিকশায়
নত
##কোলা
হান্ট
বলটি
##আন্দোলন
##রস
পণ
খবরটা
আইয়ের
পোলট্রি
সংবাদমাধ্যমগুলো
##হাউস
চিন্তাবিদ
আলীম
অবশ্যম্ভাবী
দুঃসহ
অবমাননাকর
তুলসী
সেফ
অ্যাডভান্সড
জুভেন্টাসের
ড্রয়ে
##াং
অধরা
কোরাল
মোমবাতি
দেবদাস
ব্যারি
উপাদানগুলি
গাজায়
পশতুন
কলিজা
রেজিমেন্টে
বাগদাদের
কয়েন
##গাড়ি
কোলন
নিষ্ঠা
##জাম
দুর্নীতিতে
নিবিড়ভাবে
হারও
##্জ
ভাবমূর্তির
ক্লাসিক
ভাবাদর্শ
ভিএ
উদর
##সাল
ডেড
##ব্যাংক
পজিশন
সৃজিত
বস্তুকে
জিলহজ
পরিমাণের
ছোটবেলার
জুনায়েদ
পরিপাটি
আঁকাবাঁকা
তুলনীয়
মীরসরাই
তিউনিসিয়া
##সাহিত্য
স্ট্যানলি
ভাবিনি
লবণাক্ত
নিপুণ
উন্নততর
এনবিসি
অরোরা
নদিয়া
সুচিত্রা
ঝরনার
দেনা
দেশগুলি
লিখলে
ফরম্যাটে
মোহনায়
এদেশে
ব্যথায়
নালিশ
হাঙ্গামা
##ক্সি
রিকশাচালক
যথার্থই
দৈব
লক্ষ্যমাত্রার
অপারগতা
নায়ার
ডিজি
যাওয়াটা
এতিম
ওয়েট
মাদ্রিদে
হত্যাচেষ্টা
মাউন্টেন
সিড
##ব্রা
বিমোচন
জোড়ায়
পোনা
পাওলো
ইলা
দুর্গাপূজার
##ুরা
অঙ্গন
রোভার
##লায়
সড়কটির
আইফোনে
বদৌলতে
রিজিয়ন
ঝোপ
প্রমিলা
গণযোগাযোগ
পসরা
##প্রেমী
##হাতি
##মতি
অবস্থাকে
আলগা
পরিবেশনায়
অনাচার
আদিল
ডেল্টা
##চাঁদ
এক্সপ্লোরার
অথরিটি
শিক্ষামূলক
হান্টার
কল্পিত
শৈলীর
তোরণ
আত্মবিশ্বাসের
লম্বায়
আগেভাগে
প্রজননের
##স্বত্ত্বেও
উত্তরোত্তর
ভুবন
প্রণয়
টিফিন
তর
কারেন
প্রাচীনকাল
সুস্থতার
মুকেশ
নগরবাসী
##বাদীদের
পরিবারগুলো
আরবান
সাধনের
শোরুম
সুপারিশের
বিষয়গুলি
সওয়াব
বরাক
স্বায়ত্তশাসনের
চৌদ্দগ্রাম
নিষ্পাপ
রীয়াজ
স্বাদুপানির
পার্টনারশিপ
ভোজ্যতেল
সুইমিং
পার্থিব
বোমাবর্ষণ
##ক্ষণ
##োলজি
শর্মিলা
দাঁড়ালে
জেলখানা
বাঙালী
রায়গঞ্জ
জ্যোতির্বিদ
কবরের
লোকজ
পম্পেও
হারবার
হতাম
এলজিইডি
বাবলু
পিয়ংইয়ং
##বিদ্যার
ইথিওপিয়া
জানলে
##ানু
ঝাড়খন্ড
##র্নাম
ব্যক্তিবর্গ
পারদর্শীতা
মাছটি
##সবকিছু
##ধু
ঘরটি
বুলবুলের
হিমু
##ময়মনসিংহ
##স্প
মেজ
সেবনের
একাডেমীর
ফোলা
সিল্কের
নেবার
মিশ্রণটি
##বিশ্লেষণ
হটে
শক্তিমান
##রক্ত
পাইয়ে
ট্রিবিউন
##বাণিজ্যে
ডাম্বলডোর
ডেমোক্রেসি
পলিটিক্যাল
তরবারি
শ্রীকান্ত
অবমূল্যায়ন
##ৎস
মিটিংয়ে
লাগোয়া
স্টেরয়েড
ক্রিজে
চুলকানি
করলা
পুরসভা
##স্বতঃস্ফূর্তভাবে
স্টেটস
বৃদ্ধা
এএস
সনাক্তকরণ
##পাদ
মলে
বয়স্কদের
অমুসলিম
যিশু
ট্যাঙ্ক
##হেড
মহি
পৃষ্ঠে
এলপি
সেগুলোও
রসিদ
শূন্যের
তিনজনই
ঘুড়ি
অজান্তেই
আবিষ্কারক
লেপ্ট
নিয়ন্ত্রণকারী
মঠের
বর্গের
ফাগুন
যতীন
সৌরবিদ্যুৎ
রিসোর্স
উদযাপিত
হ্যারল্ড
কৃষ্ণগহ্বর
শিকল
প্লাজমা
ভিলেন
লগইন
জিইয়ে
বেলারুশ
আওতা
পর্ষদে
পূর্বনির্ধারিত
ফটোগ্রাফার
অব্যবস্থাপনা
পেনসিল
বিষয়াদি
কথোপকথনের
নিখুঁতভাবে
রেস্টুরেন্টে
জ্যামিতি
প্রতিবেশীরা
খুলেছেন
##বুল
কামিল
ঘোলা
ব্র্যাড
পরিবেশদূষণ
##সিদ্ধান্ত
বিজয়নগর
মোটিফ
উত্তরাঞ্চল
দিনও
ফ্যাশনে
বহুবিধ
মৃত্যুকে
শাহবাগের
বচন
গমের
রাউটার
টেক্সাসের
দাদার
সূত্রটি
##খু
বৈধভাবে
ব্রজ
অডিশন
হায়দরাবাদের
খননকাজ
তাঁকেই
##ফো
অপ্রকাশিত
প্রে
পেছানো
আর্ল
ডায়াবেটিক
তালাকের
দুটিই
আসিয়া
অনুরাগী
রিলিফ
সমস্যাকে
চলেছিল
পোকার
মানহানির
আঃ
প্রাণকেন্দ্র
মিটারে
শাসনামলের
জুতো
##ছাড়া
গৃহযুদ্ধে
অস্থায়ীভাবে
উপবাস
##াইট
হাইপার
গড়েছিলেন
হুইল
##্টার
রোদচশমা
মৃত্যুবার্ষিকী
ফন্ট
ভাষাসমূহ
গুলোতে
দেবীকে
চাষিদের
দিব্য
রেইন
সুনামি
নিয়ন
ত্রাস
মুম্বইয়ে
ওয়ালি
##কৌশল
##চক
জনই
ব্যথিত
ট্যারিফ
দৃপ্ত
স্বঘোষিত
মোটরগাড়ি
খেপে
মূল্যমানের
গ্নু
ক্ষুধার্ত
গডফাদার
##জন্ম
আমেনা
উচ্চবিত্ত
অগ্রযাত্রা
মল্ল
কেনে
সিন্ধি
লিগ্যাল
মিউনিখে
বিসিএসে
খোকা
অস্বস্তিতে
পরীক্ষাগারে
ফরচুন
রাউলিং
##িলা
##কক্সবাজার
প্লিজ
আহতদের
ভুবনেশ্বর
##প্রশ্বাস
সহগ
নিঃশ্বাস
জঙ্গিবাদী
দ্বীপটির
থালা
পদমর্যাদার
ভিলেজ
গবাদিপশুর
আগেকার
রুমি
লয়েড
মার্স
প্রকরণ
বাগমারা
সমাজবিজ্ঞানী
পালে
উলুম
তবলা
উচ্চমাত্রার
##াইয়ের
ব্যালিস্টিক
কার্যবিধি
চার্জিং
##বাড়ির
এম্পায়ার
দুগ্ধ
বিশ্ববাসীর
প্রস্থান
এরাই
উদ্ধারকাজ
##শক্তির
আশুরা
সর্বস্তরে
দশে
আসব
পদায়ন
পাঞ্জাবির
পদার্থবিদ্যা
লেই
ব্রেইন
পাতাল
পড়েছিলাম
##রেল
ভাসা
বিবেকের
মিরর
লড়াইটা
##আসা
শিখরে
ঠাট্টা
বচ্চনের
আইএসও
তলদেশে
প্রেমিকের
বাথরুমে
ওয়ালিদ
বার্ক
রাখতেই
তুর্কী
##যুক্তরাষ্ট্র
ফ্রিজের
আবেদনকারী
ইটভাটার
উজবেক
মণিপুরি
##ছাত্রীদের
উপজাতির
গোষ্ঠীগুলোর
হকার
নিউরো
ধনেশ
ফেনসিডিল
সাউদার্ন
স্যানিটারি
ওয়েস্টমিনস্টার
যুদ্ধবিধ্বস্ত
##জনক
বৌদ্ধদের
##ব্যা
বিকিনি
ম্যানুয়েল
নিম্নমুখী
রুটির
ডিস্ট্রিক্ট
বেলায়ও
অর্জনকারী
আত
লক্ষ্যের
##দেন
পরিপত্র
নোটবুক
একজোট
##কাট
সনদপত্র
নিখোঁজের
টব
বাটলার
ক্ষার
পল্লবী
অভিবাসীরা
আকাঙ্ক্ষার
সাবলীল
অণুজীব
ভেবেই
খেলানো
বিডিআর
##ানুসারে
বার্নার্ড
কেলেঙ্কারিতে
মালিকপক্ষ
##পুকুর
##ুই
বিক্রয়ের
মৃত্যুকালে
আরেকজনকে
বহির্ভূত
মরক্কোর
স্ট্রিটে
পালাবদল
##তথ্য
ইন্ধন
পুনঃপ্রতিষ্ঠা
রোববারের
ঘরেই
অপ্রতিরোধ্য
প্রশমিত
কনসালট্যান্ট
সারফেস
সরয়ার
নিরুপায়
ট্রেডমার্ক
কলিকাতা
অরাজনৈতিক
ঘায়েল
যৌগিক
ফতেহ
সময়সূচী
মেটা
বেআইনিভাবে
দায়িত্বপালন
মাখোঁ
থামানো
দৃশ্যপট
গর্তের
চীনারা
চাইনি
##কলমেই
##পাঠ
সুন
গলদ
এট
##সেরা
##উল্লেখ্য
অর্থদণ্ড
উসকানিমূলক
কারোরই
নর্দমা
রূপকল্প
ধরবেন
ফ্যান্টাসি
স্থানেই
##বিদেশযাত্রা
জমানো
মিডওয়াইফ
##আইন
হ্যাকিং
পণ্ডিতদের
কেঁপে
তেঁতুলিয়া
পুরুষে
##োতে
প্রবাসীরা
কুই
বাড়িটির
বিপাক
ভোকাল
##টিয়া
নিষ্ঠুরতা
##টান
লিসা
চামচপ্রণালি
শেষকৃত্য
খুলি
ফেরানোর
##প্রকাশ
মাদুরো
##গর
##কয়েক
সন্দীপ
বর্গমাইল
হাদিসে
##নিউ
##িয়ো
জহুর
বলবিদ্যা
জীবনধারণ
সাহ্
থামে
বৈমানিক
ঘুরছে
চায়নিজ
ইনিশিয়েটিভ
আওরঙ্গজেব
অনুমেয়
অশ্বিনীকুমার
হিমায়িত
এমভি
##ানী
বছরজুড়ে
ঘুমন্ত
তলানিতে
##মন্ত্রীর
চালাবেন
ইফেক্ট
মাছগুলো
খেলেই
অসমতা
বাফুফে
চাইলাম
মাদারীপুরের
বিকিরণের
ইলেকট্রনিক্স
এগুলোতে
টোবাগো
##প্রেসিডেন্ট
ওয়েলিংটন
মান্য
##দীপ
মহিমা
মন্দিরটির
আমিই
ঘ্রাণ
নটর
উত্তরবঙ্গ
টিনটিন
আফসার
লবণাক্ততা
আজাদের
স্বর্ণের
প্রিন্সটন
নস্যাৎ
ফায়ারফক্স
ভ্যাটিকান
জীবনেও
চিরাচরিত
প্রতিটির
বাঘাইছড়ি
যথার্থতা
মিঠু
আগাছা
ফ্রেডরিক
পেস্তা
লালু
সোমালিয়া
স্বর্গে
মোনাকো
কার্যক্ষমতা
নোভা
দশেক
আক্রমন
শামুক
##পতন
অপমানিত
একগুচ্ছ
ভূতের
##বিশ্ববিদ্যালয়ের
##কাঠামো
মেনু
##ত্রা
খেজুরের
আহরণের
কূটনীতিকের
##টাস
##াট
মূলধনের
কুইন্স
আগেভাগেই
নৈপুণ্য
মিথ
ভারে
দুর্দশার
কনসাল
জনপদের
বাসযোগ্য
পুনর্বিন্যাস
গর্জন
সাক্ষীদের
আলেক্সান্ডার
উৎকীর্ণ
রমরমা
টেক্কা
স্কাইপ
সিঁড়ির
ভাষ্যকার
##নতুবা
এমপিদের
মহল্লার
একটুখানি
সরীসৃপ
আচ্ছাদন
গণপূর্তমন্ত্রী
অভিনয়শিল্পীদের
ভাববেন
ব্যাংকিংয়ের
রাহিমা
যাপিত
পারভিন
বছরখানেক
##স্থলে
তোষণ
গ্রেডের
বিল্লাহ
লুকা
তানজানিয়া
সতী
এক্সপ্রেসওয়ে
ফেলছেন
শিবলী
হ্যারিসন
দর্শানোর
বলপ্রয়োগ
হেলে
পুষ্টিগুণ
##অধ্যাপক
##সৃজনশীল
বীরত্বের
দেও
##চর্চা
প্রহসন
চার্ট
প্রিলিমিনারি
ট্রলারে
কোন্দল
পর্যবেক্ষকদের
ভোক্তার
অনেকসময়
সমমান
মনিকা
ইনডোর
আবেদনকারীদের
কান্নার
মাঠটি
মামুনের
পুরকৌশল
পাতে
আন্তরিকতার
শরিফকে
##রেন
বলটা
খাসি
ঘটনাটা
ব্যাটসম্যানকে
বংশগত
বৈচিত্র্যের
মাদরাসা
মূল্যমান
খণ্ডিত
পাঠের
উঠছেন
ম্যানেজারের
ইএসপিএন
ম্যানগ্রোভ
শিশ্ন
প্লেব্যাক
ডাকযোগে
##কান্দা
ব্লেয়ার
ফসফরাস
##ফর
এমটিভি
##শালা
ইসলামাবাদের
##প্রক্রিয়াজাতকরণ
পুদিনাপাতা
সম্ভবপর
ভবনগুলো
দিয়েছেনও
মনীষা
কাঠা
হরফে
জ্যোতিষ
একারণে
তাজিক
##আন
ম্যানচেস্টারে
রাহাত
নিকটাত্মীয়
পূর্বেকার
বিজন
##নাই
নাজিল
মাফিয়া
##ঝি
খাওয়াই
পশ্চিমাঞ্চলীয়
অভিযোগটি
অপারগ
বসান
আদিত্যনাথ
##নালা
ভাতার
নৃবিজ্ঞান
পরমহংস
##ীকরণের
টাস্কফোর্স
টেরাবাইট
ইউনিফর্ম
ধুলাবালু
জামাকাপড়
অ্যাভেঞ্জার্স
সাল্লাল্লাহু
তরিকুল
বঙ্গমাতা
গ্রীষ্মকাল
চেষ্টাও
নিশ্চিন্তে
বিপরীতমুখী
ধকল
দেশগুলিতে
জার্মানদের
সময়োপযোগী
একনায়ক
ধুলো
ক্রিস্টিয়ান
##গুলোই
ঐশ্বরিয়া
বাল্টিক
জেটলি
দিনটিকে
জোয়ান
ধর্মবিশ্বাস
সম্ভাবনাকে
ইউনেসকোর
মাতৃভাষায়
##সমর্থকেরা
হাসপাতালটি
ক্রিকেটকে
##দুর্নীতির
সিনহার
##রক্ষকের
প্রবলভাবে
খোলাসা
সম্ভাবনাও
ক্যান্সারের
নিকোলা
##পাস
##শীপ
অভিযুক্তদের
দাবিগুলো
ছাপাখানা
ফুরফুরে
মটোরোলা
যকৃৎ
উদ্ভট
নকআউট
মর্টার
##রূপী
জ্যৈষ্ঠ
পিএ
পুর্বে
কৈশোরে
মুন্না
স্কিম
মেকানিক্যাল
হিলারিকে
ওয়েজ
হওয়াই
ব্যবস্থাপত্র
প্রাচীরের
পচন
দারিদ্র্যসীমা
চারু
অববাহিকায়
আইএসআই
ভলিউম
অন্ন
কয়টা
অ্যাক্সেস
##ভিউ
এজেন্টের
লাঘব
##চলতি
শোকে
ক্যু
পাস্তা
জানমালের
স্পিনারের
রাজ্যটি
চর্বির
উপাদানে
হরিয়ানার
##ডাই
##কোষ
ফার্মেসি
প্রশংসার
##পন
##মুর
##বিয়ের
তাতার
ক্রে
স্ট্র্যাটেজিক
ইমেইল
##মূল্য
মুমিন
অঙ্গসংগঠন
পরিত্রাণ
মোকাব্বির
রাব্বী
কিংডম
রোম্যান্স
রানার্সআপ
সারিবদ্ধ
ফ্রেন্ডস
পাচ্ছিলেন
আখ্যান
তাহসান
বলতাম
রণবীরের
স্পিরিট
খিলগাঁও
যুদ্ধাপরাধী
স্থবিরতা
##ালে
বক্তব্যকে
ম্যান্ডেট
##ল্যা
ভুগে
ভাগনে
কাটের
উত্তেজনায়
দেহরক্ষী
নাহয়
##লক
গৃহস্থালি
টাইলস
ফিজি
অন্বেষণ
উদারনৈতিক
রেলপথটি
পক্ষপাতী
রাইন
পুরী
##স্কো
আপার
শ্রমশক্তি
জয়ন্তী
ইতিহাসকে
##সাস
##সিং
দুগ্ধজাত
নভোচারী
নেকড়ে
প্রধানতম
অযাচিত
ইসরায়েলকে
অপরিকল্পিত
দ্রবণ
মৌর্য
কদাচিৎ
মানবেতর
গৌরবান্বিত
নগরায়ণ
রেগুলেটরি
রাজ্যগুলোর
ভূয়স
তন্ময়
লুটিয়ে
বিদেশিরা
ক্ষতিসাধন
কনফেডারেশন
##খো
দ্বারাই
সুয়ারেজ
মস্তক
ডেমোক্র্যাটদের
কাদেরকে
রেহানা
চিয়াং
##শিক্ষার্থী
ক্যান্ডি
গৌর
##খি
ফিনিক্স
##শির
উৎপাদনশীল
নিমন্ত্রণ
জোনস
তোলায়
##ঘরে
নৌবাহিনীতে
খুশির
আইও
##ছাত্রী
পরিশ্রমী
পাতি
কাভার
ইথিওপিয়ার
অকালে
বিচ্যুত
পার্ট
বেদের
আগ্নেয়গিরির
##শিবির
পারসিক
ঘিরেই
অ্যাক্টরস
দীর্ঘমেয়াদী
স্বরবর্ণ
ক্লোজ
অপ্রচলিত
ওয়াজিব
আজমল
কলহ
হারিয়েছিল
রোমাঞ্চ
লিখলেন
অ্যান্ড্রয়েডের
উপযোগিতা
মিলানের
কাজকর্মে
জিয়ারত
মায়ার
মাধবপুর
শাবান
নাফ
বাকারা
ভাদ্র
স্বদেশী
কাস্ত্রোর
কুয়ালালামপুরে
ডায়োড
কুলদীপ
মেশিনগান
শ্রবণ
পাঞ্জাবে
শরীয়তপুরের
##দূর
আমলাদের
তারপরই
##মালিক
##াবস্থায়
বিক্রেতার
তাঁকেও
কক
ফ্লু
##অপছন্দের
গুর
##িব
হৃদরোগে
প্যানেলে
ম্যাথু
এডিবি
মাইক্রোবাসের
নায়েব
ডের
রক্তশূন্যতা
নাট্যশালা
আক
ছাত্রনেতা
অলিখিত
সিপিডির
নর্দার্ন
সবগুলোই
দেশী
অ্যানেসথেসিয়া
তাবলিগ
রসগোল্লা
ইনফেকশন
নিম্নবিত্ত
দাবানল
এলাকাতে
##গেল
##চারটি
শ্রুতি
##ন্ধ
মুদি
এককালীন
ভেবেছেন
অযোধ্যা
##মৃত্যু
ক্রমাগতভাবে
##ভক্ত
পতঙ্গ
অ্যাডিলেড
ভালুকা
ধাম
বিজয়ীরা
প্রতিষ্ঠানটিতে
বিক্রয়কেন্দ্র
শ্রমবাজার
কালিয়াকৈর
গোবর
কার্যক্রমকে
##জয়ী
কালিয়া
ছাতার
##শিবিরের
বদলা
##চারজন
বহুত্ববাদ
এলাকাগুলোতে
বিটিভি
বুদ্ধিদীপ্ত
ক্রাইসিস
ঠাণ্ডা
নেচে
আব্বাসের
খল
রোমাঞ্চিত
লুমিয়া
ভারসাম্যহীন
মুক্তিকামী
সঙ্গীতধর্মী
খাদ্যদ্রব্য
লঞ্চে
স্মৃতিশক্তি
ইন্দ্রিয়
নানারকম
মধ্যস্থতায়
ব্যবসাবান্ধব
খাব
বুদ্ধিমানের
শাসনভার
কারণটি
##গাছা
টিলার
থিংস
এগুলিকে
ভারতবিরোধী
মেসোপটেমিয়া
ভাষাগুলির
##রিস
চিন্তাধারার
কেল্লা
যন্ত্রণায়
বিশ্বাসে
ওয়াক্ত
লারা
পুঁজিবাদের
কেয়া
নদীগুলো
##াকৃতি
কুরাইশ
পেজের
হামাসের
ব্লকটি
##সেট
উদ্যম
বাসুদেব
করাচ্ছে
জলি
##পোর্ট
বিলাস
##জীবনে
অক্লান্ত
আমতলী
আর্সেনিক
ঘোষণাপত্র
সান্যাল
কার্টুনিস্ট
ইঁদুরের
ডিলান
সমকক্ষ
পরস্পরবিরোধী
ভিনসেন্ট
রেডিওর
সুরাইয়া
ঈর্ষা
সিংহাসনের
নিয়ত
নাগাল্যান্ড
দুর্নীতিমুক্ত
##্টো
শিলচর
মণিপুরী
শেষপর্যন্ত
কিনারা
জারা
সিরিয়ালে
যাকের
নিরোধ
টোয়েন্টি
##মন্দির
##খে
হৃৎপিণ্ড
খোলে
ভূষণ
ভট্টাচার্যের
কফির
শাহকে
জলাবদ্ধতার
গালে
মাছি
পরিসংখ্যানের
রিজার্ভের
##বুদ্ধি
কাবু
টুকটাক
রিলায়েন্স
দ্রবীভূত
শুভসূচনা
ছয়জনকে
ফিলিস্তিনে
বপন
গ্রেগরি
রিপোর্টার্স
মুক্তিবাহিনী
পরিমানে
শর্তের
কিনেছিলেন
##চালক
অবশিষ্টাংশ
##নিহত
আয়তনে
ঝুলিতে
শোবার
বাংলো
জোটবদ্ধ
সুমাত্রা
##এতে
##পট
নাটাল
প্রযোজকের
ফিঞ্চ
দাগে
ঠেকে
উপরিভাগে
নমুনার
অমিল
##ঙ্গে
##মিশ্রিত
##মানব
ফেস্টিভ্যাল
চন্দ্রের
করবিনের
আয়ুর্বেদ
খ্রীষ্টাব্দে
##প্রশান্ত
কফ
কম্পন
একথা
পিউ
মস্ত
হইয়া
মৌলবাদ
এককালে
##জ্যোতিষ
তত্ত্বটি
##শায়ারের
বার্থ
##কামী
বিস্মৃত
ভাস্কর্যটি
ভোগের
চুম্বন
তছনছ
পাকাপোক্ত
ক্ষতবিক্ষত
শুনুন
নির্যাস
সহোদর
ব্রাঞ্চ
ন্যায্যমূল্য
গড়নের
ম্যানেজিং
সঙ্গীতজ্ঞ
অর্থপূর্ণ
মোম
সিসা
এগ্রিকালচার
সাপ্লাই
##ুদ্দীন
##ফেসবুক
পারতো
উৎসাহে
সম্পাদনায়
বিড়ম্বনা
দুবাইয়ের
করিডোর
আউটলেট
##প্রবাহ
দাঁতে
প্রহর
বেইজিংয়ে
স্কয়ারে
দুটোর
লিংকন
##ালয়
##আইএস
সঙ্গীদের
এসবই
কাশির
##াইজ
ফিলিপস
রঙ্গ
ইউরোপা
ইউরোপীয়দের
পাতানো
শহরাঞ্চলে
নিউটনের
মাথাব্যথার
##সরল
##প্রেমীদের
অনিক
চলন
তুলার
ঢিলেঢালা
মাইক্রোফোন
নির
আঁকতে
##ানের
স্লাইস
জিহ্বা
ফরওয়ার্ড
খামে
পিটিআইয়ের
##াইজেশন
পুঠিয়া
আরিয়ান
ধারাভাষ্য
রিয়াদের
সবখানেই
নিঃশেষ
লিগায়
উপকণ্ঠে
ম্যাকাও
##গলা
তাকেও
ছাড়ের
আলমারি
সবকিছুতেই
##মোট
মাইলস
উপরিভাগ
বারণ
চ্যাপেল
##মহা
হিসাবরক্ষক
##ধান
ভাষাবিজ্ঞান
কোপ
মুগ
প্যান্টের
##্যান
ব্লুজ
কেরানীগঞ্জে
হায়দারের
ছাপার
সাতবার
ওহাইও
মিলিশিয়া
আমেরিকানদের
জন্মবার্ষিকী
##মানি
বাসচালক
অংশীদারি
ব্যাপকতা
ফিলাডেলফিয়া
রাসায়নিকের
##আসলে
রাষ্ট্রপক্ষে
##খুলনা
##ডোর
প্রচ্ছদে
মিত্রবাহিনীর
ডিফারেন্স
বাংলাভাষী
##দ্ব্যাংস
দামেস্কে
আত্মপক্ষ
সেন্টারব্যাক
খো
অংশগুলো
মোঘল
চুম্বক
রিহ্যাব
বিবর্তনীয়
বিদ্যাপীঠ
##পূজা
ইনসাইডার
ধূমকেতু
পর্যবেক্ষকেরা
সাহসিকতা
টিকিটে
কোষগুলো
ঝুলছে
অহরহ
##পিস
উইলিয়ামসন
##টপ
প্রাক্কলন
ঠাকুরগাঁওয়ে
সৌভাগ্যের
##সিম
শেখায়
ঘামে
স্কুলছাত্র
সিরকা
ডার
দিককার
সুপারিশে
দারা
কেশ
##জানি
ব্রাসেলসে
রাজাপুর
##োক
খ্রিস্টধর্ম
সংশোধনীতে
কাসিম
সম্ভবতঃ
অন্তঃ
অক্সফোর্ডের
কতবার
তারপরেও
বিআইডব্লিউটিএর
বামফ্রন্টের
দোহার
বাক্যে
কল্পকাহিনি
হেরোইন
বাইনারি
দোয়েল
আশাব্যঞ্জক
সংযোজনের
মগধ
ইন্টারনাল
দাড়ায়
টিলারসন
রিচি
প্রাধ্যক্ষ
ইস্তাম্বুল
ক্যালকুলেটর
ডর্টমুন্ড
##সিয়ান
অ্যাসাঞ্জের
প্রতিকূলতা
ভেজানো
সিংড়া
কেবিনেট
মিনিস্টার
মামলাটির
মাহাত্ম্য
##গ্রস্ত
ডিজিজ
পরিকাঠামো
##কার্ড
স্বাস্থ্যঝুঁকি
##বন্ধ
চ্যাপ্টা
হেভি
সিক্ত
খিঁচুনি
কেনাবেচার
ব্যাক্টেরিয়া
জিমে
সংখ্যাগুরু
রানির
বৈশ্বিকভাবে
শান্তিনিকেতনে
পারিবারিকভাবে
চিরকুট
বসতবাড়ি
মঞ্জু
অনুবাদের
শান্তিরক্ষী
উত্তরসূরী
স্থিতিশীলতার
রাষ্ট্রপতিকে
শ্বশুরবাড়ি
লিপ
কখনোবা
আইডিএলসি
ঘৃণার
শোরগোল
অগ্রগামী
খলিলুর
সহসম্পাদক
লিখেছিলাম
বেটা
কন্ডিশনার
আইসোটোপ
লাকসাম
আমলাতন্ত্র
দ্বারে
অখণ্ড
ছাত্ররাজনীতির
পরশুরাম
করিতে
##নিজের
সংস্থাগুলি
ফ্লাইটের
##কট
চিশতী
প্রভোস্ট
গায়েবি
কন্ডিশন
উদীচী
গিলে
কোয়াড
বিবেকানন্দের
বুবলী
সদস্যরাও
চরমে
##গাছের
মহল্লা
পদমর্যাদা
##ব্
চিড়
##কাই
মাহমুদউল্লাহর
গোলযোগ
ট্যাপ
অগ্র
দোষে
সদিচ্ছার
ধারণক্ষমতার
আজিমপুর
##টনের
বেগমগঞ্জ
লেকচার
##ফলে
বদ্ধপরিকর
টেরাকোটা
ব্যপক
প্রচ্ছন্ন
নিচতলা
সৈন্যের
বিশ্বসেরা
পরিবেষ্টিত
পুনর্বহাল
##ম্মা
ক্লোরাইড
প্যারেড
স্কেচ
মোহিত
হোয়াটসঅ্যাপের
তেজস্ক্রিয়তা
বঞ্চনার
##টোন
চারিদিকে
##রোধী
গ্যালিলিও
মেশান
চিকুনগুনিয়া
নিক্ষেপের
##জেড
##নাক
লারমা
ডেন
বন্ধুদেশ
অণুর
ভূপৃষ্ঠ
##চামচপ্রণালি
বন্দনা
কিবোর্ড
ব্যান্ডে
##বিশ্বের
সমন্বিতভাবে
জাহানের
##্লা
ফাই
পিয়ংইয়ংয়ের
মরুভূমিতে
অ্যামি
ডেটিং
ডুডল
##বন্দর
মেমরি
##খণ্ড
##টকে
মারফত
হামলাকারীর
মরিসন
কর্ড
##চেন
সিসির
অনধিক
##মানবিক
মিলিলিটার
কারারুদ্ধ
এইচটিসি
পুরি
মুড়িয়ে
সুজা
জন্মনিয়ন্ত্রণ
নেতৃত্বকে
পৌঁছতে
সঙ্গীকে
বার্মিজ
নির্বাসন
স্নোডেন
গোপালগঞ্জের
তৃতীয়াংশ
সংযম
জোরেশোরে
অজান্তে
ফাঁসিতে
নদীপথে
গদি
সাইক্লোন
উইকেটরক্ষক
বহুদলীয়
কোরা
দীঘি
##মাফিক
উপাচার্যকে
বিশ্রামের
##ভাঙা
ভারতেও
ভেন
কাচা
কট্টরপন্থী
সঞ্চিতি
মুজিবকে
নন্দিত
##ঞ্জা
উদ্যোগটি
বেসন
বলুক
আইওয়া
আড়ত
##মহাদেশীয়
বিবাদী
মুখবন্ধ
দেখ
জন্মানো
গবেষণামূলক
বৈপরীত্য
সেশনজট
থুবড়ে
মালয়েশীয়
পতিতাবৃত্তি
কাঁদানে
মোতায়েনের
সুয়েজ
নেশার
স্পন্দন
কালচারাল
সূর্যমুখী
##বহুল
কয়লাখনি
সচিত্র
স্বাদে
বিভাজিত
##িসের
নদীবন্দর
তাঁদেরই
আমেরিকাতে
##জেস
##কুর
গ্লাসে
মৌচাক
বান্দরবানের
বিবিএ
##রিয়ান
##হারে
অসহিষ্ণুতা
দুর্গটি
চিড়া
হীরার
শ্রমবাজারে
##্প
ধর্ষিত
বক্সার
খোল
বছরব্যাপী
অনুশাসন
ত্রয়ী
রিন
সকালেই
কাতর
মুখপত্র
আইভি
ভোগা
চৌরাস্তা
জেদ্দা
ভুমিকা
খু
কর্ণফুলি
দোরগোড়ায়
নিন্দনীয়
মালয়ালম
উভচর
হেভিওয়েট
গোছের
ভুলত্রুটি
##জোড়া
বিআইডিএস
খোঁড়া
নুসরাতকে
পুরে
সবচাইত
কোয়ালকম
রূপকথা
জিনাত
সহচর
মাহমুদা
ওয়াল্ট
হুক
সুবিধাদি
লেখে
অনুপ্রবেশের
নিশানা
তেমনটি
ইতিবাচকভাবে
##গুঁড়া
মুলার
বসি
##ত্য
নবজাতককে
গেমটির
ইয়র্কে
ফিন
মাতিয়ে
##রাজ্য
প্লেন
মিশনারি
হৃদ্রোগ
##ধরনের
কোম্পানীগঞ্জ
রেফারির
##কারও
সকলকে
##ইসলাম
প্রতিস্থাপনের
প্যাট
নিকৃষ্ট
কর্তারা
ড্যাফোডিল
দিমিত্রি
ভণিতা
অ্যাডভোকেট
নিগৃহীত
সঞ্জু
অবজারভেটরি
অসামরিক
কোবাল্ট
##বিজ্ঞানের
মাখানো
বালাই
শ্রেণীবিন্যাস
মিঠা
বোম্বাই
কৃষিপণ্য
##অবরোধ
##স্থিত
ভিকি
গ্রামার
অ্যাঞ্জেলো
##ওয়ারি
টিকেট
আদরের
উদ্দেশ্যেই
উড়িষ্যার
পাহারায়
নড়ে
লেখকেরা
কাটেনি
ঢুকলে
##িণী
বারোটা
মানবতাবাদী
##নীর
কারবার
চরিত্রকে
ছেলেটা
শিষ্টাচারের
শব্দগুলো
ঢিল
ফ্লোরিডার
##গবেষকেরা
সিদ্দিকীর
পর্তুগীজ
গোয়েন্দাপ্রধান
হাইড্রো
জ্ঞানচর্চা
আশপাশ
অভিনন্দনের
মটর
জননিরাপত্তা
##ঝা
ইবনু
সংস্কারক
যেটিতে
রক্তনালি
টেম্পল
অঙ্গের
বিক্রিতে
ডোরেমন
অবলীলায়
নিউমারলজি
বড্ড
স্টেশনমাস্টার
বাসন্তী
উদদৌলা
##কক্ষ
মাহতাব
ঘটনাটির
কিনেছে
ট্রাফোর্ডে
মুরাদনগর
আড়ি
পাঞ্জাবী
চিরুনি
ঝিনুক
কাউ
জাগতিক
বেকারিতে
করপোরেশনকে
মুখমণ্ডল
জোনাসের
ফরমে
থ
পরিভ্রমণ
পরিশোধে
উঠানে
##কারের
আত্মগোপনে
মিনিটেই
##তুতে
রোমান্স
পদযাত্রা
##বিবাদ
অ্যানিমেটে
##নাশক
শঙ্কায়
ইউনি
##সিসি
শিশুশিল্পী
আঁচড়
ব্যবহারযোগ্য
আনবেন
ইভা
সুনিশ্চিত
পদচ্যুত
প্রদর্শক
প্লেটের
ছায়ায়
পিএম
আর্মেনিয়ান
পেপারস
রেসপন্স
ক্যান্টারবারি
মালদ্বীপে
লিচেস্টারশায়ার
ঢুঁ
দিতাম
বুখারী
সেবামূলক
##ননি
অস্পষ্টতা
থিসিস
কোক
ইউএনএইচসিআর
কোস্টগার্ড
পালকের
##স্থানে
মিতা
মানদণ্ডে
অপ্রত্যাশিতভাবে
##বিদেশ
##ব্যবসাপ্রতিষ্ঠান
আনল
ডলি
মশাল
জয়ললিতার
ভাষাতেই
নন্দীর
করিমগঞ্জ
ফিকশন
সৃজন
ঘুমানো
গ্রন্থনা
জোটকে
হসপিটাল
চিঠিপত্র
সর্বসাধারণ
তারল্য
শিষ্যদের
কুশ
প্রতিরক্ষার
জলপথ
থ্রো
##র্ড
অলিম্পিয়াডের
ত্বককে
##নুর
দাবার
আওতার
##ব্র
##খার
কথাবার্তায়
ট্রু
টেলিছবি
ভ্রমন
আবেদনটি
পরিচায়ক
অপরিণত
সুপ্রতিষ্ঠিত
আনুগত্যের
ব্যাসার্ধ
স্টা
যন্ত্রই
এমসি
নূরজাহান
এফবিআইয়ের
##ছাত্র
##ূল
##কারা
কেব্
নিজেরাও
সাইন্স
সংকেতের
বারবারা
সকালবেলা
স্বদেশে
যোনি
##মানুষের
##পুরী
পদকের
প্রেরণের
কনসার্টের
শুনছি
আশ্রয়স্থল
আইওসি
বিলম্বে
শ্রাবন্তী
##বুর
দৃশ্যটি
গানটিতে
সার্বভৌমত্বের
সোনাক্ষী
তৃণমূলে
সাম্রাজ্যবাদ
বিদ্যালয়টিতে
সন্ন্যাস
চলি
কোনোমতে
ফতুল্লা
পায়েল
বয়লার
মাকসুদ
জনপদে
এটিএন
রডের
কন্যাসন্তান
ফ্রাঙ্কো
মাঝামাঝিতে
টিজার
কাজাখস্তান
শিখিয়ে
চেম্বারে
তের
##ভালো
ইয়াঙ্গুন
ঘটাবে
ডেটাবেইস
ফিশার
আড়াআড়ি
অভীষ্ট
সম্পূর্ন
শুকাতে
কাজি
অ্যাঞ্জেলিনা
প্লাটিনাম
আহ
কমলে
##ব্যাম্স
কোম্পানিগুলোকে
উপরিউক্ত
ডিই
##জাতি
শরণার্থীশিবিরে
বিজোড়
উগান্ডা
##হের
কবল
গাঙ্গুলি
সিয়ামের
কূটনীতির
স্টিক
সম্বল
নির্বিঘ্ন
##চিহ্ন
রাখাল
##এভাবে
রন্ধনশৈলী
এনায়েত
থান
হাজরা
জোহরের
ভাটের
খান্না
লক্ষ্যেই
##ীভূত
গ্রুপটি
দন্ড
পূর্ববঙ্গ
হুয়া
দীপিকার
হুতি
পূর্ণিমার
উগ্রবাদী
বিজ্ঞাপনী
নাজির
মাওলা
বর্ষাকাল
অ্যাম্বাসেডর
লাঠিপেটা
নরওয়েজিয়ান
বৃহদাকার
ভয়ঙ্কর
কোকা
##ভাত
ভোটগ্রহণ
টিপে
গুঁজে
বোর্ডিং
শরিয়া
ফোর্সেস
##মিক
চড়াই
আলাপে
ইয়েন
##গানের
দিনগুলোয়
জমিদারের
পারছিল
গমনের
চাপানো
মহারাষ্ট্রে
##টর
##ফ্যাশন
সল
##য়াম
শিলার
নির্ধারণী
শাইখ
ঘাত
অটিজম
##ছাগল
মিশেছে
তেঁতুল
একাত্ম
নার্ভ
দশকেরও
বিশ্বাসঘাতক
ওয়ারা
অকৃতকার্য
পরিসমাপ্তি
দাখিলের
আতা
পানিবণ্টন
ফোটন
আধিকারিক
পজিটিভ
দ্বীপরাষ্ট্র
বলিরেখা
ভালোবাসতে
চিত্রায়ন
হেন
গ্লাভস
কার্নেল
গ্যাব্রিয়েল
সমস্যাও
শ্রীকৃষ্ণ
খাদেম
রোস্ট
আকুল
স্কিন
রশ্মির
শুষ্কতা
শ্রীলঙ্কাকে
পেসারদের
এলিস
ওমেগা
মার্কাস
অমুসলমান
উৎসবটি
উপহারের
নেদারল্যান্ড
ড্যাম
পেন্স
শান্তনু
বাহিনীগুলোর
জর্দা
লেস্টার
সত্তার
জড়তা
এরপরেই
ডিলার
##াঙ্ক
ইম
##ব্রিটিশ
##আন্দোলনের
রোহান
উদারপন্থী
ভুললে
করালে
সরকারগুলোর
কারাভোগ
থামানোর
##বিদ্যায়
সালেক
মেলামেশা
সংবিধানবিরোধী
চাচার
্যাপ
##উপজেলা
লিঙ্ক
আধুনিকীকরণ
আর্তনাদ
ভাঙাচোরা
বর্ষীয়ান
নারিকেল
পুনঃনির্মাণ
ফোয়ারা
হাবিবুল্লাহ
মই
অশেষ
ওয়েই
কর্পোরেট
জড়ান
ফোক
জায়গাগুলো
জোগাবে
আলবদর
আইপিএস
কালু
এমতাবস্থায়
ঘোরে
ম্যাক্সওয়েল
স্তালিন
ভাইসরয়
প্লাটফর্ম
দলিলে
বউয়ের
জেসি
প্রজাদের
আয়াতে
অ্যাথলেটিক
স্নায়ুতন্ত্র
স্যা
##হাসান
পার্কটি
কুতুবদিয়া
অসুর
##হাল
##তুল্য
মিত্রতা
হোন্ডা
কমন্স
বুজে
মফস্বল
##পূর্বাঞ্চলে
উৎ
বলায়
আলতো
বেকারের
ক্রাশ
##ওয়েস্ট
কবিরের
ভারতীয়রা
##োজ
এমদাদুল
ভাবিয়ে
টুইন
লেহ
শিল্পায়ন
##ট্টা
কড়ি
ঝলস
কেওড়া
ধনীর
স্বার্থান্বেষী
চ্যাটার্জি
চৌকস
##দানকারী
উদ্দীপ্ত
আশিকুর
একঘরে
চান্দিনা
কুর্দিস্তান
খোলাখুলিভাবে
ভূরি
স্বার্থরক্ষায়
স্কুলছাত্রী
গ্লানি
বিজ্ঞপ্তির
বিআরটিএর
জাহিদুর
করিয়েছিলেন
হুগো
রাজের
ঢিবি
নন্দিনী
যেদিকে
অবনতির
স্বেচ্ছা
##অব
অন্ধকারের
ইলেকশন
বাকল
হার্টের
##সমান
সমকামিতার
রাখাই
##ব্রি
অসহায়ত্ব
##মারী
পরোটা
ছায়াপথের
লেবাননে
কায়দা
উরুগুয়ের
দাউ
বয়োজ্যেষ্ঠ
স্ক্রিনে
মেক
##খানি
গানগুলোর
##হিত
##্দ
বৈঠকটি
হিন্দিতে
##ারা
প্রবৃত্তি
ব্যাঙের
গুয়াহাটিতে
ব্যাড
ঝি
শঙ্কার
অসুবিধার
মণ্ডপ
পোশাকটি
লক্ষে
উদাসীনতা
হর্স
অঘোষিত
জীববিজ্ঞানের
পশ্চিমাংশে
উদ্যানটি
##হীনতার
যন্ত্রাংশের
রিডার
ওয়াকিবহাল
##িংটন
পোখরাজ
নোলক
টাটকা
স্বাচ্ছন্দ্যবোধ
গুই
ভলিবল
সাম্রাজ্যবাদী
দয়ালু
##প্রতিটি
সেমিতে
ছুড়তে
চিপসেট
পেশোয়ার
ক্যাসেট
বাপ্পী
ফেসবুককে
কাতান
বহরমপুর
পানিবন্দী
শাবনূর
অবজেক্ট
ভাবেননি
সিউল
মেশাতে
ব্যাপারী
চাপুন
শূন্যে
##য়েট
সংগ্রহশালা
অনুপস্থিতির
বদলানোর
শেভ
শর্তগুলো
##মোকদ্দমায়
শিফট
গিফট
জেরুজালেমকে
গর্ভ
প্রকৌশলীর
বেরোনোর
ধনুক
##র্ত
বিক্রিয়ায়
আশুলিয়া
ফ্রক
কিউই
##ন্থ
পারলার
জাহির
##রেস
##স্টন
পালের
শেরপুরের
প্রার্থনার
##র্থ
##ঙ্কা
শয়তানের
বিগ্রহ
এনআরবি
জরাজীর্ণ
রুস্তম
এনক্রিপশন
ফ্লয়েড
সেলজুক
হ্যান্ডসেট
লাজুক
দালাই
জেন্টলম্যান
কায়িক
ক্যাফেইন
বঙ্গভঙ্গ
আয়ুর্বেদিক
শিলং
##যাওয়ার
লাদাখ
পত্রপত্রিকা
##বক্স
ফাইটার
পক্ষেও
##্থ
পোলাওয়ে
ইশারা
অর্থনীতিবিদেরা
পাইল
কুলসুম
শিক্ষানীতি
শুনিনি
সমকাল
অ্যাঙ্গেল
সৌরজগতে
নাড়ু
ফুটের
##সংগ্রামের
দলটা
ভাইবোনদের
##আইয়ের
##বিধি
সোনাদিয়া
লির
দুর্ভাগ্যবশত
জুল
বুদ্ধির
পালায়
পাশার
বর্ননা
সহিষ্ণুতা
চোয়াল
ডায়ানা
আর্টিকেল
##টেড
যাওয়াই
সতেরো
মুন্সি
পড়ছি
পানশালা
টোকিওতে
দেখভালের
কোয়ালিটি
চিত্তরঞ্জন
সেতার
##লন
রেজওয়ানুল
শ্বাসরোধে
যঁারা
##সঙ্গে
আরিফিন
কিড
এমএসসি
প্রোগ্রামটি
সাবধানী
সাল্লাম
পিডিবি
ব্লেন্ডারে
আদর্শগত
বেতারে
বছরগুলোয়
মুজিবুল
প্রেসিডেন্টকে
ইনিংসেই
তাকান
চলছেন
মেপে
ওয়াহ
প্রতিবছরের
মডেলটি
ভোজ
পরিণামে
স্টোরের
কাঠমান্ডুতে
নির্মাণকাজের
প্রিন্টের
হালের
##দর
হাঁকান
##ইনসাফ
প্রাপক
নাচতে
ব্রিজে
ভাষাগুলি
মোকাররম
তাআলার
মৈত্র
##সুন্দর
খ্রিষ্টানদের
দেখেও
দিইনি
সংজ্ঞায়
মহাভারতে
সংযোগকারী
লাও
ইন্ডাস্ট্রিতে
##াইড
উচ্চারণের
পৃষ্ঠতল
পর্যবসিত
মোফাজ্জল
কেমোথেরাপি
চন্দনাইশ
আত্রাই
আলাউদ্দীন
সমাজসংস্কারক
কোষাগারে
জেলাটিতে
সবকটি
বন্ধুসভা
কুইক
জান্তা
সেমিফাইনালের
##খোর
ভাগাভাগির
দক্ষিণপূর্ব
ভূমধ্যসাগরে
হিপ
ধর্মপ্রচারক
যোগাযোগে
তালগাছ
ক্রিয়াশীল
##ফ্রি
##সাহেব
পশ্চিমাঞ্চলের
মাইন্ড
একান্তই
নির্মানের
অশ্ব
সাতজনের
ফ্যা
##বিপক্ষে
মানোন্নয়ন
প্রাপ্যতা
বিশ্বভারতী
##ারে
জস
দাবিকে
খেলাগুলোয়
এমসিসির
পোশাকশিল্পে
আসনেই
ধুনট
খালটি
প্রতিও
চেলসির
তেজগাঁওয়ে
##নির্যাতন
বিতরণী
কাব্যে
মলের
বনানীতে
##নয়
সিপিআইএম
নির্দ্বিধায়
প্রলুব্ধ
কেলভিন
দেহাবশেষ
কালেকশন
অগস্ট
ক্লিনিকের
ধোঁয়াশা
বোল্ট
যুগোস্লাভিয়া
ফ্যাটি
মেধাবীদের
মস
ইঙ্গিতবাহী
সত্ত্বা
ইউক্রেনীয়
রূপটি
ক্যাটাগরি
রাজবাড়ি
পিকে
বান্দা
মাঝখান
উইলি
##ক্র
গৃহবধূকে
সমস্যাগুলোর
আমিনুর
সেবাদানকারী
হালিমা
##কিশোরী
জিহাদের
##গাম
আঁচল
কাশী
গণসংযোগ
আকাদেমি
পিঙ্ক
কোলা
##পরামর্শ
রয়াল
নান্দাইল
গাজীর
আগ্রাবাদ
##বিন্যাস
##শাল
পোলিও
##দানি
স্কটল্যান্ডে
##েম
গ্রামাঞ্চলের
শাসনব্যবস্থার
অংশগ্রহণকারীরা
লিভিং
কবুতর
সর্বাধিনায়ক
ব্যঞ্জনধ্বনি
কার্যাদেশ
সরগরম
পালনকর্তা
ছত্রচ্ছায়ায়
জনসংহতি
গ্রা
হাকিমের
রিচার্জ
দ্যুতি
ধুতি
দিবে
ভূমধ্যসাগরীয়
বোকামি
পারছিলাম
ইঙ্গিতপূর্ণ
বিডা
##ঘাটে
ঘোরা
পুতুলের
শিল
অলিম্পিয়াডে
আরশাদ
টাইটানিক
##্রা
ধারাকে
ব্লুমবার্গ
কর্তন
শাস্ত্রের
নন্দন
ডান্স
নাচে
ভাইজান
কট
কৈলাস
উচ্চবিদ্যালয়ে
সিবিএস
তরুণীদের
জাতীয়ভাবে
গোবিন্দপুর
ভাওয়াল
##বাজি
কান্নায়
ওসাকা
কর্তাদের
রত্না
বেঙ্গালুরুতে
শফি
ডাবিং
কৌশলী
অপারেটররা
শিল্পকলায়
##গ্রামে
রিকি
লোকেশন
##বিন্দু
দরিদ্রদের
নামাজে
নামতেন
সাজু
ঝক্কি
আত্মনিয়োগ
আয়তাকার
ঝাপসা
স্কার্ফ
জ্বালাপোড়া
পাহাড়তলী
ময়লার
পাল্টাতে
আলিপুরদুয়ার
নীতিকে
জিকির
সংশ্লেষণ
টিকবে
##নিয়ার
প্রতিবেদকের
দাঁড়িয়েছিলেন
গেঞ্জি
সংশ্লিষ্টতার
মরণ
জোহান
জনসাধারণকে
##এন্ড
মহাজন
উত্
জনস্বার্থ
পায়জামা
রিয়াদে
রাষ্ট্রগুলোর
##সিও
নামিবিয়া
##কারণ
ইপি
শেখান
তাহা
তৈরীতে
ফার্মা
##টার্মিনাল
ভুক্তভোগীদের
নেতানিয়াহুর
##ুদ
বার্নি
##সাবেক
স্বচ্ছন্দ
সিলিং
খোলসে
প্রসাধন
কন্যাকে
##সংগীত
ধু
উগ্রবাদ
ক্যাটস
গর্ভাবস্থা
##তিক
##ব্ক্
দুষ্কর
গড়িমসি
জোনাথন
এক্সটেনশন
যুগপৎ
##লব্ধ
##েলা
সম্পর্কটি
বিসিসিআইয়ের
এমআইটি
জার্নি
রাতভর
ক্লোরিন
ভূখন্ড
বিবাদের
বিশ্বেই
গার্ডেনে
পাটপণ্য
ফোটানো
পিরিয়ড
হুমকিতে
করাটাই
পচে
##র্স
আইওটি
অকপটে
##ক্যা
ভাঙনে
বদলায়
রুমী
ভিডিওচিত্র
দাই
রিপাবলিকানদের
##েটর
কমালে
মহ
ঘোষাল
##অন্তর্ভুক্তিমূলক
বিয়েটা
নিদ্রা
ফিকহ
সামলানো
শোভাযাত্রায়
কীর্তন
লন
মফিজ
##য়াং
##চীনের
ওড়িয়া
##ভর
##পক্ষ
হুঁশিয়ার
##য়ার্স
##বেশ
##দোন
##সাধারণত
নাইডু
ক্ষীর
পিয়েরে
শোধনাগার
জনজীবনে
স্কিল
কবরে
গভর্নিং
প্রশিক্ষন
ল্যাঙ্গুয়েজ
উঠুক
সারচার্জ
রিপোর্টের
সৌম্যর
স্নিগ্ধ
জাতিসত্তা
##বেরি
প্রতিপালন
ঈগল
মাসুদুর
অর্ধেকটা
পেয়েই
##টিস
হারিস
প্রযোজকদের
দরবেশ
সিডিএ
উভয়কেই
হেজাজ
উইকিপিডিয়ান
ক্রিক
অভ্যাসের
নিরপেক্ষভাবে
##এগারোর
সড়কগুলো
মুদ্রাস্ফীতি
উপশম
আইজি
ধৈর্যের
উঠান
গোলমাল
খেলাধুলায়
পরিখা
পিসির
জঙ্গির
##কেল
বিষয়ভিত্তিক
সুদীপ্ত
জনপ্রতিনিধিরা
আধ্যাত্মিকতা
##জম
সংযোগস্থলে
পাঠাবে
##স্বামী
অনুশোচনা
গুলিবর্ষণ
রাষ্ট্রসমূহ
খেলেছি
ইমেরিটাস
বিপথগামী
ড্রিমলাইনার
ভিকটিম
পুরাকীর্তি
অণুষ্ঠিত
সিলগালা
খৎনা
হার্বার্ট
মাতৃত্বকালীন
শিখবে
রেজাল্ট
অতুল
ঢালাওভাবে
বাকের
ইজি
ইউনিকোড
জগদীশ
##কম্পিউটার
নৃশংসভাবে
##সকাল
##ণখেলাপিদের
হিতে
গাফিলতির
অ্যাজমা
উরি
দুরত্ব
আভিজাত্য
ভ্যালির
চাকরিজীবীদের
দীপন
অবসানে
শ্রীলংকা
ওয়াদা
মুর্শিদাবাদের
ছাড়েননি
প্রমোদ
ক্যাপশনে
ককেশাস
দেখাবেন
কূটনীতিকেরা
##ালী
রাষ্ট্রগুলো
কংগ্রেসই
ইরা
মন্ত্রীসভা
গুজবের
এলআরবি
হাঁড়িতে
##পাট
রহমানসহ
ব্যাকরণের
একলা
##কান্ত
বির
সম্প্রসারণে
ক্রেগ
##স্তর
ক্রীতদাস
পেরেজ
বিধিবদ্ধ
মেঘালয়ের
পড়ান
চরিত্রগুলো
জলধারা
লিখেছি
হোসেইন
##াইটিস
টেকনিশিয়ান
ক্রীড়ায়
চোল
পুলওয়ামা
নবান্ন
ঘটনাটিকে
আতিক
আলাস্কা
উল্লম্ব
লরেন
সঞ্চালিত
আহ্ছানি
##আম
হস্ত
##র্ট
অপশনে
আয়নার
বৈচিত্র্যপূর্ণ
ছেঁটে
পাকস্থলী
ইরি
রাহা
বলছিল
পীড়ন
দাওয়াতে
বাজারজাতকরণ
##বলি
একনিষ্ঠ
গুরুং
##ব্রত
কেনায়
ব্যাংককের
প্যাভিলিয়নে
যকৃতে
ভগ্নাংশ
সাইরাস
ঢোকেন
কুমারকে
ভোটিং
আধুনিকতার
##ময়ী
কক্স
প্লেয়ার্স
ঐতিহ্যকে
গ্র
লক্ষ্যটা
##ভির
এরপূর্বে
##উচ্চ
রিচার্ডসন
##ধার
হারতে
##বিরোধীদের
##বৃদ্ধি
গ্রীস
সান্নিধ্য
ন্যা
প্রত্ন
অ্যাকর্ডের
তালুকদারের
##বই
চিল
বহির্বিশ্বে
##মনা
ভোররাতে
মানুষটিকে
মিরাজের
আসাদের
পুরুষতান্ত্রিক
##ল্হা
শামি
উপাত্তের
##পোল
খাদ্যমন্ত্রী
ভাজি
বিবির
করছ
##সন্ত্রাস
অপরাজেয়
পপুলার
ক্রয়াদেশ
গবাদি
পক্ষপাতিত্ব
শব্দটিকে
রুপান্তরিত
বিহারী
পিষ্ট
তীর্থস্থান
বিশৃঙ্খলার
##রাহ
খণ্ডের
##নিস
বনসাই
খ্যাতির
যু
##গার্ড
মোড়ের
বাহরাইনের
সিনাই
বিকাল
চালে
ডিজাইনাররা
শাখাটি
অটোমোবাইল
ঈ
সুনামগঞ্জে
বর্মা
টেনশন
মথুরা
নেটওয়ার্কিং
ওয়েলসে
রোলিং
চালনার
টাক
ইন্না
আত্মিক
জাগো
অসমে
ফ্রেন্ড
##ব্রিজ
মহাবিদ্যালয়ের
বার্ট
বধ্যভূমি
##অর্থ
##খাওয়া
মেসেজিং
##দৃষ্টিপ্রতিবন্ধী
ব্যালটে
##িংয়ে
উৎপাত
##গুলা
বছরগুলিতে
কেন্দ্রিক
##মুহাম্মদ
অপূরণীয়
এমানুয়েল
পাঁচফোড়ন
হিড়িক
ছোড়ার
লড়াকু
রূঢ়
টাঙানো
কুয়াকাটা
ফ্রেমওয়ার্ক
মেয়েটা
তাহাজ্জুদ
##ইনি
কিনবেন
শোনালেন
ইফতেখারুজ্জামান
##মাথা
দ্বায়িত্ব
জাকিয়া
চর্ম
খপ্পরে
সুদানের
পিয়ের
কান্ড
মিরা
জিনিসপত্রের
##বাণী
অ্যালিস
##যায়
প্লাজায়
##মিস
নাগাল
মিসির
চক্রে
##মুসলমান
উচ্চারণে
শিশুমৃত্যুর
উপগ্রহের
ঢের
##বিবি
নিশ্চিন্ত
কেশব
##আফসানা
##সেপ্টেম্বর
শাহবাগে
ধাঁচে
ড্রেসিংরুমে
আত্মীয়দের
ক্রাইস্টচার্চ
শরতে
##ইসরায়েল
উপভোগ্য
সান্তিয়াগো
অত্যাচারী
অর্ধশত
শাহাদত
প্রসেনজিৎ
সার্কুলার
মুজীব
এমসিকিউ
মিথ্যে
প্রবীর
দ্বিমুখী
আর্সেনালের
চার্চিল
বেটি
নিয়াজ
সুলাইমান
নিরস্ত্রীকরণ
##টিভি
মিললে
নেশনস
নির্দেশের
চাইল
অভিযোগকারী
মুনশি
মামলাগুলো
ফ্যানের
##প্রেস
জ্যাজ
রোমানিয়া
আরাধ্য
শোষণের
ক্রি
প্রাগ
ঠুকে
বৈদ্য
আকরিক
পড়াতে
অসহযোগিতা
আফ্রিকাকে
##ডস
সবে
##ুরিয়া
উপসাগরে
সর্প
উদযাপনের
##আসাদের
ক্লাইভ
উপজাতিদের
অদিতি
যেয়ে
ঝুঁকিও
রুবিনা
হ্যাম্পশায়ারের
বাজারেও
মাংসপেশি
পথচারীরা
##সহায়ক
রহস্যের
##ক্ত
ক্যাল
##সড়ক
যুদ্ধক্ষেত্র
বীভৎস
ত্বরিত
সমানে
ইকুয়েডরের
শৃঙ্খলার
##বিভাগীয়
নিশো
ভাবতেন
টেলিকমিউনিকেশন
হৃদরোগ
মেরেছে
##দাহ
অসুখে
ডায়াগনস্টিক
ডিক্যাপ্রিও
যথোপযুক্ত
অটোরিক্সা
হিংসাত্মক
সিকান্দার
প্রেশার
চুনাপাথর
চালাচ্ছিলেন
সুযোগটি
অমন
রামমোহন
ইনফ্লুয়েঞ্জা
রসুনের
বোর্ডকে
গোলাপজল
দুজনকেই
চারতলা
স্পঞ্জ
ওয়েবসাইটটি
##বাগানে
মনসা
সুবোধ
ফ্রাঙ্কফুর্ট
জাগায়
প্রতিযোগীতায়
সমাধির
সাদাকালো
##ধমকি
আলিফ
অন্ত্র
গোলাপের
##বন্দী
দখলদারদের
স্ক্যানার
নিম্নতম
উচ্চগতির
বস্তুটি
প্রকৌশলের
শৈশবকাল
##মঙ্গল
ছড়ার
ডিও
মেসেঞ্জারে
লেপ
আইডিয়াল
বাড়ান
শ্যামপুর
অ্যান্টনি
চিৎকারে
বিদ্ধ
মমতাকে
ভাস
কাটছাঁট
ফ্লোরে
বিশ্রামে
উমিয়া
চাহিদাও
গ্যারেজ
প্রচারাভিযান
##পস
ওয়ার্কশপ
ফিল্মসের
আয়শার
বীজের
চ্যানেলটির
বাণিজ্যযুদ্ধ
থাম
ম্যানেজমেন্টের
হিংসার
তিতুমীর
কৌণিক
উচিৎ
টমেটোর
ব্যথানাশক
শিখুন
মুখরিত
উপরাষ্ট্রপতি
কাঠবাদাম
##জ্যোতির্বিজ্ঞানী
জাজাই
মঙ্গোলিয়ার
গৌরবময়
পড়ছিল
স্ট্র
বাম্পার
আইনপ্রণেতাদের
খাবারদাবার
শুনিয়ে
আগরতলায়
আধিপত্যের
ফেড
মহাপরিকল্পনা
শাক্ত
মাসজুড়ে
নিভে
বার্জ
পাও
##বয়স
এসএস
খ্রীস্টাব্দে
লক্ষ্যটি
বর্ণনার
খলিফার
বর্ণালী
##োভ
সান্তোস
কার্যকরের
ট্র্যাকিং
কোনোটির
শতরান
ধোঁয়ায়
লাখে
সেলফ
প্লেটে
দোলা
র্যাব
আফ
একটুও
প্রয়াসে
অনুগামী
তথ্যটি
তুফান
ছবিতেও
তিলক
##েট্রিক
তিলে
ক্যালরির
কমিউনিটির
বিন্যাসের
পুত্রবধূ
শনিবারের
পূজিত
মার্শ
পরিপাক
##ব্র্গ্যুদ
অগ্রহায়ণ
আতিউর
মাশরেক
ভেদাভেদ
ফাইন্যান্সিয়াল
ডেবিট
অকালমৃত্যু
সিয়া
টিয়ার
লাইব্রেরির
নোটিশে
সামিনা
জেলখানায়
গুপ্তহত্যা
অপ্রিয়
মতুয়া
##্রে
মগ্ন
হকারদের
ক্যাম্পবেল
ভিভো
শার্প
অঞ্চলেই
কসরত
সমাধিতে
পতি
শক্তিগুলো
গোলাগুলিতে
ডেমোক্র্যাটরা
বিপক্ষ
আর্চ
##প্রীতি
ব্রাদারহুডের
##তারকা
যম
সামিয়া
##দির
##পাতি
সাজিদু
মশিউল
পররাষ্ট্রনীতির
স্বদেশি
##শ্রেণির
##আচরণ
মেক্সিকোতে
চ্যানেলগুলো
বুনন
এরমধ্যে
##ডিস
এশিয়াতে
##ঙ্গু
ঘুষি
কান্দাহার
##াও
আঙুলে
জাতীয়তা
মাহফুজা
তালু
জাগানো
এয়ারলাইন
সেনাদল
শাফিন
##বেক
##পেট
ঘটাচ্ছে
প্রেসক্লাব
##শহর
তালিবান
রিয়ার
বদরুদ্দোজা
রক্ষণাত্মক
চাবিকাঠি
চয়েস
মুড়ে
সম্পদশালী
চাটনি
টাইফয়েড
তাজরীন
ভূমিহীন
ডোবা
পেইন্ট
আকর্ষণে
সায়েম
কর্ণাটকে
হাতল
বাংলালিংকের
শেষোক্ত
দীপ্ত
আলিপুর
বৈচিত্র
বাতলে
বিষণ্নতায়
আঁখি
হাইকমিশনের
টার্নার
প্রতিবন্ধক
হিন্দী
বাকশাল
ফয়সালা
মাইলের
সময়সাপেক্ষ
চলচ্চিত্রেও
আজিজের
অর্ডারে
বাসাবাড়িতে
কবিগুরু
##যু
পর্বতারোহী
পরজীবী
চাষী
অ্যাভিনিউয়ে
##গুল
স্ট্যান
রহিমা
বজ্রপাত
বেদে
ভাসছে
দিঘির
##কেট
উঁচিয়ে
পলিটব্যুরো
হার্দিক
শামসুদ্দিন
গার্সিয়া
সংস্কৃতিবিষয়ক
হাঁচি
বিলুপ্তপ্রায়
তরুন
লাঙ্গল
এক্সট্রা
বাদুড়
সালিস
##্টারকন্টিনেন্টাল
বরবটি
স্বাধীনতাকামী
ব্রডকাস্টিং
সারতে
অ্যাপেক্স
পেঁয়াজবাটা
অল্পসংখ্যক
এভিনিউ
পোড়ানোর
সখীপুর
পীড়া
পিটুনি
##যারা
অপারেশনস
মোড়া
শ্রমিকনেতা
##েলের
কৃতী
##এসি
ছাড়ানো
আইচ
##ক্ষা
যন্ত্রণার
মণ্ড
শিবসেনা
কোয়েল
সাতজনকে
আউশ
ইউনিটি
পিঁপড়া
মাইক্রোবাসটি
জানামতে
আরএসএসের
পরিবেশকে
গাও
এটুকুই
স্বপ্না
##গবেষক
##ন্তি
জবরদস্তি
পুত্রকে
চোরাই
পারমিট
মরিশাস
প্রেমিকার
ঢুকতেই
##বাছাইয়ের
সরঞ্জামের
প্রসিকিউটর
মিথস্ক্রিয়া
##ম্বো
সিগারেটের
নিঃশর্ত
##এমএস
জ্যামাইকার
সারিয়াকান্দি
ঢামেক
বাচসাস
ব্যানার্জী
হেরাল্ড
আফিম
বীরশ্রেষ্ঠ
##ধন
সুলেমান
ঈশ্বরচন্দ্র
জেলাকে
যাবত
আপেক্ষিকতা
রাজ্যগুলি
আঁতাত
প্যান্থার
অন্তর্বাস
রেসিং
হইনি
জীববিজ্ঞানী
অনুসরণের
মোস্তাক
মালিবাগ
জেনেছেন
##নির্বাচনে
সংশয়ী
নাফিস
অতীব
মতিঝিলে
মৌখিকভাবে
অভিযোগগুলো
ক্ষেত্রটি
বিদ্যার
সামলানোর
সবসময়ই
ব্লাস্ট
##নীতির
খরচায়
উর্বরতা
##বস
মঙ্গলবারের
খোঁপা
ভোজন
বৈদ্যনাথ
মুশফিকের
বস্তুগত
সমাধিস্থ
গানগুলি
জয়নগর
হিজ
পরীক্ষার্থীর
জীবনসঙ্গী
যাইনি
পতেঙ্গা
ট্র
তুর
পশ্চাৎ
ডাকঘর
সহস্রাব্দ
বাকিগুলো
##নর্দাম্পটনশায়ার
বারংবার
কালবৈশাখী
তাহির
ফসিল
শ্রেণীবদ্ধ
তিমির
গিটারিস্ট
ব্যাকআপ
পাঠিয়েছিল
লোপাট
লাওসের
উত্তরটা
লেন্সের
প্রাইজ
##সংগ্রাম
রাখঢাক
জলদস্যুদের
##ভারতে
শিক্ষাদানের
##দৃষ্টে
দ্রৌপদী
বাক্সের
দ্বিগুণের
বিএসইসির
খুঁটির
জনগনের
পঁচিশ
দেউল
ফরমাল
##পায়ের
ছিনতাইকারী
শুট
আকৃতিতে
কতক্ষণ
##নগরে
ড্রেন
ধমক
গুণমান
মুহাম্মাদের
সময়টুকু
কিথ
হালুয়া
পক্ষকেই
কাঠামোয়
করাচির
##খ্রিষ্টপূর্বাব্দ
হিলি
লাহিড়ী
##গ্রন্থনা
সফরসঙ্গী
ডোম
ডেরা
ফার্মগেট
আলে
আয়ুষ্মান
ডিফল্ট
তৌকীর
পুয়ের্তো
মেরিলেবোন
ধেয়ে
সিজিপিএ
বঙ্কিমচন্দ্র
থিতু
লক্ষণগুলো
বিছানো
বাহিরে
হাসনাত
স্মৃতিকথা
বাকেরগঞ্জ
##সেন্ট
রূপগঞ্জ
পোস্টারে
শাম
স্পিডবোট
ব্লাক
বাঁধটি
দৃষ্টিভঙ্গিতে
##মিল
রাষ্ট্রদূতকে
দর্শককে
ডিয়েগো
দিনগুলোর
ক্রোড়পত্র
ইউএসএ
মধ্যেকার
লোয়ার
রংগুলো
সান্তাহার
উপপ্রধানমন্ত্রী
##বিডি
যুক্তরাষ্ট্রীয়
বাতির
##কষাকষির
জিনিসটি
টর
বিপণনের
তাইজুল
নামবেন
হুই
সেনানিবাসের
##বাক
ফাগ
##কষ্ট
##ন্তে
সিস্টেমটি
কুর
সতীর্থদের
হাওয়ার
প্যালেসে
নিরাপত্তাকর্মী
বাড়ালে
সাইজ
নয়াপল্টনে
বর্ষপূর্তি
বেশিবার
কিশোরগঞ্জে
উইংয়ে
##ফারুক
টার্ম
বাল্ব
##ঝাঁক
গ্যাজেট
বায়ুমণ্ডলে
ম্যানহাটন
##কাঠি
ক্ষোভে
উত্তরণে
ক্ল্যাসিক
ঐশ্বরিক
উত্পাদিত
গোলন্দাজ
সুসংগঠিত
বেদখল
মুলায়ম
প্রোটোকল
শয্যাবিশিষ্ট
কালজয়ী
অনুকরণীয়
বিক্রয়কর্মী
হ্রদে
মূত্র
অনলাইনভিত্তিক
বিএম
তথ্যানুযায়ী
খাদ্যনিরাপত্তা
চক্রটি
এনজিওর
মাঝেও
প্রবেশিকা
মোস্ট
##কানুন
ফসফেট
আলমগীরের
পঞ্চায়েতের
উল্টোটা
অঞ্চলটিতে
##তৃতীয়াংশের
টেলিটক
সিতারা
প্রসারণ
শুঙ্গ
ঝাঁক
প্রবাসীকল্যাণ
যাহা
প্রবেশপত্র
এথেন্স
তেহরানের
সিরিসেনা
কাস
বুড়ি
বাড়ীতে
অরণ্যে
বিশালাকার
পরবর্তি
জারী
##ম্যা
ন্যায়সংগত
##অভিনেত্রী
গাড়ী
সন্নিকটে
##ঘটিত
আউটের
জেলাতে
##রংপুর
ঢুকছে
কারবালা
ডেক
##প্যাসিফিক
হারার
যুধিষ্ঠির
কিঞ্চিৎ
তাড়াহুড়া
বেক্সিমকো
হাতছানি
আর্নল্ড
বেনিয়ামিন
ঘেমে
ভূটান
স্টাইলিশ
কেন্দ্রীয়ভাবে
বংশগতি
বিএমডব্লিউ
ভুটানে
ম্যাজেন্টা
গোবিন্দগঞ্জ
সুবিধামতো
মনস্তত্ত্ব
আজই
থামতে
অন্তরালে
রাধিকা
সোফা
ভেল
ক্রসফায়ারে
চীফ
প্রত্নতত্ত্ববিদ
##লিখিত
মাহফিল
উল্লাপাড়া
রাষ্ট্রীয়ভাবে
কলেজটিতে
ফার্নান্দেজ
মোনাজাত
মুক্তিলাভ
রক্তদান
চার্টে
তরলের
বিক্রমপুর
শ্মশান
সস্তায়
বিষয়গুলোতে
##এমনটা
উৎখাতের
কাজা
ডিল
অস্বাভাবিকতা
হামিদা
হজমে
গায়ানা
ফিতরে
ভীতির
বারবিকিউ
সোফি
গোলাবর্ষণ
শ্রদ্ধাবোধ
আত্মরক্ষা
হেরেছিল
আঠা
##বাহ
হেম
কলমে
##ট্রাক
পন্টিং
জড়াতে
জেঁকে
ডালিম
উনবিংশ
শ্রীরাম
জন্মনিবন্ধন
স্ক্রিনের
থ্রোনস
##ংগা
আইনজীবি
হুদার
প্রণয়ধর্মী
কেকের
রূপসী
রব্বানী
ঘটেনিহত
ওজনে
নির্ণয়ে
সলিউশন
ক্র
হিরা
যুক্তরাজ্যেই
অপারেটরের
##বাতাস
অভিঘাত
বামপন্থীরা
পরিচর্যার
পূর্বপুরুষদের
কাব
জনিত
ইব্রাহিমের
রামা
আইরিন
লোকেদের
ললিত
##তলি
হিলস
মৃত্যুহার
্যালি
ক্যাবল
মহড়ায়
##নেতা
কটূক্তি
প্রান্তিকের
আহাজারি
##ম্বু
ভুলভাবে
বাসস্থানের
উরুগুয়ে
##দাওয়া
পানে
##সভা
ঢালাই
অখণ্ডতা
পল্লব
ইয়াহুর
পাঠাও
কিনছে
আইসল্যান্ড
মোটরবাইক
শাসনাধীন
উদ্রেক
মিসবাহ
অটোমেশন
মহিবুল
হুন্ডি
স্লোভাকিয়া
রোমানদের
জর্জেট
##য়ু
কেয়ামত
শিল্পকারখানার
নদীগুলোর
মেলবন্ধন
কিলো
ভূপেন
##সারি
খয়েরি
ব্যয়ভার
পূর্বপুরুষের
সাক্ষ্যপ্রমাণ
নিয়মিতই
চিতা
ক্লিনিক্যাল
সাহাবী
ঝাড়ু
হীন
টোটাল
খাঁড়া
ছায়াছবিটি
##রত্ন
জিরার
##দেবীর
##প্রচারণা
ক্ষমতাও
রণাঙ্গনে
সম্প্রদায়ে
কলোনির
জেএসএস
রাহ
অধীনেই
মিকি
##াধীন
কারবারি
সিমন
কারসাজির
##থ্রি
ভেলা
রাখছি
কর্মযজ্ঞ
কসোভো
##অপারেশন
শার্লট
সোনারগাঁ
কীট
চেচেন
লাইভে
##গ্রোস
ওডিশার
##ম্খা
বাসগুলো
খোলাখুলি
ভিন্নধর্মী
##আর্য
লুথার
জলরাশি
টেস্টেই
শতবর্ষ
বিষয়ও
ধোঁকা
মূর্ত
হলিডে
মিখাইল
যোরহাট
ফ্রয়েড
জনসম্মুখে
সাইকেলে
ন্যাপকিন
সপ্তাহব্যাপী
##জানালা
##নাগাড়ে
বাহবা
##শিশুদের
আরোহন
ফয়সল
ইপিবি
পাঠালেন
অভিজ্ঞতাসম্পন্ন
হজ্জ
##সীমা
কিংবদন্তির
রপ্তানিমুখী
স্বশাসিত
সীতারাম
পনের
##থাং
লাইব্রেরিতে
ঐতিহ্যে
সরকারকেই
পাল্প
একবারই
অর্জুনের
প্রতিরোধক
স্কেলের
ওয়ান্ডার
পরীক্ষাটি
অঙ্গপ্রত্যঙ্গ
ধরেননি
জুলিয়াস
উদ্দীপক
মারাঠাদের
লিবার্টি
হাসিনাও
একমুখী
মান্দা
##মাখা
সেকালে
দায়বদ্ধতার
স্তোত্র
##বাদীরা
রিসোর্টে
এমব্রয়ডারি
আলপনা
ফিলিস্তিনিরা
টিসিবি
মিঞা
লাফটা
বেজার
দায়িত্ববোধ
ক্ষণে
গিয়া
##ব্যান্ড
এস্তোনিয়া
কালিম্পং
গড়েছে
ছুটছে
ঘটনাগুলোর
ইতোমধ্যেই
আনাতোলিয়া
মোহিনী
ডুমুর
স্যান্ড
এডিটর
অকল্পনীয়
কারিশমা
ক্রমোন্নতি
অনুতপ্ত
অশোভন
ইউপিডিএফ
দুর্ব্যবহার
নির্ভার
শিক্ষানুরাগী
ক্যাথেড্রাল
শোভাযাত্রার
হারাল
পঁচাত্তরের
বুশের
##স্কুল
উৎসুক
ইন্দোর
হেল্প
টাঙ্গাইলে
মোক্ষ
চালিয়েছিলেন
টাকাটা
জগত
আড্ডার
পার্কিংয়ে
মমি
করন
সিআইডির
যুদ্ধবিরতির
ঘানি
আশ্রমের
অতিবৃষ্টি
হিসাববিজ্ঞান
##জুর
জুলি
গ্রিসে
বসল
মুহুর্তে
##ক্যান
ভূতত্ত্ব
##ওন
বৈশিষ্ট্যগুলো
প্রাণশক্তি
গরীব
বনায়ন
##পড়া
কাজকর্মের
চতুর
গোষ্ঠীগুলো
কর্মদক্ষতা
মেং
ম্যাথিউ
##বেষ্টিত
করাচী
কনসোল
ক্ষুদ্রতর
##যোগাযোগ
সরণ
##ভাগে
##আধুনিক
ইউরি
বৃন্দাবন
মাঠেই
লুচি
মরছে
গলিত
গোঁড়া
কনুই
যৌগের
##ঈ
প্লাটিলেট
কেঁচো
মার্কেন্টাইল
সমীহ
হুংকার
কাপড়চোপড়
হাসিখুশি
অবারিত
শারমীন
জায়েজ
স্বস্তিতে
নির্বিচার
ইয়ামিন
চন্দ্রযান
লাউঞ্জ
আপিলের
জাহান্নাম
পৌঁছায়নি
##মেয়ের
##িড
খননকার্য
##র্ণ
চলচ্চিত্রসমূহ
ম্যাগ
জেসিকা
##য়ানা
কয়েল
ক্ষমার
পেইন্টিং
চৌম্বকীয়
রকমারি
কুরিয়ার
পালনকালে
দুটিকে
রুচির
জার্মানরা
কমিউনিকেশনস
আনলক
জাগ
##জার্মান
মূলমন্ত্র
কলোরাডো
গাঁথা
গলিতে
সাংসদকে
জলাশয়ে
##ভু
##জিগ্স
জোহরা
##কল্পনা
জারণ
##লিয়াকত
পূজায়
আইএসকে
ধর্মতত্ত্ব
##োরি
রাওয়ালপিন্ডি
মহড়ার
চরমভাবে
প্রকৃতিকে
আইল
রজব
ফোনালাপ
বায়োমেট্রিক
মঞ্জিল
অনাগ্রহ
বুর
শ্রীদেবী
ধিক্কার
পুনর্ব্যক্ত
ফাঁকফোকর
পরীক্ষাগার
সয়াসস
দ্রব্যমূল্য
##ঙ্গল
আঠালো
নিয়মানুযায়ী
অসলো
ঝাঁকে
সুখ্যাতি
উদ্ঘাটন
নিউক্যাসল
রিমেক
মুলতবি
নেগেটিভ
আবদুল্লাহর
ছুঁতে
##থো
##ভী
দরিয়া
##্না
কুড়িয়ে
সংঘটনের
মহিলাকে
লিখি
ঘটক
পঞ্চমুখ
সমতলে
মেস
প্রহার
নিগম
দুর
নির্ণায়ক
উপমা
হুল
পরিষেবার
জমার
জেমসের
উপকমিটি
লেখনী
##রচর
পড়ব
কলেজছাত্রী
##ন্দু
বাজানোর
পশ্চিমাঞ্চল
##এমনটাই
বৌ
থাকেননি
জঙ্গিবিরোধী
ভেবেছি
মোহাম্মদের
কুড়িগ্রামে
শিউলি
শ্যুটিং
পিজি
অ্যানো
খেতের
অ্যালবার্ট
কলাকুশলী
ক্রনিকল
স্মল
অতিপ্রাকৃত
ফিজিওথেরাপি
অবর্ণনীয়
মোতালেব
গণ্যমান্য
সলোমন
লাগছিল
ব্রাদার
শফী
প্যালেস্টাইন
সংরক্ষন
ইউনিক্স
##বিভাগ
মাস্তান
সাহরি
ডিজাইনে
ব্যারাকপুর
আনি
ট্রাক্টর
##োদ
গ্যাপ
মঞ্জুরুল
চপ
স্পিনিং
##দ্র
নিউমোনিয়ায়
এজবাস্টনে
দাপটে
##নির্ভরতা
চেয়ারের
স্টোরিজ
জিব
ইউরোপীয়ান
ফরসা
এযাবৎ
মহাশূন্যে
বিষয়গুলোকে
##বৃষ্টি
শারদীয়
সৃজনশীলতার
##মার্চ
##মানে
ফেরানো
ইলেকট্রনের
খার
##িচ
সঙ্কট
ভিন্নমতাবলম্বী
প্রাঙ্গনে
ষড়যন্ত্রে
ইউনিয়নকে
নিশি
ফুটপাতের
ওড়ে
চল্লিশের
তিক্ততা
আপ্লুত
পথপ্রদর্শক
পশ্চাদপসরণ
সিবিএ
সিগনাল
ইয়াসমীন
চার্জশিট
কোরিওগ্রাফার
##বাত
খামির
ফিটজপ
##শিয়ান
ফেটানো
##াশ
রিজেন্ট
সপ্ত
খামারি
পিতাকে
চন্দ্রগুপ্ত
বলছিলাম
বিএনপিতে
কুমড়া
হ্যাকারদের
লক্ষ্যও
একতরফাভাবে
বিসিসি
সালাত
লাগেজ
##সভায়
শিক্ষাগ্রহণ
বিনয়ী
দলটিতে
ধরছেন
রাজত্বকাল
থলে
##ুজ
হাঙ্গর
লোপেজ
মঙ্গেশকর
নামকরন
##দুরপুর
হ্যামলেট
কথাটির
##ট্টি
হাঁটাচলা
পরীমনি
মনোয়ারা
মুনি
নাবিলা
চীনাদের
##টাইম
##িকার
আদভানি
কাহিনীতে
বিম
ইউনূস
শেরে
ব্লগে
অপসারণে
তেঁতুলের
চিরে
##ট্
##ডান
##োঁ
কাজাখ
আত্মত্যাগের
উত্তরপূর্ব
এমপিরা
পান্ডে
কানেই
স্টেশনগুলি
এমপিওভুক্তি
##লাভের
স্নায়ুযুদ্ধের
##টেক্স
সর্বাগ্রে
নূতন
সাধ্যমতো
গুরুত্বপূর্ন
ভার্জিন
##স্রোং
একরামুল
ঝিল্লি
দুঃসাহসী
##ভার্স
জিডিপিতে
পাঁচেক
##কাণ্ড
হাদিসের
উচ্চকক্ষ
হিসাবরক্ষণ
প্রসন্ন
মতান্তরে
বাথরুম
বায়োপিক
##গোষ্ঠীর
ল্যান
মানবীয়
ছাড়বেন
খন্ডে
##বাংলার
অ্যাপগুলো
বড়ই
উদারতা
সব্যসাচী
রকিব
প্রতিকূলতার
দরগাহ
সিপিবি
হালাল
রয়েছি
নিরামিষ
রাইফেলস
স্টেম
জ্যাকসনের
##অর্থাৎ
চিক
বিসমিল্লাহ
কাউন্সিলরদের
ড্রয়ের
জয়জয়কার
সেলেনিয়াম
ত্রিপক্ষীয়
শিল্পোন্নত
আইএমএফের
তালাবদ্ধ
মাঙ্গা
ল্যান্স
পান্ডুলিপি
ডিঙিয়ে
রসুল
অক্সফাম
স্বতঃপ্রণোদিত
ভাউচার
সায়ীদ
অশিক্ষিত
##্টা
##ীক
গেটওয়ে
কণ্ঠের
আকাশসীমা
##বারি
হ্যা
উত্তরপত্র
পানিনিষ্কাশন
হঠাৎই
হলফনামায়
লালিত
বর্ধনশীল
পিকনিক
লতাপাতা
জিয়াউদ্দিন
কুঁচি
স্ত্রীদের
সাইকেলের
সিঁথি
মেটে
আলীগ
রাঢ়
ইকোনমিকস
ইডি
পরিবারকল্যাণ
স্টেপ
স্ট্রেস
##সদস্যের
##মহল
কনস্যুলেটে
শহরগুলো
ঘানা
সংক্রান্তি
রিলে
বিল্ড
দাঙ্গায়
##্টের
ভজন
ট্রুডো
ইন্ডাস্ট্রিজের
দেশসমূহের
ডিশ
বুঝা
রথযাত্রা
যুবকেরা
ফেম
ফোম
এডেন
##দস্তুর
বিবরণে
##আসাদ
##সাইট
বিএস
অতীতেও
ম্যানুয়াল
উঠার
সুপ্রাচীন
ড্রেজার
প্রোটেকশন
মাগফিরাত
ট্রান্সমিশন
স্মৃতিবিজড়িত
রান্নাবান্না
কলুষিত
অনির্বাচিত
ট্যাংকার
##ক্রিয়া
দেওয়াল
ব্যালন
লরা
ফারাও
##চির
লেসলি
প্রাণিবিদ্যা
অসমিয়া
সামছুল
সানজিদা
কলামিস্ট
সারাংশ
সোশ্যালিস্ট
শরণার্থীশিবির
আরাফাতের
বহুবচন
দর্শনার্থীরা
স্থাপনাটি
লুনা
মুক্তবাজার
দিনটিতে
##শিন
অমৃতা
বিমার
অ্যাসেম্বলি
ওয়ার্কস
অম্ল
উড়ছে
##গ্রহ
##কভ
দীপ্তি
প্রজাতিটিকে
শ্বশুরবাড়িতে
বিফ
উপনিষদের
##বার্ধক্যজনিত
লিগার
অ্যাক
আলসার
অস্বচ্ছ
কবরী
##মোবাইল
টিপস
##হার্ট
আকা
দোকানগুলোতে
কালেক্টর
##িফ
দারিদ্র
##ফট
আকাশচুম্বী
শ্রদ্ধেয়
অ্যাকসেস
ভগিনী
ট্রিটমেন্ট
পোক্ত
ওতপ্রোতভাবে
ঘণ্টাখানেক
হস্তগত
হাতকড়া
শিবলিঙ্গ
গোছানো
করাবেন
চিহ্নিতকরণ
ট্যুরিজম
মাইগ্রেন
স্লিপার
মারলেন
আত্মজীবনীমূলক
খোদা
রহঃ
সম্রাজ্ঞী
তীব্রভাবে
##গাস
গাঠনিক
দুইয়ে
শিকাগোতে
মাতৃমৃত্যুর
##ত্রি
বালাকোটে
রোমিও
সদয়
চার্চে
বইপত্র
ট্রয়
নেদারল্যান্ডসে
গণপিটুনিতে
যাত্রাবিরতি
মুরসি
উদয়ন
ব্যান্ডেজ
প্লের
শব্দদূষণ
সম্বন্ধ
##েস্ট
তাপীয়
আকন্দ
জিল
রণতরি
কেবিনে
মানবিকতা
##রীতি
সুজান
হওয়াতে
নিরব
হিউজ
বিবাদে
জেটিতে
প্রথমা
সাজসজ্জা
নিউরন
##দৃশ্য
ভুলগুলো
নেটফ্লিক্সের
আফগানিস্তানকে
নিজেকেই
##অথচ
প্রতিরূপ
আলির
চুড়িহাট্টা
মদীনা
##পিন
পরিকল্পনাটি
স্ম্যাকডাউন
হাঁটছে
হাঁটেন
অবশেষ
দস্যু
মিনহাজ
##তান্ত্রিক
আবহাওয়াবিদ
অবজারভার
অবৈতনিক
ক্ষণস্থায়ী
প্রলয়
নওশাদ
ট্রিনিটি
উন্মেষ
সাউথইস্ট
যাতায়াতে
আনন্দদায়ক
পারেনা
নাসিরউদ্দিন
ফ্রাঁসোয়া
##ভাঙ্গা
দূরীকরণ
##প্ত
প্রযুক্তিনির্ভর
জিতিয়ে
##হ্যাম
অপমানজনক
ছড়ি
##শিক্ষার্থীরা
পুনর্দখল
##াকা
##ম্বার
প্যারোলে
##তোর
মার্কসবাদী
ভালুক
খাবারও
রেডি
হাসন
##গ্রামের
##বিশেষজ্ঞ
ভাষাবিদ
তৈজসপত্র
কালিদাস
অ্যাসিডের
গালাগাল
লটারি
##েলি
নসরুল
গালা
##আমিন
দোলনা
##বৈজ্ঞানিক
নৃ
মণিপুরে
টেলিফিল্ম
নাসিমা
নিলয়
##েক্স
দক্ষতায়
তনুর
##ভীতি
গ্যালারী
বেতারের
পন্ডিতের
##ম্বি
বিতণ্ডা
মূল্যায়নে
##েন্ড
##মুরগি
##এমপি
উসমানীয়দের
সুপ্রিয়
##এসসি
নওয়াজকে
দ্বিখণ্ডিত
পুঙ্খানুপুঙ্খ
ইরশাদ
এলজিবিটি
অধিপতি
শুভেচ্ছাদূত
ম্যাডাম
সুরেন্দ্রনাথ
সদস্যগণ
স্ট্রাকচার
প্রাসাদটি
কার্বোহাইড্রেট
##য়ং
ছাড়ছে
অনভিজ্ঞ
পঠিত
##প্রান্ত
গুন্ডা
আও
স্বাধীনতায়
ভিজ্যুয়াল
ট্রেডার্স
শাঁস
অকারণে
##গোর
পাবলো
##মাছ
সাহেবকে
কলম্বোয়
আহমেদাবাদ
অরাজকতা
অন্তরজ
হেমা
বিভ্রান্তির
##গাও
##ট্রো
চুলগুলো
নৈকট্য
সমারসেট
শহরতলির
আড়ংয়ের
##দিনে
##সহযোগিতা
##নাটক
ছড়িয়েছেন
সাধনায়
##ক্রা
বালতি
প্রার্থীতা
যায়না
এডিবির
গৃহস্থালির
রুশদের
দোকানগুলো
##ণা
রুপিতে
ঘনমিটার
##নেওয়ার
যকৃত
মাত
##িডি
অধিকারকে
গুয়া
নেছা
নিরলস
##রিয়াল
গালিগালাজ
প্রবহমান
পোস্তদানা
কুমুদিনী
পহেলা
আইপিডিসি
লোকালয়ে
বুর্জোয়া
মৌলভী
পেটব্যথা
উঠেপড়ে
নামই
আবেগকে
প্রতিযোগীতা
জলাশয়ের
উদ্যমে
মিস্ত্রি
হচ্ছিলেন
মাহ
##রানি
কাজু
সিঁদুর
জোকার
ভাইরাসে
খাঁচায়
আইনপ্রণেতারা
##ট্রাম্পের
সার্ভিসেসের
তলদেশ
চেয়ারম্যানকে
ফরাসিদের
শৈব
মানছেন
ঠিকানার
এওয়ার্ড
বর্ষপঞ্জি
আঁধার
ফিলিং
##ব্রে
শ্রেণীবিভাগ
উদ্ধারকাজে
বেতের
ফ্রে
দশায়
##কোনা
স্কুলছাত্রীকে
অ্যাজেন্ডা
মুরের
পাতিল
রাউন্ডের
আবাদি
বিত্তবান
হানছে
সংশ্লেষ
উপশহর
জনবলের
##ইসি
আইনজ্ঞরা
তাড়না
উপসংহারে
##বোর
##লিয়ান
রিহ্যাবের
রোগবালাই
মজিবর
লুকোচুরি
দীপঙ্কর
দৌড়ঝাঁপ
নজিবুর
শ্রীহট্ট
##র্ত্সে
কেনেথ
ক্লোন
##একবার
ইলেকটোর
কল্পবিজ্ঞান
এলডিসি
উৎপল
বারিধারা
##স্টি
##তন্ত্রের
##দ্রি
আমানতকারীদের
হাঁকাতে
##শালী
দেশসমূহ
দ্রব্যাদি
পাহাড়প্রমাণ
বাশারের
ইউনিয়নটি
পিটিশন
রাখো
কুরি
কামরান
সচেতনভাবে
গায়ানার
স্বনির্ভর
দেশটাকে
নাশতার
পরিপক্ব
কমা
সেকেলে
দেবগন
একশত
অতিক্রান্ত
পৌত্র
ল্যাবে
আয়বৈষম্য
উদ্যত
মধ্যস্থতাকারী
এসার
উপাসনালয়
##রোগ
অ্যাজ
ডালিয়া
কলাকৌশল
কৃত্রিমভাবে
টেকনো
অচলাবস্থার
শ্রীদেবীর
##হত্যা
শক্তিগুলোর
রনৌত
বায়ুমণ্ডল
প্রাকৃত
কোবরা
পেপারে
একরঙা
পেইন
মুম্বাইতে
##সেনা
গ্রি
রাইডার
মণিপুরের
শ্রোতারা
অস্ট্রো
টিয়া
টানাপোড়েনের
দোষের
কড়াই
শ্যামা
ছানি
রেশন
অ্যারিজোনা
এজিএম
বেলার
পণ্যটি
আঁটসাঁট
কায়কোবাদ
কুৎসিত
ম্যাসাচুসেট্
ক্যালকুলাস
অর্কেস্ট্রা
ওয়েলফেয়ার
রেডক্রস
যোধপুর
অন্তরীণ
বহমান
উতরে
আলোকবর্ষ
ঙ্গোর
স্পার
দীর্ঘশ্বাস
দমকল
##গটগট
র্ন্যিং
সচ্ছলতা
মুস
রংয়ের
অন্যান্যরা
আগ্নেয়
##েয়
##্যের
খুলেছে
লিচুর
কেদার
##ধ্বনি
##নন্দ
সোয়ান
গুজবে
##থম
রাজারহাট
##নাট্য
কৈ
উৎপত্তিস্থল
ডিনার
কারে
থাবা
প্রজেক্টর
বারোটি
কাপুরকে
ইউএই
জন্মনাম
##হুয়া
ভবনটিতে
বধূ
ইউনিলিভার
ফুজি
শাসকগোষ্ঠী
টাইটান
##াউ
##মায়
এসির
মারামারির
সমুহ
##কর্মচারীর
##পরিবারের
দিস
হারা
ঘোড়ায়
জঙ্গিগোষ্ঠীর
জেনার
রবার্টস
মেহতা
মুর্শিদ
লর্ডসের
শরিকদের
সার্কের
পরিভাষাটি
লালনের
সমকামীদের
রোবটটি
ওনিল
শ্রীনিবাস
##গৃহ
চাইছিল
টেলিগ্রাম
##বিক
মাতৃভূমি
ক্যানন
##মেল
গ্রহন
##গুপ্ত
নাথান
ঘটনাবলির
ফেনা
পঞ্চবার্ষিক
এক্সক্লুসিভ
গিরিবর্ত্ম
গ্লিসারিন
শাশ্বত
পোকেমন
গেরুয়া
গ্যাস্ট্রিক
ডিপার্টমেন্টের
শাওয়াল
ভক্ষণ
অত্যাবশ্যকীয়
সঙ্গীরা
কারুকার্য
পারফিউম
বিমসটেক
বিবর্ণ
ছত্তিশগড়
দেশত্যাগ
বিষুব
লাবণ্য
আরাধনা
তারানা
হ্যারিকে
গণমানুষের
মোদ্দা
##্যাট
##আলম
বইও
পাচারকারীদের
ঘুমান
লিটারের
বর্গকিলোমিটারে
সারাতে
ছাল
ব্রাউজারের
প্রভাবক
স্বকীয়তা
পিচাই
##কোল
##দণ্ড
লৌকিক
##অপরের
বার্কলে
চলাফেরার
ইউক্রেনে
ধুলাবালি
মুখেই
পুস্তিকা
চেতনাকে
##চিকিৎসা
নৃগোষ্ঠী
আবেগে
বিদ্যুৎকেন্দ্রে
জাম্প
গণতান্ত্রিকভাবে
##সম্পাদক
খড়্গ
নিষ্ঠার
##ঈদের
উন্মত্ত
##সোহরাব
কচুরিপানা
চিত
হাতার
দীনেশ
উত্থানে
সমালোচনাও
সাংকেতিক
হাততালি
অ্যাগেইন
জেনোসাইড
সিলেকশন
বাজিমাত
আতশবাজি
দেশপ্রেমের
দৃশ্যকাব্য
আইডল
শিখেছিলেন
আমানুর
লড়বেন
রুমিন
নির্বাচকেরা
ব্রিফ
সুপারের
শিবমন্দির
বার্নস
শক্তভাবে
ঠাসা
ঙ
কাউন্ট
আঁত
দ্রুততর
সায়মা
বীণা
##বিধান
কীটপতঙ্গ
ফ্লোরিডায়
প্রজাতন্ত্রে
সংমিশ্রণে
কাটলে
এক্সিম
##দেহ
আলট্রা
বেগুনী
হরহামেশাই
##গির
স্থানাঙ্ক
সফটওয়্যারে
মার্কিনদের
রকমে
সূর্যাস্তের
ফরাসিরা
এলআরবির
##কাশ্মীর
এন্টারপ্রাইজের
পুরুষরা
প্যাকেজের
##হাব
##মাটি
প্রতিধ্বনি
ল্য
##্নি
সীমায়
অসন্তুষ্টি
মাহা
##সাহিত্যিক
শক্তিমত্তা
মলম
নভোযান
জয়ললিতা
ওয়াচের
বদি
জাপানিদের
অবহেলায়
পর্যায়েই
মনন
জুড়েই
এতিমখানা
গুরুতরভাবে
জুগিয়েছে
##পাওয়ার
নারকীয়
গান্ধীজি
লিখছি
আর্টিফিশিয়াল
মেধাস্বত্ব
বাস্তববাদী
নিক্ষিপ্ত
পোষ্য
বিল্লাল
গ্ল্যামারগন
কার্যাবলী
ফেলিক্স
আসগর
পেরেক
শৃঙ্খল
প্রতিহিংসার
দৈনিকে
নরম্যান
বক্র
ঘটনাবলী
ছুঁড়ে
নীলচে
ইমদাদুল
পরিমার্জন
তদ
লোকমুখে
ফার্নান্দো
ব্যক্তিবর্গের
প্রস্তুতিতে
ট্যা
কাড়ে
গণনায়
বেনারসি
শ্যালক
##শাস্ত্র
গানই
পড়াকালীন
রণকৌশল
সুধীর
রামপুর
##তুমি
অপুষ্টির
বেড়িয়ে
মুশতাক
রুপান্তর
চৌহান
আরএনএ
পূর্বাভাসে
কায়
জুয়াড়ি
##যুগের
কুরু
ভো
##শিক্ষার
বহুদূর
গতিশীলতা
মার্কার
শজনে
নেইল
ছাড়লে
মোহনপুর
অস্কারের
বিধায়কদের
স্বাতন্ত্র্য
##হ্যাঁ
পরিচালককে
পাঞ্চ
উত্তরাখণ্ড
##ঘেঁষা
##দ্দা
খেলাই
কোণের
আভিধানিক
কলম্বাস
জুতসই
অগাধ
মাদারিপুর
মুখরোচক
মুন্নু
নিপতিত
সুরেন্দ্র
হিমেল
হিজাব
অশান্তির
গুজরাত
পুলিশপ্রধান
রিফাতের
গাঙ্গেয়
আশ্রিত
বুলিয়ে
দলিলের
ঝুরি
শাহজাদপুর
থামছে
তলের
এয়ারওয়েজের
সহস্রাব্দের
নৈশ
খসড়ায়
দুর্নীতিবাজদের
দুরে
বোতামে
মন্ত্রক
সাঁওতালদের
##য়ায়
জুড়িয়ে
সিলেটি
পরিবারসহ
##উভয়
ফেলায়
জটলা
পাহাড়ধসে
##ন্য
সেনকে
মুঠো
পাচারকারী
সমতলের
শিষ্টাচার
দেওয়ালে
দাসী
##ব্যয়ের
ইসলামসহ
কোহেন
হামিদের
সোমা
পোশাকগুলো
মধ্যমাঠে
কস্ট
##াবে
##কাজের
গ্যাসীয়
গেজেটে
বিন্যাসে
খুনিরা
জ্যোতিষশাস্ত্র
দলেরই
ওমেন
পূর্ন
মুচলেকা
প্রিজন
এক্সট্রিম
থাকাই
##োয়ার
কারোর
##অভ্যুত্থান
বনজ
ইলেক্ট্রো
পুডিং
গ্রিফিথ
ইয়াছিন
উড়ুক্কু
কনসোর্টিয়াম
বিশ্বজনীন
যোসেফ
রপ্তানী
মহররম
উপমহাব্যবস্থাপক
কৃষ্টি
তাসনিম
কিয়ামত
দণ্ডনীয়
আফ্রো
বক্ররেখা
বর্শা
জুয়েলারি
সারাদেশে
কানাইঘাট
উপদেষ্টার
কাশিমপুর
পাটজাত
পরশ
হজযাত্রীদের
দাঁড়ালেন
ভারতরত্ন
##শব্দ
ট্রমা
শিল্পকর্মের
ডেট
লৈঙ্গিক
ওষুধে
ফিগার
সাদমান
আগুয়েরো
ধারণাই
তথ্যও
নামায
ট্রলি
অভিযাত্রা
নির্যাতনে
বাইশ
জাই
তালের
ফ্লেচার
বাদ্য
বিচারপতিকে
লিল
বেগের
দালালদের
বংশধরদের
রুয়ান্ডা
##করণে
নেভিল
অস্ত্রাগার
জাহাঙ্গীরের
বোতলের
অভ্যন্তর
্যাম্বো
প্রশমন
পয়সার
ইয়োগা
স্ক্রাব
মহুয়া
খণ্ডন
ট্যাবের
প্রতিপত্তি
চোরের
জেনি
আঁধারে
চৌকি
পদত্যাগে
আত্মজীবনীতে
##লাইফ
মিলেই
প্রক্সি
অসুখের
##টিসি
বিরোধিতায়
সিসিলি
##ধারণ
অভিজাতদের
ছাগলনাইয়া
রোকসানা
পূবালী
দেনমোহর
নীহারিকা
মেয়ার
অ্যাস
গ্রোথ
বিলাসিতা
আদমজী
নিঝুম
খুঁটিয়ে
খুরানা
কৃতকর্ম
##পাশা
নিন্দিত
ফ্লাই
বেনজীর
##গ্রু
বিবর্তনে
ডাইক
দোস্ত
সেলুলার
##প্রকার
গণপরিষদ
ভেনেজুয়েলায়
##চ্যুত
বিজিত
দেবপ্রিয়
তামাশা
বনাঞ্চলে
পার্কার
অনুবাদে
পূর্ণসংখ্যা
##কফি
নাশিদ
ফাঁপা
নোড
মঙ্গা
করদাতার
অ্যাসোসিয়েট
কর্তৃত্বের
আয়কারী
মহাবীর
বুঝবে
##সমস্যা
সভ্যতায়
কৃতিত্বে
##ধর্মীয়
জওয়ান
স্কুলশিক্ষক
এলসি
রানাঘাট
অন্যরাও
শরিয়ত
সেনেগাল
ঢঙে
ভরাডুবি
##পাত্র
সারসংক্ষেপ
নলের
টবে
বলশেভিক
নিষ্ক্রিয়তা
বৃহস্পতির
হ্যাজার্ড
সুনামির
ত্রৈমাসিক
মরিচা
আগারগাঁও
হোল্ডার
বংশীয়
##পাক
খুতবা
অলংকৃত
আইসিডিডিআরবি
টর্পেডো
বেমানান
এলএলবি
প্রাইমটাইম
কেন্দুয়া
এনএলডি
এইচএমডি
প্রদর্শনে
যব
হতভাগ্য
ফার্মের
শ্রফ
বানচাল
বিশ্বকাপজয়ী
বনলতা
সম্পর্কহানি
নিতম্ব
অমরনাথ
নির্ধারন
রাগে
কষানো
মোক্তার
জানবে
ন্যায্যতা
গ্রান্ট
ট্রায়াল
বিকাশমান
রেডমি
নাপোলি
আইজাক
উপরিতল
মিশতে
চাঁদাবাজ
রেজিস্টার
পেপ
ভ্রাতৃত্ব
শিক্ষাঙ্গনে
কালিমা
যুদ্ধরত
পরিপূর্ণভাবে
তুষ্ট
সাইক্লিং
##ইজ
নিরাশ
রামদা
##মণ্ডল
স্বপ্নকে
জিতলেও
টিউশনি
এফডিসিতে
পাচ্ছিল
ওরাকল
আলিয়ার
ওরে
মাজা
ছোড়েন
ভেতরটা
##সংঘাত
সূর্যাস্ত
##প্রত্যক্ষদর্শীরা
স্ফীত
তেমনটাই
ভানু
##ছু
মালিঙ্গা
##চ্ছেন
র্গ্যাল
রূপচর্চা
সিলন
অনুমানের
অন্নপূর্ণা
ডেট্রয়েট
পিটার্সবার্গ
##গ্র
প্রযুক্ত
আয়ার
ক্রিস্টি
প্রতিযোগীর
আর্জেন্টিনায়
ছাতক
##েসের
##অন্যান্য
##সঙ্গীত
ওম্যান
হিজবুল্লাহ
নকশাকার
রাঙ্গা
##শিল্পে
চিত্তাকর্ষক
পর্য্যন্ত
সিপাহী
হিমোগ্লোবিন
অগ্রগণ্য
ধলেশ্বরী
নিরীক্ষণ
ইমরোজ
বরুড়া
##জ্জ্বল্য
##কিম
দূরদর্শী
ভূমিষ্ঠ
গ্রহীতা
যত্নবান
পরিশীলিত
হইল
ভ্রমণকারী
শ্রেনীর
মৌমাছির
এমএফএস
পাইলটের
চ্যালেঞ্জার্স
সমুদ্রসৈকত
ভাঙ্গন
বিরোধীদেরও
ড্যাশ
ধর্ষকের
এসিসি
টার্ন
##ব্যয়
##দুন
হাসপাতালগুলোতে
ফেস্ট
পজিশনে
হাবল
ভোররাত
গ্রিনল্যান্ড
##নাগ
রাষ্ট্রধর্ম
##শেন
বিজেপিবিরোধী
শতাব্দির
জিংক
প্রশাসনিকভাবে
উপবিভাগ
থার্টি
আয়েশ
ইউরিয়া
ঝাঁকুনি
অন্টারিও
প্ল্যাকার্ড
কথাশিল্পী
##নারি
অস্থাবর
টয়োটা
হালি
বংশবৃদ্ধি
ইউনিক
ওয়েভ
##কেবল
সাদি
##গল্প
ন্যু
মিগ
পারসন
কাউর
গগৈ
##আরব
ষ
সৃষ্টিকর্তার
##প্যা
##্লি
সুগন্ধ
##যেসব
বায়ুমণ্ডলের
একঘেয়ে
##বাজেট
খবরাখবর
ইমপ্রেস
প্রোজেক্ট
ক্রিমিনাল
দৃষ্টিগোচর
নাট্যব্যক্তিত্ব
সোপ
স্বস্তিদায়ক
ভাজুন
স্বাধিকার
সাবা
শিক্ষণীয়
নির্দয়
পিছলে
কাপপ্রণালি
প্যাকেজে
গৌরনদী
আলাপচারিতায়
লোহাগাড়া
বেলজিয়ান
খোদিত
উদ্যমী
ভাইরাসজনিত
লালনপালন
পাগলামি
টানেন
রাজপরিবার
বাস্তবতাকে
দোহায়
##সৌদি
চিড়িয়াখানায়
উজির
##স্কু
বলপ্রয়োগের
মেজাজে
নাটকগুলো
পরিদপ্তর
##ল্যান্ডের
খারাপের
ফেক
কলিঙ্গ
ভিত্তিমূল্য
লাইটার
##বৃত্ত
শিরোপার
##জগতের
মাঝখানের
ট্যানারির
জিএসটি
তাপসী
মাঝারিসারি
হালিশহর
বিদ্রূপ
পরী
ঝাং
বলিনি
নেওয়াটা
লেকে
ষাঁড়
ব্যঞ্জনবর্ণ
মাপার
##কল্যাণ
স্থগিতের
##োভা
শাসনকারী
ইয়ার্ড
বয়সেও
##রানী
পুশ
ঘোরার
##কণ্ঠ
সাতক্ষীরায়
সহপাঠীদের
##হন
আঞ্জুমান
##বেলাইনে
গোষ্ঠীস্বার্থ
প্রাইস
ইহুদিরা
বাঙলা
ইনাম
মানহানি
অনুপাতের
##কার্য
রোমানরা
মহল্লায়
নিকি
রেনে
মানবদেহে
লেভি
[...]
